{
  "version": "1.0",
  "truncation": null,
  "padding": null,
  "added_tokens": [
    {
      "id": 0,
      "content": "<cls>",
      "single_word": false,
      "lstrip": false,
      "rstrip": false,
      "normalized": false,
      "special": true
    },
    {
      "id": 1,
      "content": "<sep>",
      "single_word": false,
      "lstrip": false,
      "rstrip": false,
      "normalized": false,
      "special": true
    },
    {
      "id": 2,
      "content": "<unk>",
      "single_word": false,
      "lstrip": false,
      "rstrip": false,
      "normalized": false,
      "special": true
    },
    {
      "id": 3,
      "content": "<pad>",
      "single_word": false,
      "lstrip": false,
      "rstrip": false,
      "normalized": false,
      "special": true
    },
    {
      "id": 4,
      "content": "<mask>",
      "single_word": false,
      "lstrip": false,
      "rstrip": false,
      "normalized": false,
      "special": true
    },
    {
      "id": 5,
      "content": "<s>",
      "single_word": false,
      "lstrip": false,
      "rstrip": false,
      "normalized": false,
      "special": true
    },
    {
      "id": 6,
      "content": "</s>",
      "single_word": false,
      "lstrip": false,
      "rstrip": false,
      "normalized": false,
      "special": true
    }
  ],
  "normalizer": {
    "type": "Sequence",
    "normalizers": [
      {
        "type": "Replace",
        "pattern": {
          "String": "``"
        },
        "content": "\""
      },
      {
        "type": "Replace",
        "pattern": {
          "String": "''"
        },
        "content": "\""
      },
      {
        "type": "NFKD"
      },
      {
        "type": "StripAccents"
      },
      {
        "type": "Replace",
        "pattern": {
          "Regex": " {2,}"
        },
        "content": " "
      }
    ]
  },
  "pre_tokenizer": {
    "type": "Metaspace",
    "replacement": "▁",
    "prepend_scheme": "always",
    "split": true
  },
  "post_processor": {
    "type": "TemplateProcessing",
    "single": [
      {
        "Sequence": {
          "id": "A",
          "type_id": 0
        }
      },
      {
        "SpecialToken": {
          "id": "<sep>",
          "type_id": 0
        }
      },
      {
        "SpecialToken": {
          "id": "<cls>",
          "type_id": 2
        }
      }
    ],
    "pair": [
      {
        "Sequence": {
          "id": "A",
          "type_id": 0
        }
      },
      {
        "SpecialToken": {
          "id": "<sep>",
          "type_id": 0
        }
      },
      {
        "Sequence": {
          "id": "B",
          "type_id": 1
        }
      },
      {
        "SpecialToken": {
          "id": "<sep>",
          "type_id": 1
        }
      },
      {
        "SpecialToken": {
          "id": "<cls>",
          "type_id": 2
        }
      }
    ],
    "special_tokens": {
      "<cls>": {
        "id": "<cls>",
        "ids": [
          0
        ],
        "tokens": [
          "<cls>"
        ]
      },
      "<sep>": {
        "id": "<sep>",
        "ids": [
          1
        ],
        "tokens": [
          "<sep>"
        ]
      }
    }
  },
  "decoder": {
    "type": "Metaspace",
    "replacement": "▁",
    "prepend_scheme": "always",
    "split": true
  },
  "model": {
    "type": "Unigram",
    "unk_id": 2,
    "vocab": [
      [
        "<cls>",
        0.0
      ],
      [
        "<sep>",
        0.0
      ],
      [
        "<unk>",
        0.0
      ],
      [
        "<pad>",
        0.0
      ],
      [
        "<mask>",
        0.0
      ],
      [
        "<s>",
        0.0
      ],
      [
        "</s>",
        0.0
      ],
      [
        ",",
        -3.555167700683638
      ],
      [
        "▁the",
        -3.601791529852729
      ],
      [
        "▁you",
        -3.667533777959223
      ],
      [
        "▁to",
        -3.7325771024771015
      ],
      [
        "▁a",
        -3.966374416569316
      ],
      [
        "▁I",
        -4.169328149506626
      ],
      [
        "▁of",
        -4.44664283003595
      ],
      [
        "▁and",
        -4.5625996715041595
      ],
      [
        "▁that",
        -4.631827620387149
      ],
      [
        "▁in",
        -4.684293165039476
      ],
      [
        "▁is",
        -4.802997013297597
      ],
      [
        "▁it",
        -4.814463049602061
      ],
      [
        "▁for",
        -4.982615068233049
      ],
      [
        "▁have",
        -5.085150590706952
      ],
      [
        "▁was",
        -5.090291915399439
      ],
      [
        "▁me",
        -5.09773450058346
      ],
      [
        "▁this",
        -5.1307403345620415
      ],
      [
        "▁be",
        -5.165736199317795
      ],
      [
        "▁your",
        -5.185619290464858
      ],
      [
        ".",
        -5.204861181377419
      ],
      [
        "▁my",
        -5.214202169119524
      ],
      [
        "▁on",
        -5.230891753962352
      ],
      [
        "▁not",
        -5.238059336075937
      ],
      [
        ".-",
        -5.284640274942543
      ],
      [
        "▁with",
        -5.292162420792154
      ],
      [
        ".I",
        -5.297793915937982
      ],
      [
        "▁don't",
        -5.317792139004656
      ],
      [
        "s",
        -5.322401734141881
      ],
      [
        "▁are",
        -5.343408302122796
      ],
      [
        "▁do",
        -5.359096531049067
      ],
      [
        "▁we",
        -5.370390400973124
      ],
      [
        "▁know",
        -5.384296261176122
      ],
      [
        "...",
        -5.402121245579668
      ],
      [
        "'s",
        -5.447060203033475
      ],
      [
        "▁just",
        -5.554728335107322
      ],
      [
        "▁what",
        -5.562751372761824
      ],
      [
        "▁all",
        -5.629215698882728
      ],
      [
        "▁like",
        -5.643424439866273
      ],
      [
        "▁he",
        -5.681446022021316
      ],
      [
        "▁out",
        -5.693306148488112
      ],
      [
        "▁about",
        -5.6972243351068546
      ],
      [
        "▁get",
        -5.739830157677542
      ],
      [
        "▁",
        -5.758846029054615
      ],
      [
        "▁can",
        -5.791330120698465
      ],
      [
        ".You",
        -5.803421035263403
      ],
      [
        "▁I'm",
        -5.816272935749076
      ],
      [
        "▁at",
        -5.824356014691327
      ],
      [
        "▁want",
        -5.892968126626929
      ],
      [
        "▁her",
        -5.92346109338447
      ],
      [
        "▁up",
        -5.9244456888703745
      ],
      [
        "▁one",
        -5.936861933362202
      ],
      [
        "▁think",
        -5.939168076242369
      ],
      [
        "▁so",
        -5.958738061474895
      ],
      [
        "▁but",
        -5.9602099264981625
      ],
      [
        "▁got",
        -5.984467524522184
      ],
      [
        "▁him",
        -6.028208189339548
      ],
      [
        "▁if",
        -6.033038054828877
      ],
      [
        "ing",
        -6.079592631856508
      ],
      [
        "▁here",
        -6.085028379063576
      ],
      [
        "▁will",
        -6.097084373749636
      ],
      [
        "▁go",
        -6.098769757215777
      ],
      [
        "▁his",
        -6.119701566232379
      ],
      [
        "▁from",
        -6.153188254686601
      ],
      [
        "▁it's",
        -6.177939429363752
      ],
      [
        "▁as",
        -6.194841045557721
      ],
      [
        "▁they",
        -6.212897385022945
      ],
      [
        "▁see",
        -6.21993966355333
      ],
      [
        "▁you're",
        -6.241382880205087
      ],
      [
        "▁gonna",
        -6.245353648048532
      ],
      [
        "?",
        -6.246424304989027
      ],
      [
        "▁going",
        -6.25279980658622
      ],
      [
        "▁right",
        -6.25898804210563
      ],
      [
        "▁an",
        -6.271154266588011
      ],
      [
        ".I'm",
        -6.277442895164773
      ],
      [
        ".And",
        -6.28485557760199
      ],
      [
        "▁there",
        -6.297972609298522
      ],
      [
        "▁were",
        -6.330089465424786
      ],
      [
        "▁been",
        -6.3330070599020996
      ],
      [
        ".It's",
        -6.348710050120376
      ],
      [
        "▁she",
        -6.3507014180587795
      ],
      [
        "▁back",
        -6.352775784709218
      ],
      [
        "▁had",
        -6.364346344699962
      ],
      [
        "▁no",
        -6.376506313095433
      ],
      [
        "▁need",
        -6.405413290596497
      ],
      [
        "▁did",
        -6.4098382726874075
      ],
      [
        "▁would",
        -6.4303820229156194
      ],
      [
        "▁us",
        -6.437583941024874
      ],
      [
        "▁when",
        -6.4611402832450615
      ],
      [
        "ed",
        -6.462388031037355
      ],
      [
        ".The",
        -6.468793654474032
      ],
      [
        "▁some",
        -6.476447435488208
      ],
      [
        "▁them",
        -6.485313336191984
      ],
      [
        "-",
        -6.4906706409309685
      ],
      [
        "▁could",
        -6.497830222997797
      ],
      [
        "▁time",
        -6.499401285543938
      ],
      [
        "▁can't",
        -6.506186564844079
      ],
      [
        "▁or",
        -6.5086089178910935
      ],
      [
        "▁who",
        -6.516100412101347
      ],
      [
        "▁our",
        -6.520065420418934
      ],
      [
        "▁-",
        -6.527196188891606
      ],
      [
        "▁how",
        -6.5293251387085505
      ],
      [
        "▁take",
        -6.533172438370157
      ],
      [
        "?I",
        -6.557606880859151
      ],
      [
        "▁come",
        -6.580039677403171
      ],
      [
        "▁didn't",
        -6.586059058558808
      ],
      [
        "▁good",
        -6.597526875764817
      ],
      [
        "▁tell",
        -6.613953553046816
      ],
      [
        "▁really",
        -6.618136240321492
      ],
      [
        "?-",
        -6.625284833954238
      ],
      [
        "▁has",
        -6.641142240658127
      ],
      [
        "▁now",
        -6.644965266905221
      ],
      [
        "▁by",
        -6.653539170881768
      ],
      [
        "▁make",
        -6.656600025996694
      ],
      [
        "▁more",
        -6.666956754848654
      ],
      [
        "▁something",
        -6.669677677838838
      ],
      [
        ".We",
        -6.724621715527573
      ],
      [
        "▁say",
        -6.7357199307331665
      ],
      [
        "▁way",
        -6.751624943017667
      ],
      [
        "!",
        -6.758717856593688
      ],
      [
        ".But",
        -6.76115643189341
      ],
      [
        "▁never",
        -6.768566161908464
      ],
      [
        ".Well,",
        -6.781476637419249
      ],
      [
        "▁over",
        -6.794863503264443
      ],
      [
        "▁little",
        -6.799890550648914
      ],
      [
        ".What",
        -6.814573934042921
      ],
      [
        "▁only",
        -6.8491893907100145
      ],
      [
        "▁people",
        -6.856858433496212
      ],
      [
        "▁You",
        -6.857858765036094
      ],
      [
        ".He",
        -6.859122745955593
      ],
      [
        "▁off",
        -6.861122147353825
      ],
      [
        "▁any",
        -6.876966070964545
      ],
      [
        "▁should",
        -6.885975337639837
      ],
      [
        "▁very",
        -6.892759761143591
      ],
      [
        "▁down",
        -6.898617956022397
      ],
      [
        ".It",
        -6.9167988652150445
      ],
      [
        "d",
        -6.919843159419635
      ],
      [
        "▁then",
        -6.924678193208088
      ],
      [
        "▁too",
        -6.925228949857682
      ],
      [
        ".This",
        -6.931678528278077
      ],
      [
        "▁that's",
        -6.932271884851559
      ],
      [
        "▁why",
        -6.933917800755778
      ],
      [
        "▁man",
        -6.95202919204843
      ],
      [
        "▁said",
        -6.962226753774175
      ],
      [
        ".That's",
        -6.996562765315951
      ],
      [
        "▁thing",
        -7.00229389412277
      ],
      [
        "▁into",
        -7.003526098698039
      ],
      [
        "▁find",
        -7.004987309490526
      ],
      [
        "▁love",
        -7.014169951756086
      ],
      [
        "▁he's",
        -7.037155337532087
      ],
      [
        "▁where",
        -7.0383615551839345
      ],
      [
        "▁know,",
        -7.046662563548574
      ],
      [
        "▁look",
        -7.051252538993792
      ],
      [
        "▁much",
        -7.055118532726566
      ],
      [
        "▁doing",
        -7.055393042334449
      ],
      [
        "▁am",
        -7.058971760575786
      ],
      [
        "▁two",
        -7.059063020567833
      ],
      [
        "▁I'll",
        -7.065667146518003
      ],
      [
        "▁help",
        -7.084374372470976
      ],
      [
        "▁because",
        -7.090139082493139
      ],
      [
        "▁even",
        -7.0975289336720735
      ],
      [
        ".If",
        -7.107367729747869
      ],
      [
        "▁talk",
        -7.112299780076596
      ],
      [
        "▁other",
        -7.119753152421579
      ],
      [
        "▁than",
        -7.12925841635163
      ],
      [
        "▁give",
        -7.132493396652527
      ],
      [
        "▁their",
        -7.141369858963479
      ],
      [
        "?You",
        -7.14265413370488
      ],
      [
        "▁thought",
        -7.143822508015049
      ],
      [
        "▁we're",
        -7.1518765813961425
      ],
      [
        "▁still",
        -7.156851940880967
      ],
      [
        "▁let",
        -7.165011091088925
      ],
      [
        "▁anything",
        -7.178794638302606
      ],
      [
        "▁work",
        -7.180937706499961
      ],
      [
        ".Oh,",
        -7.1844263060638065
      ],
      [
        "▁before",
        -7.191188607472178
      ],
      [
        "y",
        -7.191765395379002
      ],
      [
        ".You're",
        -7.20156668721557
      ],
      [
        ".So",
        -7.20165474954943
      ],
      [
        "▁these",
        -7.206191754097574
      ],
      [
        ".No,",
        -7.234519439746092
      ],
      [
        "▁What",
        -7.235480882989993
      ],
      [
        "▁first",
        -7.2356470093859695
      ],
      [
        "▁sorry.I'm",
        -7.258209844983892
      ],
      [
        "▁told",
        -7.26919744132881
      ],
      [
        "▁last",
        -7.274819546686713
      ],
      [
        "e",
        -7.279439341142523
      ],
      [
        "▁call",
        -7.281753419340271
      ],
      [
        "▁life",
        -7.288805831864466
      ],
      [
        "▁must",
        -7.3040758716721985
      ],
      [
        "I",
        -7.309886983361274
      ],
      [
        "'d",
        -7.3268026129841415
      ],
      [
        ".I'll",
        -7.328311858403268
      ],
      [
        "▁sure",
        -7.347094306167284
      ],
      [
        "▁things",
        -7.3475488907300415
      ],
      [
        "▁\"",
        -7.3483897410129035
      ],
      [
        "▁after",
        -7.354316883665416
      ],
      [
        "▁ever",
        -7.358962971250098
      ],
      [
        "▁put",
        -7.359753465558926
      ],
      [
        "▁long",
        -7.3617561910172284
      ],
      [
        ".A",
        -7.366361203693978
      ],
      [
        ".They",
        -7.36917672623341
      ],
      [
        "▁those",
        -7.376060545820944
      ],
      [
        "▁believe",
        -7.378449615049107
      ],
      [
        "▁I've",
        -7.380291421058155
      ],
      [
        "▁doesn't",
        -7.386422769474315
      ],
      [
        "▁me,",
        -7.40422108430227
      ],
      [
        "▁keep",
        -7.414544724262954
      ],
      [
        ".How",
        -7.416392375367322
      ],
      [
        "▁won't",
        -7.423803115771637
      ],
      [
        ".Yeah,",
        -7.42655092884575
      ],
      [
        ".She",
        -7.432949302018132
      ],
      [
        ".That",
        -7.434134141924237
      ],
      [
        "▁always",
        -7.4343389107600615
      ],
      [
        "▁around",
        -7.434603673635847
      ],
      [
        "▁day",
        -7.438924327682278
      ],
      [
        "\"",
        -7.447148926545102
      ],
      [
        "▁nothing",
        -7.454074538942122
      ],
      [
        "▁through",
        -7.465892242661253
      ],
      [
        "▁years",
        -7.473168999177635
      ],
      [
        "▁made",
        -7.475557992053083
      ],
      [
        ".Why",
        -7.484696881600289
      ],
      [
        "▁away",
        -7.4961752790566925
      ],
      [
        "▁lot",
        -7.503056096844102
      ],
      [
        "▁better",
        -7.50568979919646
      ],
      [
        "▁feel",
        -7.50586509115909
      ],
      [
        "▁guy",
        -7.50884104865128
      ],
      [
        "▁kind",
        -7.509788168550938
      ],
      [
        "▁wanted",
        -7.512351277860071
      ],
      [
        "▁mean,",
        -7.526958837703846
      ],
      [
        "▁place",
        -7.530467172127483
      ],
      [
        ".He's",
        -7.532480934785278
      ],
      [
        ".All",
        -7.539093667955192
      ],
      [
        "▁leave",
        -7.545978331649874
      ],
      [
        "▁old",
        -7.546416501788204
      ],
      [
        "▁know.I",
        -7.546698809409688
      ],
      [
        "▁everything",
        -7.549929013231272
      ],
      [
        "▁there's",
        -7.552626691950175
      ],
      [
        "▁might",
        -7.555717623361222
      ],
      [
        ".My",
        -7.56142903797973
      ],
      [
        "▁new",
        -7.577266621467628
      ],
      [
        "▁talking",
        -7.581179008445774
      ],
      [
        ".Do",
        -7.585405938803243
      ],
      [
        "▁And",
        -7.588525008218675
      ],
      [
        "ly",
        -7.597385588551987
      ],
      [
        "▁night",
        -7.601330980787699
      ],
      [
        "▁It's",
        -7.604383958695231
      ],
      [
        "▁guys",
        -7.607286719862287
      ],
      [
        "▁being",
        -7.610031814621379
      ],
      [
        "▁own",
        -7.612896714402561
      ],
      [
        "▁home",
        -7.614429643129526
      ],
      [
        "▁The",
        -7.620822129619879
      ],
      [
        ".\"",
        -7.625466659181897
      ],
      [
        "▁someone",
        -7.6259724076523625
      ],
      [
        "▁left",
        -7.626117132276297
      ],
      [
        "▁sorry",
        -7.636347392781246
      ],
      [
        ".Don't",
        -7.637503161649852
      ],
      [
        "▁came",
        -7.637683182966669
      ],
      [
        "▁found",
        -7.63796466853923
      ],
      [
        "▁coming",
        -7.643105460666356
      ],
      [
        "!-",
        -7.6449409315824886
      ],
      [
        "▁looking",
        -7.645581010277665
      ],
      [
        "s,",
        -7.645731057346969
      ],
      [
        "▁name",
        -7.646037587581273
      ],
      [
        "▁kill",
        -7.648606707183169
      ],
      [
        "!I",
        -7.650214916033901
      ],
      [
        "▁trying",
        -7.653685436032681
      ],
      [
        "▁big",
        -7.670512391161247
      ],
      [
        "▁every",
        -7.672353837415171
      ],
      [
        "▁another",
        -7.677963933054606
      ],
      [
        "▁isn't",
        -7.680094922920755
      ],
      [
        "▁great",
        -7.686453122589193
      ],
      [
        "▁done",
        -7.692260809217063
      ],
      [
        "▁mean",
        -7.693328122384853
      ],
      [
        "'ll",
        -7.698481819236538
      ],
      [
        "▁money",
        -7.710488237028399
      ],
      [
        "▁wasn't",
        -7.711772459765817
      ],
      [
        "▁does",
        -7.716278717765684
      ],
      [
        "--",
        -7.72477142237692
      ],
      [
        "▁saw",
        -7.725611965160395
      ],
      [
        ".I've",
        -7.732844664866327
      ],
      [
        "▁same",
        -7.735179503472712
      ],
      [
        "?I'm",
        -7.738141058619442
      ],
      [
        "?And",
        -7.741447766536182
      ],
      [
        "a",
        -7.742704574590824
      ],
      [
        "▁went",
        -7.746283538553404
      ],
      [
        "▁stop",
        -7.747334511771034
      ],
      [
        "▁hear",
        -7.7510813632285975
      ],
      [
        "▁getting",
        -7.758094296061731
      ],
      [
        "▁she's",
        -7.7584182254632905
      ],
      [
        "▁bad",
        -7.76057559876913
      ],
      [
        "▁happened",
        -7.768988191522454
      ],
      [
        "▁real",
        -7.769913710622063
      ],
      [
        "▁ask",
        -7.775039782134313
      ],
      [
        ".We're",
        -7.784016686092937
      ],
      [
        "▁A",
        -7.788259384527111
      ],
      [
        "▁else",
        -7.790534415794061
      ],
      [
        "▁they're",
        -7.799501171769688
      ],
      [
        "▁right,",
        -7.8015308138427795
      ],
      [
        "?What",
        -7.803379834010161
      ],
      [
        "er",
        -7.805080373488433
      ],
      [
        "▁please",
        -7.806475997279673
      ],
      [
        "▁again",
        -7.810108875774897
      ],
      [
        "▁girl",
        -7.81308285438363
      ],
      [
        ".Just",
        -7.813751619443213
      ],
      [
        "▁enough",
        -7.8192529189263285
      ],
      [
        "▁three",
        -7.819959857807486
      ],
      [
        "▁world",
        -7.821540007747507
      ],
      [
        "▁which",
        -7.830204283732411
      ],
      [
        "▁whole",
        -7.831570830312383
      ],
      [
        "▁stay",
        -7.833527055542699
      ],
      [
        "t",
        -7.843736494458945
      ],
      [
        "'",
        -7.849164684043041
      ],
      [
        "?It's",
        -7.852805220625897
      ],
      [
        "▁hell",
        -7.859506860354472
      ],
      [
        "▁wouldn't",
        -7.86545859981693
      ],
      [
        "▁I'd",
        -7.8670174194718365
      ],
      [
        "▁show",
        -7.86901934237531
      ],
      [
        "▁care",
        -7.870904531073247
      ],
      [
        "▁remember",
        -7.871229717576188
      ],
      [
        "▁father",
        -7.872550293506528
      ],
      [
        "?The",
        -7.873038150566627
      ],
      [
        "▁knew",
        -7.874089589050988
      ],
      [
        "▁used",
        -7.876054235272748
      ],
      [
        "▁next",
        -7.877069589227163
      ],
      [
        "▁few",
        -7.879153225784657
      ],
      [
        "▁nice",
        -7.8823764694966165
      ],
      [
        "▁best",
        -7.882960876541699
      ],
      [
        "▁live",
        -7.887504122909065
      ],
      [
        "▁may",
        -7.891648080212043
      ],
      [
        "▁you've",
        -7.8921738451875445
      ],
      [
        "▁house",
        -7.895271243936194
      ],
      [
        "▁many",
        -7.89607378744744
      ],
      [
        "▁Mr.",
        -7.899546874115784
      ],
      [
        "▁heard",
        -7.90453615532182
      ],
      [
        "▁try",
        -7.91428369946901
      ],
      [
        "▁without",
        -7.914954488246449
      ],
      [
        "▁here,",
        -7.920180582029075
      ],
      [
        "▁it,",
        -7.921808928244574
      ],
      [
        "▁maybe",
        -7.924750352265889
      ],
      [
        "▁pretty",
        -7.92582703468692
      ],
      [
        "▁hard",
        -7.925858408965328
      ],
      [
        "▁We",
        -7.929562490126784
      ],
      [
        "▁took",
        -7.9317426962524635
      ],
      [
        "..",
        -7.936302638671493
      ],
      [
        ".There's",
        -7.939528916450623
      ],
      [
        "▁killed",
        -7.943465939100266
      ],
      [
        "▁seen",
        -7.944051382844226
      ],
      [
        "▁wanna",
        -7.945587044981848
      ],
      [
        "▁fucking",
        -7.950724134668965
      ],
      [
        "▁already",
        -7.9622478425373
      ],
      [
        "▁most",
        -7.9629312375564805
      ],
      [
        "r",
        -7.966464883376664
      ],
      [
        ".Not",
        -7.969161834399475
      ],
      [
        ".When",
        -7.970215525672506
      ],
      [
        "▁start",
        -7.977691403923069
      ],
      [
        "▁use",
        -7.984497819652618
      ],
      [
        "n",
        -7.988169182263276
      ],
      [
        "▁woman",
        -7.98879539494505
      ],
      [
        "▁what's",
        -7.993520359497482
      ],
      [
        ".Hey,",
        -7.996560384576277
      ],
      [
        "▁friend",
        -7.9996334861525025
      ],
      [
        "▁called",
        -8.002088013774898
      ],
      [
        "▁car",
        -8.004766047000704
      ],
      [
        "▁okay",
        -8.00589381801396
      ],
      [
        "▁wrong",
        -8.006289338075023
      ],
      [
        "▁head",
        -8.007223161992043
      ],
      [
        ":",
        -8.009134488604516
      ],
      [
        "▁yourself",
        -8.010956956327858
      ],
      [
        ".There",
        -8.016384871010132
      ],
      [
        "▁job",
        -8.022525209207762
      ],
      [
        "▁guess",
        -8.026246246960687
      ],
      [
        "▁idea",
        -8.033629993987157
      ],
      [
        "▁dead",
        -8.033849579082357
      ],
      [
        "▁family",
        -8.0459170631682
      ],
      [
        "▁well",
        -8.0536684070589
      ],
      [
        "▁wife",
        -8.060036769849264
      ],
      [
        "▁understand",
        -8.062254957273609
      ],
      [
        "▁room",
        -8.063084193424203
      ],
      [
        "?We",
        -8.06534398169132
      ],
      [
        "▁mother",
        -8.078958496090266
      ],
      [
        "▁couldn't",
        -8.080282028206373
      ],
      [
        "▁No,",
        -8.080392373444358
      ],
      [
        "▁you'll",
        -8.08080444318995
      ],
      [
        ".Your",
        -8.081899401127469
      ],
      [
        "▁while",
        -8.087200045112628
      ],
      [
        "▁saying",
        -8.090521048048483
      ],
      [
        "▁having",
        -8.095195249378591
      ],
      [
        "▁haven't",
        -8.095469007337872
      ],
      [
        ".No",
        -8.098599075738125
      ],
      [
        "▁such",
        -8.099302760923628
      ],
      [
        "▁He",
        -8.102904704642443
      ],
      [
        "▁But",
        -8.105792936301704
      ],
      [
        "▁meet",
        -8.109188588440723
      ],
      [
        "▁men",
        -8.114644066477275
      ],
      [
        "▁run",
        -8.118776853755469
      ],
      [
        "▁bit",
        -8.119451589111232
      ],
      [
        ".Okay,",
        -8.122982825423211
      ],
      [
        "?But",
        -8.128282305120576
      ],
      [
        ".She's",
        -8.1292029254701
      ],
      [
        ".Are",
        -8.131707972842072
      ],
      [
        ".Now",
        -8.136054694020263
      ],
      [
        "We're",
        -8.137620791855497
      ],
      [
        ".Let's",
        -8.139103270791406
      ],
      [
        "▁son",
        -8.14336045432685
      ],
      [
        "▁mind",
        -8.143984585140227
      ],
      [
        "▁since",
        -8.148426587510713
      ],
      [
        "▁we'll",
        -8.148553701002061
      ],
      [
        "▁wait",
        -8.148718201915678
      ],
      [
        "'ve",
        -8.153271205206966
      ],
      [
        "▁move",
        -8.154081591182898
      ],
      [
        ".Maybe",
        -8.155396450088926
      ],
      [
        "▁together",
        -8.157520649725754
      ],
      [
        ".In",
        -8.161958238354465
      ],
      [
        "▁wants",
        -8.16265044637046
      ],
      [
        "n't",
        -8.16315593768375
      ],
      [
        "▁actually",
        -8.168793620883465
      ],
      [
        "▁doing?What",
        -8.17166221665606
      ],
      [
        "▁anyone",
        -8.173223843302395
      ],
      [
        "▁both",
        -8.178634486860807
      ],
      [
        "▁end",
        -8.181688741667527
      ],
      [
        "▁part",
        -8.184855862611755
      ],
      [
        "?Well,",
        -8.188000638657297
      ],
      [
        "▁each",
        -8.189730045019559
      ],
      [
        "▁It",
        -8.190830432543486
      ],
      [
        "▁ready",
        -8.193208097947547
      ],
      [
        "▁until",
        -8.200340300191055
      ],
      [
        ".Come",
        -8.203512736317588
      ],
      [
        ".Then",
        -8.204043988284084
      ],
      [
        ".So,",
        -8.205853766406966
      ],
      [
        "▁working",
        -8.206645588568332
      ],
      [
        "▁school",
        -8.208526506683697
      ],
      [
        ".Did",
        -8.209342783660933
      ],
      [
        "▁once",
        -8.219808301184935
      ],
      [
        "▁face",
        -8.220122901451958
      ],
      [
        "▁Oh,",
        -8.221391302912892
      ],
      [
        ".Is",
        -8.22803291845971
      ],
      [
        "▁myself",
        -8.228136958600695
      ],
      [
        "▁That's",
        -8.228437548589177
      ],
      [
        "o",
        -8.232621994951518
      ],
      [
        "▁gotta",
        -8.233663181702376
      ],
      [
        "▁also",
        -8.235857451841703
      ],
      [
        "▁now,",
        -8.23935726332304
      ],
      [
        "▁bring",
        -8.243030652723697
      ],
      [
        ".Yes,",
        -8.243660650872542
      ],
      [
        "▁hope",
        -8.244440041496237
      ],
      [
        "▁turn",
        -8.245137564885717
      ],
      [
        "▁play",
        -8.245576412219698
      ],
      [
        "▁How",
        -8.248490961283673
      ],
      [
        "▁far",
        -8.250395136719675
      ],
      [
        "▁uh,",
        -8.251710327397134
      ],
      [
        "▁let's",
        -8.25660773470728
      ],
      [
        "...I",
        -8.258291175736709
      ],
      [
        "?All",
        -8.2589925154088
      ],
      [
        "▁days",
        -8.264710313181338
      ],
      [
        "▁thinking",
        -8.266678300092984
      ],
      [
        "▁says",
        -8.268770445994981
      ],
      [
        "▁gone",
        -8.270381375942009
      ],
      [
        ".Look,",
        -8.272031580723363
      ],
      [
        "▁taking",
        -8.27272179833868
      ],
      [
        "▁shit",
        -8.27553635509959
      ],
      [
        "▁supposed",
        -8.275790388266145
      ],
      [
        "I'm",
        -8.275897073655731
      ],
      [
        "▁well,",
        -8.27894525493035
      ],
      [
        "▁friends",
        -8.279292021131592
      ],
      [
        "▁business",
        -8.280285001519331
      ],
      [
        "▁means",
        -8.284802198289318
      ],
      [
        "▁under",
        -8.286753574732153
      ],
      [
        "▁probably",
        -8.287522593891332
      ],
      [
        "▁baby",
        -8.291574847822641
      ],
      [
        "▁gave",
        -8.292558862052017
      ],
      [
        "!You",
        -8.294005871106174
      ],
      [
        "▁today",
        -8.30188527217599
      ],
      [
        "▁thank",
        -8.30447409201674
      ],
      [
        "▁open",
        -8.310114735139365
      ],
      [
        "?He",
        -8.310575160532478
      ],
      [
        ".Because",
        -8.312839517702937
      ],
      [
        "▁stuff",
        -8.313724001981027
      ],
      [
        "▁boy",
        -8.319065878916076
      ],
      [
        "▁hand",
        -8.322712514821704
      ],
      [
        ".They're",
        -8.323368958456072
      ],
      [
        "▁fuck",
        -8.328972662800487
      ],
      [
        "▁lost",
        -8.331583474886427
      ],
      [
        "▁everyone",
        -8.331632402129621
      ],
      [
        "▁heart",
        -8.338354020789813
      ],
      [
        "?How",
        -8.339684360896939
      ],
      [
        "▁matter",
        -8.345494483257417
      ],
      [
        ".Can",
        -8.346008776250805
      ],
      [
        "▁case",
        -8.346285170397232
      ],
      [
        "▁year",
        -8.348363664247296
      ],
      [
        ".Now,",
        -8.350799932242026
      ],
      [
        "▁You're",
        -8.351208924645922
      ],
      [
        "▁fine",
        -8.362070296978066
      ],
      [
        "▁body",
        -8.363938638828717
      ],
      [
        "al",
        -8.368619310943675
      ],
      [
        "▁exactly",
        -8.36867746327103
      ],
      [
        "▁you'd",
        -8.369104904499098
      ],
      [
        "es",
        -8.374115006126921
      ],
      [
        "▁phone",
        -8.375492874480495
      ],
      [
        "▁God",
        -8.377066376823363
      ],
      [
        "▁on,",
        -8.379010299464472
      ],
      [
        "l",
        -8.383997961549127
      ],
      [
        "▁happy",
        -8.387590701553536
      ],
      [
        "▁hurt",
        -8.388713991659476
      ],
      [
        "▁deal",
        -8.389343206660264
      ],
      [
        ".We'll",
        -8.389550816795488
      ],
      [
        ".Get",
        -8.389593772084009
      ],
      [
        "▁rest",
        -8.390135513741942
      ],
      [
        "▁against",
        -8.394267687951013
      ],
      [
        "▁brother",
        -8.395917458377525
      ],
      [
        "▁least",
        -8.396625803071787
      ],
      [
        "▁kid",
        -8.396999421357162
      ],
      [
        "...-",
        -8.399028150749945
      ],
      [
        "▁knows",
        -8.399252489213293
      ],
      [
        "▁That",
        -8.40155869872477
      ],
      [
        ".Who",
        -8.404198626997267
      ],
      [
        "▁This",
        -8.40479423136685
      ],
      [
        "▁makes",
        -8.406189164014787
      ],
      [
        "▁hit",
        -8.406779372818644
      ],
      [
        "▁alone",
        -8.41192702047064
      ],
      [
        "▁Well,",
        -8.414861398205758
      ],
      [
        "▁eat",
        -8.415340467680274
      ],
      [
        "▁person",
        -8.416163233307724
      ],
      [
        "▁change",
        -8.41687960181071
      ],
      [
        "▁beautiful",
        -8.418231081571102
      ],
      [
        "▁making",
        -8.418370894602111
      ],
      [
        "▁soon",
        -8.418553510923399
      ],
      [
        "You",
        -8.423250502364613
      ],
      [
        "▁die",
        -8.42834796136983
      ],
      [
        "▁second",
        -8.429196168763779
      ],
      [
        "▁happen",
        -8.433468722609543
      ],
      [
        "▁inside",
        -8.433782517760346
      ],
      [
        "▁chance",
        -8.434932418897954
      ],
      [
        "▁daughter",
        -8.434972271197573
      ],
      [
        "▁five",
        -8.437697639949315
      ],
      [
        "▁kids",
        -8.437704877997014
      ],
      [
        "▁right?All",
        -8.439812840173442
      ],
      [
        "▁minutes",
        -8.439917422384328
      ],
      [
        "▁blood",
        -8.440056140513882
      ],
      [
        "▁asked",
        -8.442363018506146
      ],
      [
        ".Look",
        -8.443048017896158
      ],
      [
        "▁ago",
        -8.445645569229654
      ],
      [
        "▁between",
        -8.447206757510902
      ],
      [
        "▁set",
        -8.45008434095094
      ],
      [
        "▁waiting",
        -8.450235225760743
      ],
      [
        "▁So",
        -8.454163869807775
      ],
      [
        "?This",
        -8.45740525115767
      ],
      [
        "▁couple",
        -8.45977282502297
      ],
      [
        "▁problem",
        -8.460502132085374
      ],
      [
        "▁word",
        -8.46669120590661
      ],
      [
        "▁door",
        -8.471504509203907
      ],
      [
        "▁important",
        -8.47187578219046
      ],
      [
        "▁different",
        -8.475957627604977
      ],
      [
        "i",
        -8.478287362463508
      ],
      [
        "▁reason",
        -8.481804382512365
      ],
      [
        "▁death",
        -8.481945286670914
      ],
      [
        "?If",
        -8.482322882658348
      ],
      [
        "▁pay",
        -8.48637985161876
      ],
      [
        "▁telling",
        -8.489474283592156
      ],
      [
        "▁looks",
        -8.48994104835773
      ],
      [
        "▁ain't",
        -8.491799964419673
      ],
      [
        "▁i",
        -8.494834847193946
      ],
      [
        "?It",
        -8.498711256823745
      ],
      [
        "▁side",
        -8.498775038093665
      ],
      [
        "▁close",
        -8.499314108585684
      ],
      [
        "▁eyes",
        -8.499591716750842
      ],
      [
        "▁course",
        -8.500791076556286
      ],
      [
        ".What's",
        -8.505613777530698
      ],
      [
        "▁fight",
        -8.507216310475776
      ],
      [
        "▁watch",
        -8.509062959413509
      ],
      [
        "▁tomorrow",
        -8.509879641250562
      ],
      [
        "▁check",
        -8.510588611576235
      ],
      [
        "▁No",
        -8.512940263686154
      ],
      [
        "▁point",
        -8.518722280152755
      ],
      [
        "▁truth",
        -8.51886483389176
      ],
      [
        ".For",
        -8.519155904117339
      ],
      [
        "▁met",
        -8.523169586787297
      ],
      [
        "▁comes",
        -8.523334755244917
      ],
      [
        "▁tried",
        -8.523850732233917
      ],
      [
        "▁able",
        -8.527462050644221
      ],
      [
        "▁true",
        -8.530953945286704
      ],
      [
        "?Okay?All",
        -8.531262315119589
      ],
      [
        "▁late",
        -8.532282358565837
      ],
      [
        "▁story",
        -8.535515773955808
      ],
      [
        "▁hold",
        -8.535851448587879
      ],
      [
        "▁shot",
        -8.541688566340309
      ],
      [
        "?So",
        -8.542714191541858
      ],
      [
        "▁started",
        -8.543487243536543
      ],
      [
        "▁yet",
        -8.543549309439946
      ],
      [
        "▁water",
        -8.544015787758562
      ],
      [
        "m",
        -8.544492727395632
      ],
      [
        "▁trust",
        -8.545374381972799
      ],
      [
        "▁drink",
        -8.545717871417015
      ],
      [
        "▁we've",
        -8.54754415365139
      ],
      [
        "▁morning",
        -8.549027609211553
      ],
      [
        "▁read",
        -8.552461014244514
      ],
      [
        "▁somebody",
        -8.553588414881734
      ],
      [
        "▁it.I",
        -8.559818507495962
      ],
      [
        "▁sleep",
        -8.562243534709953
      ],
      [
        "▁front",
        -8.562548892035421
      ],
      [
        "▁goes",
        -8.562629586338243
      ],
      [
        "▁gets",
        -8.568529725047423
      ],
      [
        "▁tonight",
        -8.571579072876974
      ],
      [
        "▁Yeah,",
        -8.572625101554674
      ],
      [
        ".Good",
        -8.578442546522986
      ],
      [
        "▁police",
        -8.579732455190273
      ],
      [
        "▁dad",
        -8.580777247286445
      ],
      [
        ".Thank",
        -8.583413868031103
      ],
      [
        "▁hours",
        -8.584592869862163
      ],
      [
        "▁no,",
        -8.586741380003403
      ],
      [
        "▁needs",
        -8.587645076899765
      ],
      [
        "▁number",
        -8.594411557899765
      ],
      [
        "▁aren't",
        -8.594712554965916
      ],
      [
        "▁fun",
        -8.597518261115509
      ],
      [
        "▁young",
        -8.600996373593553
      ],
      [
        "▁week",
        -8.607414852651946
      ],
      [
        "▁afraid",
        -8.6077266571023
      ],
      [
        "?You're",
        -8.608129535183046
      ],
      [
        "▁there,",
        -8.612647107625477
      ],
      [
        "▁save",
        -8.61381477507002
      ],
      [
        "▁wish",
        -8.614216429011869
      ],
      [
        ".To",
        -8.614842722969236
      ],
      [
        "▁mom",
        -8.617510163272124
      ],
      [
        "▁Do",
        -8.618289401785447
      ],
      [
        "▁times",
        -8.622945992042723
      ],
      [
        ".Let",
        -8.62295846223819
      ],
      [
        "▁brought",
        -8.623002083251706
      ],
      [
        "▁cut",
        -8.623107269820117
      ],
      [
        "▁behind",
        -8.62318954698019
      ],
      [
        "▁walk",
        -8.630725973029357
      ],
      [
        "▁up,",
        -8.630841906720619
      ],
      [
        "▁hands",
        -8.63254920404275
      ],
      [
        "▁half",
        -8.634693519454684
      ],
      [
        "▁four",
        -8.637019741846514
      ],
      [
        "▁party",
        -8.641919854902923
      ],
      [
        "▁power",
        -8.64653960675454
      ],
      [
        "▁speak",
        -8.647379213323394
      ],
      [
        "▁months",
        -8.647756351284443
      ],
      [
        "▁break",
        -8.648548378121669
      ],
      [
        "▁buy",
        -8.64968051666245
      ],
      [
        "▁high",
        -8.649927919747086
      ],
      [
        "▁Why",
        -8.664285537101625
      ],
      [
        "▁plan",
        -8.667431557913822
      ],
      [
        ".Where",
        -8.667974104790236
      ],
      [
        "▁him,",
        -8.668414841454503
      ],
      [
        "▁♪",
        -8.670845826113506
      ],
      [
        "▁...",
        -8.671203688000384
      ],
      [
        "?That's",
        -8.672622400670644
      ],
      [
        "▁line",
        -8.677218370634375
      ],
      [
        "▁sent",
        -8.685159743912692
      ],
      [
        "▁Thank",
        -8.685391045038845
      ],
      [
        "?Oh,",
        -8.688521116027914
      ],
      [
        "▁its",
        -8.689011318126065
      ],
      [
        "▁game",
        -8.689443853132701
      ],
      [
        "▁lives",
        -8.689542913547896
      ],
      [
        "▁you.I",
        -8.69138957332125
      ],
      [
        "▁died",
        -8.691472890734406
      ],
      [
        "▁She",
        -8.694081909511084
      ],
      [
        "▁stupid",
        -8.694606130297895
      ],
      [
        "▁fact",
        -8.694620412401223
      ],
      [
        "▁country",
        -8.69529881450621
      ],
      [
        "▁town",
        -8.69559086344772
      ],
      [
        "▁Come",
        -8.695885206387974
      ],
      [
        "▁know.-",
        -8.697101354373284
      ],
      [
        "▁almost",
        -8.697554828410958
      ],
      [
        "▁taken",
        -8.698130229064187
      ],
      [
        "▁send",
        -8.702506065666181
      ],
      [
        "▁full",
        -8.705147188678247
      ],
      [
        ".One",
        -8.705329117187954
      ],
      [
        "?Why",
        -8.709394953440793
      ],
      [
        "▁running",
        -8.710165682935784
      ],
      [
        "▁though",
        -8.710252970483054
      ],
      [
        "▁husband",
        -8.710522800058637
      ],
      [
        ".S",
        -8.710612383516079
      ],
      [
        "▁stand",
        -8.713957586475622
      ],
      [
        ".As",
        -8.71675062219788
      ],
      [
        "▁ass",
        -8.720033636444782
      ],
      [
        "▁fire",
        -8.72241919674995
      ],
      [
        "▁it.",
        -8.726112042629893
      ],
      [
        "▁living",
        -8.727979342278893
      ],
      [
        "▁outside",
        -8.729830249233466
      ],
      [
        "▁seems",
        -8.735129267231994
      ],
      [
        "▁free",
        -8.73594714363147
      ],
      [
        "▁food",
        -8.738029216431906
      ],
      [
        "on",
        -8.740469710272325
      ],
      [
        "▁All",
        -8.741802238784878
      ],
      [
        "▁whatever",
        -8.744420669521972
      ],
      [
        "▁crazy",
        -8.746102190975009
      ],
      [
        "▁women",
        -8.74630635381653
      ],
      [
        "▁girls",
        -8.74636469982993
      ],
      [
        "▁time,",
        -8.746569852446424
      ],
      [
        "?\"",
        -8.750454629032246
      ],
      [
        ".Tell",
        -8.75106514129681
      ],
      [
        ".Uh,",
        -8.753057830068709
      ],
      [
        "▁answer",
        -8.754859812884924
      ],
      [
        "▁worry",
        -8.756419712635587
      ],
      [
        "▁sorry.Sorry.I'm",
        -8.757411581029455
      ],
      [
        "▁sit",
        -8.760126368481677
      ],
      [
        "▁clear",
        -8.762215620675828
      ],
      [
        ".You've",
        -8.763045124637745
      ],
      [
        "▁office",
        -8.764485750672613
      ],
      [
        "▁six",
        -8.764636022369942
      ],
      [
        "▁quite",
        -8.767642757866009
      ],
      [
        "▁child",
        -8.771047269136467
      ],
      [
        "▁'em",
        -8.771294767628953
      ],
      [
        "▁children",
        -8.77463098932519
      ],
      [
        "▁moment",
        -8.77745545263523
      ],
      [
        "▁pick",
        -8.780231236182784
      ],
      [
        "And",
        -8.78281297796324
      ],
      [
        "▁city",
        -8.784592699063662
      ],
      [
        "▁everybody",
        -8.786280880682721
      ],
      [
        "in",
        -8.786467823710984
      ],
      [
        "▁lose",
        -8.786888421279498
      ],
      [
        "▁hot",
        -8.788600189142652
      ],
      [
        "▁you.-",
        -8.789571089609929
      ],
      [
        "▁trouble",
        -8.789959072290722
      ],
      [
        ".Have",
        -8.79350620300095
      ],
      [
        "▁team",
        -8.796641441415215
      ],
      [
        "▁light",
        -8.796859686711162
      ],
      [
        "▁order",
        -8.798414456265785
      ],
      [
        "▁leaving",
        -8.798570133435472
      ],
      [
        "▁They",
        -8.798879372817744
      ],
      [
        "?She",
        -8.800528675400301
      ],
      [
        "▁war",
        -8.803025716151993
      ],
      [
        "▁me.",
        -8.808039634104322
      ],
      [
        "▁'cause",
        -8.80849590001348
      ],
      [
        "▁sorry,",
        -8.809959117074278
      ],
      [
        "▁miss",
        -8.81043845137904
      ],
      [
        "S",
        -8.810977032766964
      ],
      [
        "▁cannot",
        -8.81429580219625
      ],
      [
        "▁later",
        -8.816508358529482
      ],
      [
        "▁feeling",
        -8.816525055254985
      ],
      [
        "▁Don't",
        -8.818275258546922
      ],
      [
        "is",
        -8.822067766878694
      ],
      [
        "?Do",
        -8.822265421188305
      ],
      [
        "?They",
        -8.82378127035577
      ],
      [
        "▁book",
        -8.82506728493815
      ],
      [
        "▁S",
        -8.830162573572945
      ],
      [
        "▁figure",
        -8.834509853828546
      ],
      [
        "▁news",
        -8.840213548957014
      ],
      [
        "?No,",
        -8.84055309214465
      ],
      [
        "▁hate",
        -8.844543897770944
      ],
      [
        "▁sex",
        -8.84490234927577
      ],
      [
        "?A",
        -8.846181415393978
      ],
      [
        ".Here",
        -8.847377079097505
      ],
      [
        "▁asking",
        -8.84930290944249
      ],
      [
        ".Go",
        -8.849544517096726
      ],
      [
        "▁meeting",
        -8.849845433542164
      ],
      [
        "You're",
        -8.850688837518614
      ],
      [
        "▁easy",
        -8.852561946482744
      ],
      [
        "▁He's",
        -8.852751856800332
      ],
      [
        "▁me.I",
        -8.853137534574158
      ],
      [
        "▁alive",
        -8.856222014248825
      ],
      [
        "▁bed",
        -8.85697339399719
      ],
      [
        "...You",
        -8.857755536084294
      ],
      [
        "▁me.-",
        -8.85787767697866
      ],
      [
        "▁along",
        -8.85960715338765
      ],
      [
        "▁New",
        -8.862340269513972
      ],
      [
        "▁become",
        -8.863943454213775
      ],
      [
        "?Yeah,",
        -8.87136951226656
      ],
      [
        "▁To",
        -8.873081702857338
      ],
      [
        ".Take",
        -8.873213617893018
      ],
      [
        "▁sense",
        -8.874531022123005
      ],
      [
        "▁right?",
        -8.878412305777305
      ],
      [
        ".Or",
        -8.88093709184001
      ],
      [
        "▁sort",
        -8.882372483662989
      ],
      [
        "▁married",
        -8.882917968211846
      ],
      [
        "▁it.-",
        -8.886328965918045
      ],
      [
        "▁explain",
        -8.888774512456195
      ],
      [
        "?That",
        -8.890474632632499
      ],
      [
        "▁seem",
        -8.891708529891286
      ],
      [
        "▁shouldn't",
        -8.89177315848818
      ],
      [
        "▁forget",
        -8.892179599644688
      ],
      [
        "▁Just",
        -8.89384575631349
      ],
      [
        "▁listen",
        -8.89421232257338
      ],
      [
        "▁'",
        -8.894949606542696
      ],
      [
        "▁himself",
        -8.896601501971087
      ],
      [
        "▁past",
        -8.896935807733335
      ],
      [
        "▁sound",
        -8.897676316588399
      ],
      [
        "▁special",
        -8.898108875087296
      ],
      [
        "▁control",
        -8.899519600446697
      ],
      [
        "▁dinner",
        -8.902343949675592
      ],
      [
        "▁un",
        -8.902534987121506
      ],
      [
        "▁gun",
        -8.903077490283811
      ],
      [
        "▁happens",
        -8.904653808369368
      ],
      [
        "an",
        -8.90483172913839
      ],
      [
        "▁boys",
        -8.905100148673146
      ],
      [
        ".We've",
        -8.906750279526836
      ],
      [
        "▁mine",
        -8.90772917997494
      ],
      [
        "▁black",
        -8.907930525914326
      ],
      [
        "▁shut",
        -8.911170682529717
      ],
      [
        ".♪",
        -8.91368965239284
      ],
      [
        "It's",
        -8.914954383742536
      ],
      [
        "▁safe",
        -8.916416298426181
      ],
      [
        "▁murder",
        -8.916552688725028
      ],
      [
        "!And",
        -8.917231383112318
      ],
      [
        "▁looked",
        -8.921128295366152
      ],
      [
        "▁lady",
        -8.922746376282369
      ],
      [
        "▁dream",
        -8.930098263573491
      ],
      [
        "▁human",
        -8.93044696105914
      ],
      [
        "▁C",
        -8.930847095245042
      ],
      [
        "▁either",
        -8.932849443099169
      ],
      [
        "▁hour",
        -8.934685878144393
      ],
      [
        "!I'm",
        -8.934752206700633
      ],
      [
        "▁playing",
        -8.935295896093635
      ],
      [
        "▁sign",
        -8.936765956652696
      ],
      [
        ".Please",
        -8.942809071695953
      ],
      [
        "▁Okay",
        -8.944548747605836
      ],
      [
        "ers",
        -8.944774255995757
      ],
      [
        "▁shoot",
        -8.945807223348698
      ],
      [
        "▁anymore",
        -8.946808341309318
      ],
      [
        "▁question",
        -8.946861905201104
      ],
      [
        "?My",
        -8.94979394160633
      ],
      [
        "▁less",
        -8.953634368505286
      ],
      [
        "▁sir",
        -8.955275545409116
      ],
      [
        ".At",
        -8.956924623874762
      ],
      [
        "▁possible",
        -8.957130044054185
      ],
      [
        "▁anybody",
        -8.958575504392225
      ],
      [
        "▁My",
        -8.963500913838423
      ],
      [
        "▁parents",
        -8.963533899398147
      ],
      [
        "▁worth",
        -8.963890698980856
      ],
      [
        "My",
        -8.97010775154152
      ],
      [
        "▁hair",
        -8.970214360036188
      ],
      [
        "▁minute",
        -8.971454036932737
      ],
      [
        "▁shall",
        -8.974913499867416
      ],
      [
        "▁needed",
        -8.975465906375696
      ],
      [
        "▁catch",
        -8.975717570859402
      ],
      [
        "▁B",
        -8.978724071886305
      ],
      [
        "▁Good",
        -8.980142118537866
      ],
      [
        "▁Let",
        -8.982117923423804
      ],
      [
        "▁YOU",
        -8.98223301955695
      ],
      [
        "▁dog",
        -8.982590969512334
      ],
      [
        "▁write",
        -8.987496118516379
      ],
      [
        "f",
        -8.990214674086285
      ],
      [
        "▁wedding",
        -8.99394545394831
      ],
      [
        "▁sick",
        -8.994570772548144
      ],
      [
        ".You'll",
        -8.994615355288259
      ],
      [
        "p",
        -8.995315130642538
      ],
      [
        "▁top",
        -8.99616132332725
      ],
      [
        "That's",
        -8.996406317633216
      ],
      [
        "▁Not",
        -8.999823652109946
      ],
      [
        "▁Are",
        -9.00029848331003
      ],
      [
        "?Is",
        -9.000318673135496
      ],
      [
        "▁sister",
        -9.001866343855735
      ],
      [
        "▁God,",
        -9.004866032521559
      ],
      [
        ".His",
        -9.005535922243514
      ],
      [
        "▁luck",
        -9.010776051923717
      ],
      [
        "▁s",
        -9.01286113261966
      ],
      [
        "▁who's",
        -9.01289499900864
      ],
      [
        "▁changed",
        -9.01360024536825
      ],
      [
        "▁somewhere",
        -9.013656144454918
      ],
      [
        "▁20",
        -9.014600361973557
      ],
      [
        "▁known",
        -9.015137499289171
      ],
      [
        "▁damn",
        -9.017030001585088
      ],
      [
        "▁moving",
        -9.018735757948232
      ],
      [
        "▁million",
        -9.01925465139864
      ],
      [
        "▁yeah,",
        -9.021442912649633
      ],
      [
        "▁drive",
        -9.022838313549926
      ],
      [
        "▁touch",
        -9.023222213586346
      ],
      [
        "▁Where",
        -9.024575841510398
      ],
      [
        "▁worked",
        -9.028479709073611
      ],
      [
        "▁funny",
        -9.029998447282917
      ],
      [
        "▁learn",
        -9.03026012196149
      ],
      [
        "h",
        -9.031049555337649
      ],
      [
        "▁weeks",
        -9.03229013792952
      ],
      [
        "The",
        -9.03238643074253
      ],
      [
        "▁Yes,",
        -9.038322430760715
      ],
      [
        "I'll",
        -9.039635241114961
      ],
      [
        ")",
        -9.040063643628399
      ],
      [
        "▁man,",
        -9.041166021202901
      ],
      [
        "▁right?Okay?Okay",
        -9.043868281223375
      ],
      [
        "▁perfect",
        -9.049464367347793
      ],
      [
        "▁company",
        -9.051037928823597
      ],
      [
        ".Like",
        -9.05162258104956
      ],
      [
        "man",
        -9.053181552844464
      ],
      [
        "▁air",
        -9.053671452065464
      ],
      [
        "▁date",
        -9.054088108419172
      ],
      [
        "?Don't",
        -9.058817341105993
      ],
      [
        "b",
        -9.058849256997515
      ],
      [
        "▁choice",
        -9.060479824352637
      ],
      [
        "▁felt",
        -9.064513727718694
      ],
      [
        "▁small",
        -9.067341466364223
      ],
      [
        "▁rather",
        -9.06806066950082
      ],
      [
        "able",
        -9.070633057957942
      ],
      [
        "!We",
        -9.070721705578325
      ],
      [
        "c",
        -9.07154324868866
      ],
      [
        "▁weren't",
        -9.072786136720202
      ],
      [
        "▁Dr.",
        -9.07304906268722
      ],
      [
        "▁caught",
        -9.075321187909942
      ],
      [
        "▁giving",
        -9.075397049435816
      ],
      [
        "▁10",
        -9.076397773535989
      ],
      [
        "▁P",
        -9.078230852109375
      ],
      [
        "▁doctor",
        -9.078934555648685
      ],
      [
        "or",
        -9.080718175790064
      ],
      [
        "▁Your",
        -9.082570762752798
      ],
      [
        "▁cool",
        -9.082832054139725
      ],
      [
        "▁longer",
        -9.082891474435293
      ],
      [
        "▁way,",
        -9.086835504735344
      ],
      [
        "▁eye",
        -9.086847280405772
      ],
      [
        "?He's",
        -9.087862167182571
      ],
      [
        "▁Miss",
        -9.090579393390247
      ],
      [
        "▁lie",
        -9.093125332676136
      ],
      [
        "▁bitch",
        -9.094044127501157
      ],
      [
        "▁calling",
        -9.09662652597191
      ],
      [
        "!It's",
        -9.097040835058369
      ],
      [
        "▁pull",
        -9.098454388652035
      ],
      [
        "▁law",
        -9.100652772809287
      ],
      [
        "▁turned",
        -9.101082036034613
      ],
      [
        "▁weird",
        -9.10262546346247
      ],
      [
        "!The",
        -9.106633444487084
      ],
      [
        "They're",
        -9.106767552239699
      ],
      [
        "▁strong",
        -9.110829677685535
      ],
      [
        "▁Did",
        -9.113682054079758
      ],
      [
        "re",
        -9.115398987849591
      ],
      [
        "▁Mr",
        -9.115732594193702
      ],
      [
        "▁works",
        -9.117016526340745
      ],
      [
        "▁return",
        -9.1200027805966
      ],
      [
        "▁said,",
        -9.120527595434098
      ],
      [
        "!What",
        -9.121643053661728
      ],
      [
        ".Our",
        -9.12244206597381
      ],
      [
        "▁white",
        -9.123877430612534
      ],
      [
        "▁here.",
        -9.12530659340654
      ],
      [
        "▁attack",
        -9.125627583903992
      ],
      [
        "▁glad",
        -9.127004994005572
      ],
      [
        "▁like,",
        -9.1290892237667
      ],
      [
        "▁test",
        -9.12967456704071
      ],
      [
        "▁you.",
        -9.130236480034979
      ],
      [
        "A",
        -9.130515701783333
      ],
      [
        "▁promise",
        -9.134834434711209
      ],
      [
        ".\"I",
        -9.135730962565443
      ],
      [
        "▁loved",
        -9.135896474446735
      ],
      [
        "▁handle",
        -9.136234352576988
      ],
      [
        "▁others",
        -9.137627260706244
      ],
      [
        "Well,",
        -9.13886541963161
      ],
      [
        "▁seeing",
        -9.138879404881303
      ],
      [
        "I've",
        -9.139058461283415
      ],
      [
        "▁meant",
        -9.139399428802868
      ],
      [
        "?Just",
        -9.139412028949327
      ],
      [
        "▁finally",
        -9.139496732914557
      ],
      [
        "▁lucky",
        -9.140564864613088
      ],
      [
        "▁mad",
        -9.142307657359506
      ],
      [
        "▁piece",
        -9.143439296692673
      ],
      [
        "▁cold",
        -9.143801007531358
      ],
      [
        "▁..",
        -9.146956100615377
      ],
      [
        "▁worried",
        -9.147045610057974
      ],
      [
        "▁security",
        -9.147077755440904
      ],
      [
        ".See",
        -9.150210040641227
      ],
      [
        "▁clean",
        -9.152500948541952
      ],
      [
        "▁l",
        -9.153703795932048
      ],
      [
        "▁secret",
        -9.153944059165052
      ],
      [
        "▁again,",
        -9.154076146795536
      ],
      [
        "▁win",
        -9.15436927901742
      ],
      [
        "▁future",
        -9.154912757498241
      ],
      [
        "g",
        -9.155016454674103
      ],
      [
        "▁scared",
        -9.155555183773178
      ],
      [
        "▁step",
        -9.156314824174913
      ],
      [
        "it",
        -9.156381877372606
      ],
      [
        "▁say,",
        -9.15793063451941
      ],
      [
        "▁John",
        -9.15814750781999
      ],
      [
        "▁here.-",
        -9.159786191278627
      ],
      [
        "▁picture",
        -9.161061566949915
      ],
      [
        ".These",
        -9.161497191305873
      ],
      [
        "▁ship",
        -9.162753233635069
      ],
      [
        "▁building",
        -9.163642611106258
      ],
      [
        ".Thanks",
        -9.16417277381566
      ],
      [
        "th",
        -9.166388234474255
      ],
      [
        "▁here.I",
        -9.166487195103338
      ],
      [
        "▁expect",
        -9.166926055845597
      ],
      [
        "▁hospital",
        -9.167511695661965
      ],
      [
        "▁mouth",
        -9.16787034852954
      ],
      [
        ".Give",
        -9.169569272450394
      ],
      [
        "▁Who",
        -9.173386902964399
      ],
      [
        ".Does",
        -9.174119955844299
      ],
      [
        "?Hey,",
        -9.174310059119577
      ],
      [
        "k",
        -9.175028282157026
      ],
      [
        "en",
        -9.175138446240688
      ],
      [
        "▁road",
        -9.175487527266107
      ],
      [
        "us",
        -9.177287902671814
      ],
      [
        "▁given",
        -9.177524440249602
      ],
      [
        "in'",
        -9.178142967741461
      ],
      [
        "▁entire",
        -9.178278602255553
      ],
      [
        "▁near",
        -9.178707245738677
      ],
      [
        "▁If",
        -9.178857933521405
      ],
      [
        "▁THE",
        -9.179194674104082
      ],
      [
        "▁missing",
        -9.180122497808402
      ],
      [
        "▁protect",
        -9.182088906792362
      ],
      [
        "▁information",
        -9.18620654562268
      ],
      [
        "▁serious",
        -9.186424570828942
      ],
      [
        "▁watching",
        -9.18741027974879
      ],
      [
        "▁Can",
        -9.190914595155169
      ],
      [
        "st",
        -9.191452770887699
      ],
      [
        "▁happening",
        -9.191470298938665
      ],
      [
        "s.",
        -9.193113076888833
      ],
      [
        "▁fault",
        -9.19313546943861
      ],
      [
        "and",
        -9.194546738039215
      ],
      [
        "▁OK",
        -9.1946509445143
      ],
      [
        "▁nobody",
        -9.195283709342299
      ],
      [
        "▁out,",
        -9.196658093458225
      ],
      [
        "▁message",
        -9.197595126571574
      ],
      [
        "ting",
        -9.199057765726442
      ],
      [
        "▁talked",
        -9.199455644226482
      ],
      [
        "▁spend",
        -9.201091153438604
      ],
      [
        "▁pain",
        -9.201259613149286
      ],
      [
        ".Sorry",
        -9.20269780925441
      ],
      [
        "▁fall",
        -9.20283369274474
      ],
      [
        "▁broke",
        -9.203441558486125
      ],
      [
        "This",
        -9.205522008587575
      ],
      [
        "!He",
        -9.205914630703626
      ],
      [
        "le",
        -9.207345303036607
      ],
      [
        "▁sounds",
        -9.20819672884242
      ],
      [
        "▁ride",
        -9.210310708736706
      ],
      [
        "▁--",
        -9.210461153060766
      ],
      [
        "▁bet",
        -9.211136537523544
      ],
      [
        "▁sell",
        -9.21131190343648
      ],
      [
        "Let's",
        -9.21183316074156
      ],
      [
        "▁thanks",
        -9.212746005962847
      ],
      [
        "▁questions",
        -9.21357411052722
      ],
      [
        "▁report",
        -9.215416707417962
      ],
      [
        "▁evidence",
        -9.215898614254993
      ],
      [
        "s.I",
        -9.216984304378322
      ],
      [
        "ic",
        -9.21699502350851
      ],
      [
        ".With",
        -9.218637176479838
      ],
      [
        "▁clothes",
        -9.22254659758973
      ],
      [
        "to",
        -9.224236166473734
      ],
      [
        "▁busy",
        -9.226922841146958
      ],
      [
        "▁right.",
        -9.22731807597297
      ],
      [
        "▁thinks",
        -9.227684688042212
      ],
      [
        "▁dangerous",
        -9.22862065347997
      ],
      [
        "▁stopped",
        -9.228693219145184
      ],
      [
        ".Nothing",
        -9.22939874368084
      ],
      [
        "Those",
        -9.229704971435005
      ],
      [
        "ta",
        -9.229971488983782
      ],
      [
        "▁night,",
        -9.230323584421338
      ],
      [
        "▁sometimes",
        -9.230847709632076
      ],
      [
        "▁finish",
        -9.231249720166119
      ],
      [
        "]",
        -9.23189989704629
      ],
      [
        "▁wonder",
        -9.232230034228227
      ],
      [
        "▁kept",
        -9.232814217024469
      ],
      [
        "▁ones",
        -9.233077082855004
      ],
      [
        "▁Get",
        -9.233792752226911
      ],
      [
        "▁red",
        -9.234912454614685
      ],
      [
        "▁till",
        -9.237100830597615
      ],
      [
        "▁day,",
        -9.243096948588994
      ],
      [
        "?Okay?Okay?All",
        -9.245512354011357
      ],
      [
        ".Of",
        -9.247285229769789
      ],
      [
        "▁lead",
        -9.24771141676321
      ],
      [
        "▁fair",
        -9.248210715777006
      ],
      [
        "▁middle",
        -9.250011502941224
      ],
      [
        "▁Go",
        -9.250738879248216
      ],
      [
        "?Are",
        -9.250965283358473
      ],
      [
        "▁fast",
        -9.252647991233772
      ],
      [
        "▁key",
        -9.253740200680337
      ],
      [
        "▁Is",
        -9.257575639169131
      ],
      [
        "▁takes",
        -9.25759803589202
      ],
      [
        ".Some",
        -9.25806651629238
      ],
      [
        "▁straight",
        -9.258610555643465
      ],
      [
        "▁T",
        -9.262838947783685
      ],
      [
        "▁In",
        -9.26285000983306
      ],
      [
        "▁follow",
        -9.262982388333915
      ],
      [
        "▁killing",
        -9.265109292480853
      ],
      [
        "▁sweet",
        -9.265922234779627
      ],
      [
        "▁using",
        -9.266617137246831
      ],
      [
        "▁early",
        -9.267788793228043
      ],
      [
        "Mr.",
        -9.268015758881647
      ],
      [
        "▁decided",
        -9.268041866179297
      ],
      [
        "▁ten",
        -9.271751948321299
      ],
      [
        "▁paid",
        -9.272086529996812
      ],
      [
        "▁across",
        -9.272218479364046
      ],
      [
        "▁anyway",
        -9.27428815154354
      ],
      [
        ".After",
        -9.27447660507022
      ],
      [
        "▁brain",
        -9.281645569861636
      ],
      [
        "▁music",
        -9.281922282584459
      ],
      [
        "▁know.",
        -9.282364958027612
      ],
      [
        "▁TO",
        -9.28380356747325
      ],
      [
        "▁She's",
        -9.28518756188559
      ],
      [
        "▁1",
        -9.285412490305415
      ],
      [
        "▁fix",
        -9.285929789849021
      ],
      [
        ".Everything",
        -9.288091070589362
      ],
      [
        "▁ran",
        -9.290518949706911
      ],
      [
        "▁single",
        -9.294585855315898
      ],
      [
        "▁crime",
        -9.296896844117832
      ],
      [
        "▁Look",
        -9.297316225057525
      ],
      [
        "▁bought",
        -9.298917237027037
      ],
      [
        "If",
        -9.299265832610516
      ],
      [
        ".Even",
        -9.29944177458145
      ],
      [
        "▁he'd",
        -9.300691641658185
      ],
      [
        "?Where",
        -9.301052821478518
      ],
      [
        "▁he'll",
        -9.301974305386867
      ],
      [
        "▁M",
        -9.303986971275597
      ],
      [
        "▁hang",
        -9.30399831331259
      ],
      [
        "▁York",
        -9.30632229710028
      ],
      [
        "▁month",
        -9.306960819814687
      ],
      [
        "?Did",
        -9.307961555890667
      ],
      [
        "?When",
        -9.308751217261996
      ],
      [
        "▁stick",
        -9.310953910073737
      ],
      [
        "▁worse",
        -9.312266061578123
      ],
      [
        "▁during",
        -9.312680782799426
      ],
      [
        "▁list",
        -9.312918481979656
      ],
      [
        ".Which",
        -9.313020654119121
      ],
      [
        "▁wearing",
        -9.314946320843893
      ],
      [
        "▁street",
        -9.314981134700732
      ],
      [
        "ar",
        -9.316604942782522
      ],
      [
        "▁feet",
        -9.325337288853921
      ],
      [
        "▁song",
        -9.325381995290154
      ],
      [
        "▁prison",
        -9.325643248185925
      ],
      [
        "▁system",
        -9.326174630261985
      ],
      [
        "▁act",
        -9.326180720811912
      ],
      [
        "sn't",
        -9.327701650306349
      ],
      [
        "▁lying",
        -9.328773994857244
      ],
      [
        "We",
        -9.329446449139262
      ],
      [
        "▁moved",
        -9.334550107175644
      ],
      [
        "▁cover",
        -9.336828995593834
      ],
      [
        "▁dear",
        -9.337129483558442
      ],
      [
        "▁uh...",
        -9.33735511845947
      ],
      [
        "▁realize",
        -9.339910399273734
      ],
      [
        "▁anywhere",
        -9.339996448521303
      ],
      [
        "▁ahead",
        -9.341741781062062
      ],
      [
        "▁Hey,",
        -9.344652373736729
      ],
      [
        "▁course,",
        -9.344979231458893
      ],
      [
        "▁words",
        -9.344995324979852
      ],
      [
        "?There",
        -9.345566114628191
      ],
      [
        "▁throw",
        -9.346470304162466
      ],
      [
        ".Would",
        -9.347588541079837
      ],
      [
        "est",
        -9.348694334912798
      ],
      [
        "▁short",
        -9.35340626893456
      ],
      [
        "▁state",
        -9.35450024479837
      ],
      [
        "▁born",
        -9.35555939939331
      ],
      [
        "▁bar",
        -9.355801643908501
      ],
      [
        "But",
        -9.357805651963451
      ],
      [
        "▁us,",
        -9.359072938134302
      ],
      [
        "▁completely",
        -9.36031742528743
      ],
      [
        "▁drop",
        -9.360437489056165
      ],
      [
        "▁Dad",
        -9.363399855414936
      ],
      [
        "▁totally",
        -9.365055296277905
      ],
      [
        "▁dark",
        -9.3694193992402
      ],
      [
        "▁Mrs.",
        -9.37004367683501
      ],
      [
        "▁yours",
        -9.370755897483615
      ],
      [
        "▁#",
        -9.370796310653018
      ],
      [
        "▁accident",
        -9.371712375600056
      ],
      [
        "▁saved",
        -9.371815589237
      ],
      [
        "▁strange",
        -9.373080015566835
      ],
      [
        "▁floor",
        -9.374183626380422
      ],
      [
        "▁paper",
        -9.374586283065744
      ],
      [
        "▁they'll",
        -9.37549596608806
      ],
      [
        "▁There's",
        -9.375609853050317
      ],
      [
        "What",
        -9.376270442227174
      ],
      [
        "▁2",
        -9.378342296065274
      ],
      [
        "▁Lord",
        -9.37972222271755
      ],
      [
        "▁then,",
        -9.380025808939877
      ],
      [
        ".Will",
        -9.383785968191876
      ],
      [
        "▁girlfriend",
        -9.384542680082408
      ],
      [
        "▁record",
        -9.385451770454697
      ],
      [
        "▁trip",
        -9.385889606261747
      ],
      [
        "▁terrible",
        -9.388485690368244
      ],
      [
        "▁proud",
        -9.38948318094127
      ],
      [
        "▁pass",
        -9.389938784557724
      ],
      [
        "▁Jack",
        -9.390574183388901
      ],
      [
        "▁him.I",
        -9.39336921415276
      ],
      [
        "▁suppose",
        -9.39348603869904
      ],
      [
        "▁gift",
        -9.393502073095313
      ],
      [
        "▁normal",
        -9.393923044938218
      ],
      [
        "Okay?All",
        -9.394700678843293
      ],
      [
        "▁land",
        -9.39892714533886
      ],
      [
        "▁hasn't",
        -9.39895526294083
      ],
      [
        "▁spent",
        -9.399491141203375
      ],
      [
        "▁voice",
        -9.400217046000094
      ],
      [
        ".Be",
        -9.40152347269077
      ],
      [
        "▁card",
        -9.401948055381071
      ],
      [
        "?Can",
        -9.402199381035143
      ],
      [
        ".T",
        -9.404015400009982
      ],
      [
        "▁kiss",
        -9.405479582763983
      ],
      [
        "All",
        -9.405928904256836
      ],
      [
        "▁forward",
        -9.407912438412682
      ],
      [
        "▁birthday",
        -9.40955221695636
      ],
      [
        "▁back,",
        -9.41147304779479
      ],
      [
        "s.-",
        -9.41183043640607
      ],
      [
        "▁movie",
        -9.412183450283809
      ],
      [
        ".Two",
        -9.41470736322357
      ],
      [
        "?Okay,",
        -9.414707674630112
      ],
      [
        ",\"",
        -9.4151387474598
      ],
      [
        "▁relationship",
        -9.416909388919365
      ],
      [
        ";",
        -9.420074599129833
      ],
      [
        "D",
        -9.42030905280847
      ],
      [
        "▁share",
        -9.421527574493398
      ],
      [
        "▁There",
        -9.422262036591482
      ],
      [
        "▁court",
        -9.422841534810463
      ],
      [
        "▁train",
        -9.424326156587178
      ],
      [
        "▁situation",
        -9.425600585685011
      ],
      [
        "▁mistake",
        -9.426848731335514
      ],
      [
        "▁poor",
        -9.429382304314576
      ],
      [
        "▁them,",
        -9.429463680373559
      ],
      [
        "▁table",
        -9.430082232385612
      ],
      [
        "▁box",
        -9.430233891354948
      ],
      [
        "▁class",
        -9.430263243910229
      ],
      [
        "▁present",
        -9.430292393141539
      ],
      [
        "ion",
        -9.430419517500141
      ],
      [
        "▁offer",
        -9.430437527771883
      ],
      [
        "▁personal",
        -9.431784237673579
      ],
      [
        "▁position",
        -9.43193477648126
      ],
      [
        "▁window",
        -9.432580073949186
      ],
      [
        "▁public",
        -9.434078107733248
      ],
      [
        "▁ball",
        -9.434158183276672
      ],
      [
        "▁space",
        -9.435452573888124
      ],
      [
        "?There's",
        -9.436854930115448
      ],
      [
        "▁government",
        -9.436937240917427
      ],
      [
        "▁F",
        -9.438815595218829
      ],
      [
        "▁yesterday",
        -9.439415335499405
      ],
      [
        "▁track",
        -9.442818449132764
      ],
      [
        ".On",
        -9.443854631967426
      ],
      [
        "▁destroy",
        -9.444337228795469
      ],
      [
        "▁it'll",
        -9.444463707123488
      ],
      [
        "!Well,",
        -9.444695387066545
      ],
      [
        "▁certain",
        -9.44529537980639
      ],
      [
        "▁victim",
        -9.446361646573152
      ],
      [
        "▁wonderful",
        -9.446439663300055
      ],
      [
        "u",
        -9.447246611613128
      ],
      [
        "▁dance",
        -9.448682703857774
      ],
      [
        "▁support",
        -9.449358087061402
      ],
      [
        "▁ground",
        -9.450038627878058
      ],
      [
        "▁count",
        -9.451229576285744
      ],
      [
        "▁amazing",
        -9.451608573361945
      ],
      [
        "▁risk",
        -9.452727973915799
      ],
      [
        "▁problems",
        -9.455128832229148
      ],
      [
        "▁ring",
        -9.455961217707449
      ],
      [
        "▁it?",
        -9.459556669697754
      ],
      [
        "▁scene",
        -9.4612493316979
      ],
      [
        "?So,",
        -9.461763949991026
      ],
      [
        "▁smart",
        -9.46658724040382
      ],
      [
        "▁starting",
        -9.466685656129627
      ],
      [
        "▁TV",
        -9.467456288574454
      ],
      [
        "▁fighting",
        -9.467828187800599
      ],
      [
        "▁ice",
        -9.46824099803661
      ],
      [
        ".Only",
        -9.468820906339797
      ],
      [
        "▁ago,",
        -9.470711965711526
      ],
      [
        "?No",
        -9.471419976689395
      ],
      [
        "▁calls",
        -9.471855028716273
      ],
      [
        "▁D",
        -9.472270115229616
      ],
      [
        "▁lunch",
        -9.472478987910673
      ],
      [
        "▁instead",
        -9.472697082499602
      ],
      [
        "▁tough",
        -9.473752229344
      ],
      [
        "▁smell",
        -9.474631927874974
      ],
      [
        "▁fish",
        -9.474907692458702
      ],
      [
        "!That",
        -9.475305267472105
      ],
      [
        "▁beat",
        -9.475779327046599
      ],
      [
        "▁fell",
        -9.47703357066279
      ],
      [
        "▁Yeah",
        -9.477573010616048
      ],
      [
        "w",
        -9.477899682794273
      ],
      [
        "▁bag",
        -9.4780226339338
      ],
      [
        "▁difficult",
        -9.478544944887819
      ],
      [
        "!It",
        -9.480631775441218
      ],
      [
        "▁sun",
        -9.481166575936351
      ],
      [
        "▁cause",
        -9.481811588297004
      ],
      [
        "▁imagine",
        -9.48259887379438
      ],
      [
        ".C",
        -9.4874280857543
      ],
      [
        "▁prove",
        -9.487688534058746
      ],
      [
        "▁coffee",
        -9.490365689905108
      ],
      [
        "▁we'd",
        -9.490999303468747
      ],
      [
        "▁re",
        -9.491195134407562
      ],
      [
        "?Your",
        -9.493634902413671
      ],
      [
        ".Something",
        -9.493931936252803
      ],
      [
        ".[",
        -9.49451261324528
      ],
      [
        "▁but...",
        -9.50050359750317
      ],
      [
        "▁fool",
        -9.50622603999089
      ],
      [
        "ation",
        -9.50807516611114
      ],
      [
        "▁American",
        -9.508300470836836
      ],
      [
        "▁wear",
        -9.509062167565531
      ],
      [
        "▁killer",
        -9.509219250613445
      ],
      [
        "▁star",
        -9.509882318107842
      ],
      [
        "▁fly",
        -9.511620383595517
      ],
      [
        "▁interested",
        -9.512520463226029
      ],
      [
        "▁upset",
        -9.512708631545182
      ],
      [
        "▁group",
        -9.515687899632777
      ],
      [
        "▁tired",
        -9.515874189111361
      ],
      [
        "▁lived",
        -9.51640554762274
      ],
      [
        "▁history",
        -9.516676753455238
      ],
      [
        "▁E",
        -9.518447129798265
      ],
      [
        "?In",
        -9.518977896713615
      ],
      [
        "▁charge",
        -9.519516837916004
      ],
      [
        "▁right?-",
        -9.519731191333744
      ],
      [
        "▁Then",
        -9.520366807443823
      ],
      [
        "▁force",
        -9.520748185513487
      ],
      [
        "!So",
        -9.520855819457951
      ],
      [
        "▁station",
        -9.521086488985844
      ],
      [
        "ie",
        -9.521561166940646
      ],
      [
        "▁blow",
        -9.522742881340847
      ],
      [
        "▁mission",
        -9.522918598932545
      ],
      [
        "?Let's",
        -9.523145397021768
      ],
      [
        "▁mess",
        -9.526297783156874
      ],
      [
        "...And",
        -9.526747336445482
      ],
      [
        "▁hungry",
        -9.528700927263845
      ],
      [
        "▁sorry.",
        -9.529110051765496
      ],
      [
        "▁contact",
        -9.529782395963638
      ],
      [
        "▁figured",
        -9.530489370988738
      ],
      [
        "ra",
        -9.530742957737377
      ],
      [
        "▁me.You",
        -9.531653539783969
      ],
      [
        "▁swear",
        -9.532155709472635
      ],
      [
        "!This",
        -9.532271401296777
      ],
      [
        "?Now",
        -9.532596201033833
      ],
      [
        "▁feels",
        -9.532622279091107
      ],
      [
        "▁what?",
        -9.533014951419368
      ],
      [
        "▁right?Okay",
        -9.535112914926135
      ],
      [
        "▁life,",
        -9.535593136436898
      ],
      [
        "▁missed",
        -9.53731883882958
      ],
      [
        "▁reach",
        -9.538815031628458
      ],
      [
        ".Yeah.",
        -9.538886300036285
      ],
      [
        "▁within",
        -9.53929833695714
      ],
      [
        "▁boss",
        -9.539440588127999
      ],
      [
        "▁field",
        -9.540140103875624
      ],
      [
        "▁sad",
        -9.54024014500467
      ],
      [
        "▁her,",
        -9.540481469769954
      ],
      [
        "▁putting",
        -9.540814419313211
      ],
      [
        "▁Earth",
        -9.541314130556158
      ],
      [
        ".B",
        -9.54186791298533
      ],
      [
        "y,",
        -9.542526179112311
      ],
      [
        "▁G",
        -9.542939061979858
      ],
      [
        ".Was",
        -9.543176160970429
      ],
      [
        "▁just...",
        -9.54457354798507
      ],
      [
        "▁welcome",
        -9.54549793166883
      ],
      [
        "▁President",
        -9.545719569556404
      ],
      [
        "▁unless",
        -9.545865417178591
      ],
      [
        "▁sitting",
        -9.545912439715822
      ],
      [
        "▁For",
        -9.548433564391114
      ],
      [
        "▁evening",
        -9.548876432573202
      ],
      [
        "▁30",
        -9.54945732599255
      ],
      [
        "▁okay,",
        -9.549515130178374
      ],
      [
        "▁won",
        -9.550946243703038
      ],
      [
        "▁standing",
        -9.550963693325766
      ],
      [
        "▁area",
        -9.551480188820157
      ],
      [
        "▁whether",
        -9.551560662315598
      ],
      [
        "▁forgot",
        -9.552685906651899
      ],
      [
        "▁miles",
        -9.553275193225943
      ],
      [
        "▁stuck",
        -9.553752259365583
      ],
      [
        ".Her",
        -9.554941360870288
      ],
      [
        "▁store",
        -9.55560302974673
      ],
      [
        "▁accept",
        -9.55568472274398
      ],
      [
        ".Listen,",
        -9.55579614335156
      ],
      [
        "▁private",
        -9.556590737980144
      ],
      [
        "▁yeah",
        -9.556611275855197
      ],
      [
        "▁cop",
        -9.557041174371815
      ],
      [
        "Oh,",
        -9.557591987626855
      ],
      [
        "▁soul",
        -9.557878469613925
      ],
      [
        "▁staying",
        -9.558462939457915
      ],
      [
        "T",
        -9.558904198063054
      ],
      [
        "▁fear",
        -9.559417965961666
      ],
      [
        "▁12",
        -9.560118991483876
      ],
      [
        "▁truck",
        -9.561649775738166
      ],
      [
        "you",
        -9.562377456966228
      ],
      [
        "▁simple",
        -9.56314847646104
      ],
      [
        "▁seven",
        -9.563799483484035
      ],
      [
        "▁yes",
        -9.564077653510793
      ],
      [
        "?Who",
        -9.565367508913777
      ],
      [
        "▁interesting",
        -9.56547424736943
      ],
      [
        "▁hotel",
        -9.565625115806569
      ],
      [
        "▁3",
        -9.568007464892442
      ],
      [
        ".'",
        -9.568516938657737
      ],
      [
        "▁join",
        -9.568757831644112
      ],
      [
        "▁Have",
        -9.569644177982447
      ],
      [
        "▁would've",
        -9.569882765130286
      ],
      [
        "▁crap",
        -9.570379360485887
      ],
      [
        "▁match",
        -9.570988896108151
      ],
      [
        "▁certainly",
        -9.575913441211501
      ],
      [
        "▁partner",
        -9.575937987997255
      ],
      [
        "▁bother",
        -9.576944756109835
      ],
      [
        "▁plane",
        -9.582252183673234
      ],
      [
        "▁computer",
        -9.583664638689246
      ],
      [
        "▁helping",
        -9.584916017774708
      ],
      [
        "▁involved",
        -9.587671475636013
      ],
      [
        "▁marriage",
        -9.589220156675609
      ],
      [
        "▁passed",
        -9.589263431002252
      ],
      [
        "▁that.I",
        -9.59019127309852
      ],
      [
        "▁agree",
        -9.594581050915853
      ],
      [
        "▁When",
        -9.595136648183168
      ],
      [
        ".Please,",
        -9.595880467087632
      ],
      [
        "▁yes,",
        -9.598422507598666
      ],
      [
        "▁holding",
        -9.600078535812022
      ],
      [
        "▁5",
        -9.601066681173528
      ],
      [
        "▁lovely",
        -9.601385510420624
      ],
      [
        "▁now.I",
        -9.602228626494231
      ],
      [
        "▁marry",
        -9.603458071469092
      ],
      [
        "▁deep",
        -9.604065863657606
      ],
      [
        "M",
        -9.604754903871392
      ],
      [
        "▁honey",
        -9.605500176179987
      ],
      [
        ".First",
        -9.606395705949687
      ],
      [
        ".(",
        -9.607964967258015
      ],
      [
        "▁finished",
        -9.608037377965758
      ],
      [
        "▁cell",
        -9.60834052161421
      ],
      [
        "?Then",
        -9.608563759988227
      ],
      [
        "▁fill",
        -9.610632777867611
      ],
      [
        "▁go,",
        -9.610917040659036
      ],
      [
        "▁Mom",
        -9.611149520806443
      ],
      [
        "▁service",
        -9.61146601072207
      ],
      [
        ".Someone",
        -9.611736758940564
      ],
      [
        "▁down,",
        -9.611958592964893
      ],
      [
        "▁Christmas",
        -9.611976392997242
      ],
      [
        "▁round",
        -9.612384124177172
      ],
      [
        "▁wake",
        -9.613300479674196
      ],
      [
        "um",
        -9.614015868985724
      ],
      [
        "▁de",
        -9.61434905201999
      ],
      [
        "as",
        -9.615180970320733
      ],
      [
        "▁Captain",
        -9.615188189005945
      ],
      [
        "at",
        -9.615481215603936
      ],
      [
        "▁dying",
        -9.617358847589315
      ],
      [
        ".No.",
        -9.617856508724213
      ],
      [
        "▁herself",
        -9.6187048929643
      ],
      [
        "▁broken",
        -9.618808321360723
      ],
      [
        "▁feelings",
        -9.619494968783908
      ],
      [
        "▁visit",
        -9.619659588621172
      ],
      [
        "▁peace",
        -9.62018637261933
      ],
      [
        "▁planet",
        -9.621401451445696
      ],
      [
        "▁gold",
        -9.621621229139965
      ],
      [
        "▁hide",
        -9.622745672292984
      ],
      [
        "▁bus",
        -9.623898391609718
      ],
      [
        "▁forever",
        -9.625169070855822
      ],
      [
        "▁um,",
        -9.626593501111373
      ],
      [
        "▁thing,",
        -9.62834927241284
      ],
      [
        "▁15",
        -9.630313216520076
      ],
      [
        "less",
        -9.630661542434392
      ],
      [
        "▁choose",
        -9.630841777420041
      ],
      [
        "▁boat",
        -9.632885304141077
      ],
      [
        "▁dress",
        -9.63303273304987
      ],
      [
        "Yeah,",
        -9.635098297827087
      ],
      [
        "▁press",
        -9.635405004729375
      ],
      [
        "▁apartment",
        -9.636342997336135
      ],
      [
        "▁cash",
        -9.637210599687311
      ],
      [
        "▁driving",
        -9.637216259515336
      ],
      [
        "▁dare",
        -9.637527787301698
      ],
      [
        "▁slow",
        -9.63799001313898
      ],
      [
        "!But",
        -9.638347710365798
      ],
      [
        "▁closer",
        -9.638387668528447
      ],
      [
        "▁morning,",
        -9.638812822412767
      ],
      [
        ".Could",
        -9.639016861003666
      ],
      [
        "▁see,",
        -9.639560745939775
      ],
      [
        "▁teach",
        -9.642493707613074
      ],
      [
        "▁fit",
        -9.642658873468369
      ],
      [
        "▁became",
        -9.643952014249441
      ],
      [
        "▁respect",
        -9.644331833040468
      ],
      [
        "▁enjoy",
        -9.646176160319179
      ],
      [
        "▁boyfriend",
        -9.646294414028349
      ],
      [
        "▁surprise",
        -9.646538522256028
      ],
      [
        "▁king",
        -9.647558279743158
      ],
      [
        "the",
        -9.64855997965567
      ],
      [
        "▁rid",
        -9.648958554199046
      ],
      [
        "▁stole",
        -9.649700254060612
      ],
      [
        "▁kidding",
        -9.649968081608645
      ],
      [
        "▁wine",
        -9.652422889119762
      ],
      [
        "▁age",
        -9.654221969736426
      ],
      [
        "▁address",
        -9.654558808493373
      ],
      [
        "▁cops",
        -9.655050769931623
      ],
      [
        "▁doubt",
        -9.655058246797271
      ],
      [
        "!Oh,",
        -9.656432130330845
      ],
      [
        "▁rules",
        -9.657895904475664
      ],
      [
        "▁wall",
        -9.658101857749916
      ],
      [
        "▁him.-",
        -9.65876613079655
      ],
      [
        "▁treat",
        -9.659816967750867
      ],
      [
        "▁(",
        -9.660569883425625
      ],
      [
        "▁sir,",
        -9.661426854471895
      ],
      [
        "▁board",
        -9.662841203915695
      ],
      [
        "▁wrote",
        -9.663134160226136
      ],
      [
        "▁crew",
        -9.663258810267187
      ],
      [
        "▁tree",
        -9.666925721449978
      ],
      [
        ".Um,",
        -9.668833451131022
      ],
      [
        "▁appreciate",
        -9.669071194098576
      ],
      [
        "▁drunk",
        -9.669528682378573
      ],
      [
        "▁admit",
        -9.669641279507001
      ],
      [
        "ch",
        -9.671430482275202
      ],
      [
        "ies",
        -9.671696229113024
      ],
      [
        "▁on?What",
        -9.671734260628169
      ],
      [
        "▁file",
        -9.672739836751855
      ],
      [
        "?Maybe",
        -9.676523488535928
      ],
      [
        "▁gas",
        -9.676736459281877
      ],
      [
        "▁hadn't",
        -9.677478794812986
      ],
      [
        ".Actually,",
        -9.677585277165639
      ],
      [
        ".Can't",
        -9.678230896455759
      ],
      [
        "x",
        -9.67926839540733
      ],
      [
        "▁shop",
        -9.67943599844914
      ],
      [
        "ri",
        -9.681520163002496
      ],
      [
        "▁eight",
        -9.682847978514584
      ],
      [
        "▁ourselves",
        -9.68297040654446
      ],
      [
        "▁bunch",
        -9.682973265596893
      ],
      [
        "▁huge",
        -9.683488030315946
      ],
      [
        "▁seconds",
        -9.683523600293476
      ],
      [
        ".Ah",
        -9.684467291077041
      ],
      [
        ".By",
        -9.688454837360524
      ],
      [
        "▁blame",
        -9.688931646120832
      ],
      [
        "▁French",
        -9.68902051560218
      ],
      [
        "▁calm",
        -9.689139301636802
      ],
      [
        "▁walking",
        -9.689555656320547
      ],
      [
        "?Look,",
        -9.690352797179024
      ],
      [
        "▁none",
        -9.69076750234291
      ],
      [
        ".Nobody",
        -9.691476968139188
      ],
      [
        "?Come",
        -9.691534917448301
      ],
      [
        "▁art",
        -9.692428854870407
      ],
      [
        "▁learned",
        -9.692710401928158
      ],
      [
        "▁loves",
        -9.69358708582375
      ],
      [
        "▁machine",
        -9.694566393593352
      ],
      [
        "▁attention",
        -9.69473769820491
      ],
      [
        "▁honor",
        -9.694778252399551
      ],
      [
        "▁today,",
        -9.695751442407163
      ],
      [
        "▁except",
        -9.69643161178675
      ],
      [
        ".Stop",
        -9.69662755236995
      ],
      [
        ".Keep",
        -9.698574317722137
      ],
      [
        "▁Oh",
        -9.698741811360446
      ],
      [
        "▁K",
        -9.70010390968925
      ],
      [
        "▁drug",
        -9.700391612690165
      ],
      [
        "▁college",
        -9.701108135596336
      ],
      [
        "▁Of",
        -9.703266320962836
      ],
      [
        "▁sleeping",
        -9.703585390709787
      ],
      [
        "▁above",
        -9.704231894172375
      ],
      [
        "▁hole",
        -9.70463439421518
      ],
      [
        "▁often",
        -9.706988714062096
      ],
      [
        "▁you?",
        -9.707330067274835
      ],
      [
        "▁angry",
        -9.707806323345592
      ],
      [
        "?She's",
        -9.708126048232861
      ],
      [
        "▁foot",
        -9.709741925284177
      ],
      [
        "▁magic",
        -9.70982304242067
      ],
      [
        "We'll",
        -9.710372422241935
      ],
      [
        "▁idiot",
        -9.710441267494904
      ],
      [
        ".People",
        -9.711035357826702
      ],
      [
        "▁army",
        -9.711099361031435
      ],
      [
        ".An",
        -9.711373569406547
      ],
      [
        "▁Or",
        -9.713362210113878
      ],
      [
        "▁letter",
        -9.716954387025801
      ],
      [
        "▁suit",
        -9.717936258283753
      ],
      [
        "▁owe",
        -9.718366040008364
      ],
      [
        "▁allowed",
        -9.7185894300173
      ],
      [
        "ness",
        -9.71877268638352
      ],
      [
        "ous",
        -9.72045165818548
      ],
      [
        "▁sing",
        -9.721117516372082
      ],
      [
        "▁cry",
        -9.721855697241246
      ],
      [
        "▁decision",
        -9.722981085798653
      ],
      [
        "▁it.You",
        -9.723388057129764
      ],
      [
        "▁me?",
        -9.725306150926768
      ],
      [
        "▁gives",
        -9.726294531285523
      ],
      [
        "?Not",
        -9.726447086867118
      ],
      [
        "▁Sam",
        -9.726579474603566
      ],
      [
        "▁officer",
        -9.727020643382946
      ],
      [
        "▁Maybe",
        -9.72719636861845
      ],
      [
        "▁bank",
        -9.727517753200182
      ],
      [
        ".Any",
        -9.727742642378228
      ],
      [
        "It",
        -9.728183024945329
      ],
      [
        "▁mention",
        -9.729442157377498
      ],
      [
        "▁Will",
        -9.730104899514597
      ],
      [
        "▁account",
        -9.731013570919174
      ],
      [
        "▁medical",
        -9.731116886935418
      ],
      [
        "?Because",
        -9.732700953313628
      ],
      [
        "ur",
        -9.733588884086867
      ],
      [
        "▁no.",
        -9.734881645422963
      ],
      [
        "▁careful",
        -9.73738483617291
      ],
      [
        "▁jail",
        -9.737503381680856
      ],
      [
        "▁pleasure",
        -9.737662318636868
      ],
      [
        "▁earth",
        -9.738024392883938
      ],
      [
        ".Make",
        -9.738113989125228
      ],
      [
        "▁hoping",
        -9.738329510059373
      ],
      [
        "▁hiding",
        -9.738722892828532
      ],
      [
        "▁c",
        -9.741641656835752
      ],
      [
        "▁film",
        -9.74165499032134
      ],
      [
        "He",
        -9.74227473101235
      ],
      [
        "▁shooting",
        -9.743043043299167
      ],
      [
        "▁carry",
        -9.743114238294808
      ],
      [
        "▁horse",
        -9.743244881743944
      ],
      [
        "▁okay?",
        -9.743416395301903
      ],
      [
        "▁definitely",
        -9.745092068702693
      ],
      [
        "▁bigger",
        -9.745249035365426
      ],
      [
        "▁evil",
        -9.74676184485735
      ],
      [
        "▁apart",
        -9.747150152610866
      ],
      [
        "▁burn",
        -9.748938572382798
      ],
      [
        "▁patient",
        -9.749026100007931
      ],
      [
        "▁witness",
        -9.75026600374165
      ],
      [
        "?Okay?Okay?Okay",
        -9.750781511056534
      ],
      [
        "▁him.",
        -9.750781954405165
      ],
      [
        "▁common",
        -9.752235469124017
      ],
      [
        "ll",
        -9.752301881312817
      ],
      [
        "▁usually",
        -9.752462987689249
      ],
      [
        "▁W",
        -9.752538885983045
      ],
      [
        "▁access",
        -9.752609632912797
      ],
      [
        "▁club",
        -9.754756568267666
      ],
      [
        "▁suspect",
        -9.755635999269018
      ],
      [
        "▁interest",
        -9.75574780725115
      ],
      [
        "ment",
        -9.756547623288117
      ],
      [
        ".'Cause",
        -9.756650274284329
      ],
      [
        "▁race",
        -9.757478085146284
      ],
      [
        "He's",
        -9.757730360922853
      ],
      [
        "▁judge",
        -9.757899110637032
      ],
      [
        "▁tea",
        -9.759014933568835
      ],
      [
        "▁played",
        -9.75927205550488
      ],
      [
        "▁drinking",
        -9.759874267917894
      ],
      [
        "▁helped",
        -9.760358197308417
      ],
      [
        "▁Because",
        -9.760583130051394
      ],
      [
        "▁president",
        -9.762102490033891
      ],
      [
        "▁acting",
        -9.762943334067785
      ],
      [
        "▁following",
        -9.763171719364472
      ],
      [
        "▁rock",
        -9.764037364559343
      ],
      [
        "▁camera",
        -9.76570272600151
      ],
      [
        "▁ladies",
        -9.766516864803922
      ],
      [
        "▁dirty",
        -9.766940315752557
      ],
      [
        "▁favor",
        -9.768444187903691
      ],
      [
        "▁lock",
        -9.768694149234248
      ],
      [
        "▁keeping",
        -9.768918649110702
      ],
      [
        "'re",
        -9.772026571340316
      ],
      [
        "▁arm",
        -9.77245344696289
      ],
      [
        "▁laugh",
        -9.773327741127012
      ],
      [
        "▁worst",
        -9.773942434089165
      ],
      [
        "▁named",
        -9.774942224665569
      ],
      [
        "▁hundred",
        -9.775344532671326
      ],
      [
        "▁N",
        -9.775387322601972
      ],
      [
        ".Oh",
        -9.77616254591113
      ],
      [
        "▁awesome",
        -9.777171861902579
      ],
      [
        "▁low",
        -9.777896275075566
      ],
      [
        "▁Right",
        -9.778041910012094
      ],
      [
        "▁bomb",
        -9.779107409663691
      ],
      [
        "▁listening",
        -9.779482545857705
      ],
      [
        "▁park",
        -9.77948980259793
      ],
      [
        "!How",
        -9.779556065415093
      ],
      [
        ".Since",
        -9.779981704516675
      ],
      [
        "▁level",
        -9.780139834225977
      ],
      [
        "▁tight",
        -9.780205788231417
      ],
      [
        "...The",
        -9.780757497837374
      ],
      [
        "▁agent",
        -9.781140489004404
      ],
      [
        "▁military",
        -9.781377360872709
      ],
      [
        "▁years,",
        -9.781392387234398
      ],
      [
        "!\"",
        -9.781634673433889
      ],
      [
        "ING",
        -9.783102491247451
      ],
      [
        ".Every",
        -9.783310268961715
      ],
      [
        "!If",
        -9.783666969420302
      ],
      [
        "▁house,",
        -9.783874790893972
      ],
      [
        "▁showed",
        -9.784487144270937
      ],
      [
        "▁kick",
        -9.785030136798891
      ],
      [
        "▁bastard",
        -9.785499330703813
      ],
      [
        "▁that.",
        -9.786222107908007
      ],
      [
        "▁themselves",
        -9.788138889250336
      ],
      [
        "▁begin",
        -9.788189974624068
      ],
      [
        "▁it?I",
        -9.789338404822859
      ],
      [
        ".Right",
        -9.789835721738626
      ],
      [
        "▁O",
        -9.791927546879354
      ],
      [
        "▁joke",
        -9.792643678692048
      ],
      [
        "▁picked",
        -9.79303052235578
      ],
      [
        "▁warm",
        -9.794337642854245
      ],
      [
        "▁favorite",
        -9.796186079204684
      ],
      [
        "me",
        -9.796306847235263
      ],
      [
        "▁L",
        -9.80007774556018
      ],
      [
        "▁seemed",
        -9.800521629230317
      ],
      [
        ".Sorry.Sorry.I'm",
        -9.8005872135001
      ],
      [
        "▁continue",
        -9.80114654293265
      ],
      [
        "?They're",
        -9.8016075291032
      ],
      [
        "▁complete",
        -9.802128941389618
      ],
      [
        "▁price",
        -9.802485503251436
      ],
      [
        "▁steal",
        -9.802511767717471
      ],
      [
        "▁beginning",
        -9.803743176194079
      ],
      [
        "ne",
        -9.804397328486417
      ],
      [
        "Don't",
        -9.804542816694507
      ],
      [
        "▁allow",
        -9.805155434608501
      ],
      [
        ".Nice",
        -9.805270895550732
      ],
      [
        "▁locked",
        -9.805303433912915
      ],
      [
        "▁eating",
        -9.805334030520156
      ],
      [
        "▁One",
        -9.805857254545693
      ],
      [
        "▁4",
        -9.80640961194053
      ],
      [
        "▁bloody",
        -9.806734074768372
      ],
      [
        "▁rule",
        -9.806783145861456
      ],
      [
        "▁video",
        -9.808207080323765
      ],
      [
        "▁beer",
        -9.808757616195917
      ],
      [
        "▁too,",
        -9.809685233747615
      ],
      [
        "▁escape",
        -9.81025985512317
      ],
      [
        "▁sorry.Sorry",
        -9.810426698087852
      ],
      [
        ".Put",
        -9.811250581444412
      ],
      [
        ".#",
        -9.81135828744161
      ],
      [
        "▁pressure",
        -9.81251186309169
      ],
      [
        "▁lawyer",
        -9.814077337418832
      ],
      [
        "▁up.",
        -9.814150935625097
      ],
      [
        "▁Frank",
        -9.814162981306284
      ],
      [
        "▁they've",
        -9.814180340277234
      ],
      [
        "B",
        -9.81443880897923
      ],
      [
        "▁pulled",
        -9.814453248173985
      ],
      [
        "▁drugs",
        -9.814479549215593
      ],
      [
        "E",
        -9.814962453028365
      ],
      [
        "▁buddy",
        -9.816830458858306
      ],
      [
        "▁quick",
        -9.817434487474575
      ],
      [
        "▁huh?",
        -9.817878184341069
      ],
      [
        "▁spoke",
        -9.818529664081257
      ],
      [
        "▁easier",
        -9.818914027841487
      ],
      [
        "ity",
        -9.819436858744293
      ],
      [
        "el",
        -9.819597714642942
      ],
      [
        "▁huh",
        -9.819832051650758
      ],
      [
        "▁rich",
        -9.82133051654844
      ],
      [
        "▁conversation",
        -9.821952189544238
      ],
      [
        "er,",
        -9.822691340561338
      ],
      [
        "...It's",
        -9.824487167169734
      ],
      [
        "▁wondering",
        -9.82480835236586
      ],
      [
        "▁consider",
        -9.824966459538276
      ],
      [
        "▁arrest",
        -9.825018793173768
      ],
      [
        "▁Yeah.",
        -9.825371027166504
      ],
      [
        "▁quiet",
        -9.82596364651862
      ],
      [
        "▁simply",
        -9.826594337375102
      ],
      [
        "▁corner",
        -9.826702802051784
      ],
      [
        "▁could've",
        -9.826812168028612
      ],
      [
        "ling",
        -9.826992150304942
      ],
      [
        "▁orders",
        -9.827342847888337
      ],
      [
        "▁notice",
        -9.827450962064738
      ],
      [
        "▁there.",
        -9.827509847652443
      ],
      [
        "▁bathroom",
        -9.827841532073476
      ],
      [
        "ro",
        -9.82816963116358
      ],
      [
        "▁gay",
        -9.828317367720286
      ],
      [
        "▁Now",
        -9.82930992775752
      ],
      [
        "▁IT",
        -9.829799490638461
      ],
      [
        "So",
        -9.831280483661391
      ],
      [
        ".Very",
        -9.832047612519368
      ],
      [
        "ive",
        -9.83211011668582
      ],
      [
        "▁spot",
        -9.832610567735436
      ],
      [
        "▁doing?-",
        -9.833479581682482
      ],
      [
        "▁father's",
        -9.833876088926436
      ],
      [
        "▁trial",
        -9.834314119163047
      ],
      [
        "▁memory",
        -9.83434141144026
      ],
      [
        "▁now.-",
        -9.835280333263025
      ],
      [
        "▁willing",
        -9.836214354814722
      ],
      [
        "!Come",
        -9.836422275283702
      ],
      [
        "▁Sorry",
        -9.836586394699514
      ],
      [
        "▁thousand",
        -9.83712525866111
      ],
      [
        "Excuse",
        -9.837242268705655
      ],
      [
        "-up",
        -9.837309724762452
      ],
      [
        "▁push",
        -9.83801823830336
      ],
      [
        "nt",
        -9.839875399046647
      ],
      [
        "▁hero",
        -9.84090427922077
      ],
      [
        "▁\"I",
        -9.841737461740227
      ],
      [
        ".Hold",
        -9.841758439393109
      ],
      [
        "▁energy",
        -9.84214973051865
      ],
      [
        "▁third",
        -9.842149752865863
      ],
      [
        ".From",
        -9.842464788496734
      ],
      [
        "▁honest",
        -9.842623860364132
      ],
      [
        "▁ya",
        -9.84286317722259
      ],
      [
        "▁look,",
        -9.842900823515333
      ],
      [
        "▁type",
        -9.843484341471271
      ],
      [
        "▁t",
        -9.844002528647614
      ],
      [
        "▁here.You",
        -9.845896980670814
      ],
      [
        "▁shoes",
        -9.846267894958363
      ],
      [
        "▁blue",
        -9.846271776370957
      ],
      [
        ".Got",
        -9.847251468858845
      ],
      [
        "▁flight",
        -9.847846203965915
      ],
      [
        "▁so.I",
        -9.848893744485837
      ],
      [
        "▁Jesus",
        -9.850410031633295
      ],
      [
        "▁fuckin'",
        -9.850498915277548
      ],
      [
        "▁experience",
        -9.850540126368717
      ],
      [
        "▁jump",
        -9.851868280982206
      ],
      [
        "▁sea",
        -9.852141497817192
      ],
      [
        "▁No.",
        -9.85233444109884
      ],
      [
        "▁liked",
        -9.853294581045493
      ],
      [
        "▁grand",
        -9.853965292808049
      ],
      [
        "▁search",
        -9.854287055084761
      ],
      [
        "▁leg",
        -9.855218873612522
      ],
      [
        "No,",
        -9.856178835141455
      ],
      [
        "▁hey,",
        -9.856447829702816
      ],
      [
        ".\"You",
        -9.856458814083156
      ],
      [
        "?Get",
        -9.856941233402697
      ],
      [
        "▁forgive",
        -9.857919927815846
      ],
      [
        "▁enemy",
        -9.857960272867347
      ],
      [
        "▁hurry",
        -9.858025140958386
      ],
      [
        "▁here?What",
        -9.860408938142754
      ],
      [
        "▁fired",
        -9.861054025698259
      ],
      [
        "s'",
        -9.86264791791594
      ],
      [
        "▁blind",
        -9.864228076496824
      ],
      [
        "▁keeps",
        -9.865324695153607
      ],
      [
        "▁difference",
        -9.86570466330973
      ],
      [
        "▁weekend",
        -9.865712456685337
      ],
      [
        "▁further",
        -9.865971148420087
      ],
      [
        "ry",
        -9.866056271411324
      ],
      [
        "▁Charlie",
        -9.869657852128142
      ],
      [
        "▁cross",
        -9.87067787579937
      ],
      [
        "▁shower",
        -9.87144837163826
      ],
      [
        "▁should've",
        -9.871585288921308
      ],
      [
        "▁[",
        -9.872297631152247
      ],
      [
        "▁quit",
        -9.872749016577558
      ],
      [
        "▁excuse",
        -9.873055864290144
      ],
      [
        "▁earlier",
        -9.874025784804978
      ],
      [
        "▁this.I",
        -9.874277497591688
      ],
      [
        "▁King",
        -9.874405588616138
      ],
      [
        "▁Like",
        -9.874915565639114
      ],
      [
        "▁Please",
        -9.8750864565388
      ],
      [
        "▁R",
        -9.875740223772972
      ],
      [
        "!No,",
        -9.87735316505135
      ],
      [
        "ist",
        -9.877608336227048
      ],
      [
        "▁Father",
        -9.877822787496072
      ],
      [
        "!Get",
        -9.877855610367796
      ],
      [
        "▁bear",
        -9.877874094884833
      ],
      [
        "▁fat",
        -9.878488106628804
      ],
      [
        "ce",
        -9.880485872577601
      ],
      [
        "▁fresh",
        -9.882004463967402
      ],
      [
        "▁upon",
        -9.882587025354809
      ],
      [
        "▁fine,",
        -9.884721974741947
      ],
      [
        "▁pictures",
        -9.884996562562325
      ],
      [
        "▁Tom",
        -9.886353768212224
      ],
      [
        "▁mate",
        -9.886580042139789
      ],
      [
        "▁camp",
        -9.886663792946116
      ],
      [
        "la",
        -9.887703244342294
      ],
      [
        "▁cute",
        -9.888616540268636
      ],
      [
        "▁restaurant",
        -9.888760462994874
      ],
      [
        "▁empty",
        -9.890349096502788
      ],
      [
        "▁Michael",
        -9.890545481974522
      ],
      [
        "▁surprised",
        -9.891620077354638
      ],
      [
        "▁arms",
        -9.892135066065453
      ],
      [
        "▁you?I",
        -9.892195311953705
      ],
      [
        "▁about?What",
        -9.892768958397234
      ],
      [
        "▁build",
        -9.89309974704709
      ],
      [
        "▁home,",
        -9.89399972957989
      ],
      [
        "he",
        -9.894802600355469
      ],
      [
        "▁radio",
        -9.896442983813397
      ],
      [
        "▁survive",
        -9.89701691095151
      ],
      [
        "▁grow",
        -9.89770242124689
      ],
      [
        "▁seat",
        -9.897781049312847
      ],
      [
        "▁knife",
        -9.898496553021435
      ],
      [
        "▁innocent",
        -9.89861611076617
      ],
      [
        "▁extra",
        -9.898618478144591
      ],
      [
        "am",
        -9.898650165974308
      ],
      [
        "▁George",
        -9.898901498175348
      ],
      [
        "▁glass",
        -9.899145625499067
      ],
      [
        "▁sold",
        -9.899982583386818
      ],
      [
        "na",
        -9.901281926106243
      ],
      [
        "▁me?-",
        -9.90147629324629
      ],
      [
        "▁now.",
        -9.901739336878151
      ],
      [
        "N",
        -9.902325820817152
      ],
      [
        "nother",
        -9.902723678906984
      ],
      [
        "son",
        -9.90400355167174
      ],
      [
        "▁We'll",
        -9.905751475622404
      ],
      [
        "▁Joe",
        -9.905893336992406
      ],
      [
        "▁right?I",
        -9.9059544156535
      ],
      [
        "These",
        -9.906886778139528
      ],
      [
        "▁cost",
        -9.906919072237287
      ],
      [
        "▁client",
        -9.907317426747486
      ],
      [
        ".Help",
        -9.908080076112942
      ],
      [
        "▁itself",
        -9.908915608011238
      ],
      [
        "O",
        -9.909228340169603
      ],
      [
        "▁crying",
        -9.909717603025744
      ],
      [
        "▁church",
        -9.910106998020881
      ],
      [
        "▁names",
        -9.910889369217937
      ],
      [
        "▁purpose",
        -9.912179007641242
      ],
      [
        "K",
        -9.91462486387989
      ],
      [
        "▁threw",
        -9.9153539585551
      ],
      [
        "▁built",
        -9.915447183617747
      ],
      [
        "▁decide",
        -9.916343408456472
      ],
      [
        ".Sometimes",
        -9.91660788790374
      ],
      [
        ".Sir",
        -9.916695007689146
      ],
      [
        "▁stage",
        -9.917874619331965
      ],
      [
        "▁Yes",
        -9.918517785975588
      ],
      [
        ".\"The",
        -9.918771471903842
      ],
      [
        "She",
        -9.919203122404113
      ],
      [
        "▁likes",
        -9.919729921033628
      ],
      [
        "▁please,",
        -9.920053484446479
      ],
      [
        ".D",
        -9.922834553544257
      ],
      [
        "▁impossible",
        -9.922966682883606
      ],
      [
        "Okay?Okay?All",
        -9.92335499366212
      ],
      [
        "ka",
        -9.923519236861202
      ],
      [
        "▁nervous",
        -9.923827305591999
      ],
      [
        "▁breakfast",
        -9.92383417613176
      ],
      [
        "▁planning",
        -9.9238851002408
      ],
      [
        "...What",
        -9.923962064686862
      ],
      [
        ".Okay.",
        -9.925146194372868
      ],
      [
        "▁skin",
        -9.925226350723992
      ],
      [
        "▁promised",
        -9.9260661037473
      ],
      [
        "▁p",
        -9.927340488067882
      ],
      [
        "▁Thanks",
        -9.927777694866922
      ],
      [
        "▁kitchen",
        -9.928749414062285
      ],
      [
        "?Now,",
        -9.929607618447065
      ],
      [
        "▁investigation",
        -9.929662159176624
      ],
      [
        "▁student",
        -9.93045026721218
      ],
      [
        "▁nine",
        -9.931898556849088
      ],
      [
        "▁stories",
        -9.932374839892656
      ],
      [
        "▁Unit",
        -9.932426605301933
      ],
      [
        "▁closed",
        -9.93312310543956
      ],
      [
        ".\"-",
        -9.933487180296245
      ],
      [
        "▁sorry.-",
        -9.934259718268128
      ],
      [
        "▁America",
        -9.934614106672276
      ],
      [
        "▁50",
        -9.935000471567083
      ],
      [
        "▁books",
        -9.936456350017146
      ],
      [
        "▁quickly",
        -9.936666320463875
      ],
      [
        "▁cat",
        -9.936961301091227
      ],
      [
        "▁pretend",
        -9.937050058892813
      ],
      [
        "!She",
        -9.937976193003639
      ],
      [
        "▁reading",
        -9.938333256215103
      ],
      [
        ".Once",
        -9.93837814575264
      ],
      [
        "?S",
        -9.939104500191013
      ],
      [
        "▁suggest",
        -9.939474300309211
      ],
      [
        "▁San",
        -9.93980221267541
      ],
      [
        "▁me?I",
        -9.940234634841662
      ],
      [
        ".OK",
        -9.940940978422717
      ],
      [
        "▁green",
        -9.941077713065239
      ],
      [
        "▁pool",
        -9.94125613108611
      ],
      [
        "▁arrived",
        -9.94146975625938
      ],
      [
        "▁stolen",
        -9.941500516792399
      ],
      [
        "▁code",
        -9.942251441645823
      ],
      [
        "▁danger",
        -9.94269019116367
      ],
      [
        "▁job,",
        -9.943462981257682
      ],
      [
        "▁checked",
        -9.943884234189838
      ],
      [
        "▁Red",
        -9.944161736096774
      ],
      [
        "▁With",
        -9.944641955104137
      ],
      [
        "Dr.",
        -9.944799397440327
      ],
      [
        "▁form",
        -9.9454050901012
      ],
      [
        ".Think",
        -9.946060186138446
      ],
      [
        "▁guard",
        -9.946960310308036
      ],
      [
        "There's",
        -9.948371268436489
      ],
      [
        "▁friend,",
        -9.948404029054148
      ],
      [
        "▁she'll",
        -9.948674324291893
      ],
      [
        "▁recognize",
        -9.94868770367989
      ],
      [
        "▁m",
        -9.948947982088194
      ],
      [
        "▁tape",
        -9.94950984743262
      ],
      [
        "▁beyond",
        -9.949690687609337
      ],
      [
        "▁time.I",
        -9.950044972877903
      ],
      [
        "t'll",
        -9.951072416159821
      ],
      [
        "up",
        -9.951347892959824
      ],
      [
        "▁battle",
        -9.951561592791446
      ],
      [
        "ia",
        -9.951939493276432
      ],
      [
        "il",
        -9.952926904592205
      ],
      [
        "?To",
        -9.953829806475657
      ],
      [
        "▁English",
        -9.954228343228374
      ],
      [
        "▁program",
        -9.954256040034458
      ],
      [
        "▁prefer",
        -9.954581126057366
      ],
      [
        "▁final",
        -9.955016449473185
      ],
      [
        "?Please",
        -9.955373243518995
      ],
      [
        "...We",
        -9.955726526674582
      ],
      [
        "▁afternoon",
        -9.955925503518891
      ],
      [
        "▁]",
        -9.956234309174347
      ],
      [
        "▁on.",
        -9.956728432901151
      ],
      [
        "▁local",
        -9.956800154929343
      ],
      [
        "▁Al",
        -9.956892136311971
      ],
      [
        "▁losing",
        -9.95847840015994
      ],
      [
        "▁responsible",
        -9.958509757459652
      ],
      [
        "▁FBI",
        -9.958675509459296
      ],
      [
        ".Should",
        -9.959427505739194
      ],
      [
        "▁among",
        -9.959491250882746
      ],
      [
        "▁bottle",
        -9.960754319345641
      ],
      [
        ".M",
        -9.961051632244043
      ],
      [
        "▁sake",
        -9.961461857674895
      ],
      [
        "!A",
        -9.962412905463172
      ],
      [
        "▁master",
        -9.963068796810774
      ],
      [
        "▁research",
        -9.963076176602897
      ],
      [
        ".H",
        -9.96341648177761
      ],
      [
        "▁grab",
        -9.963476116934814
      ],
      [
        "G",
        -9.96366634973276
      ],
      [
        "C",
        -9.963802440713422
      ],
      [
        "?As",
        -9.96413876406113
      ],
      [
        "▁speed",
        -9.9650115855972
      ],
      [
        "▁perhaps",
        -9.967312143729519
      ],
      [
        "▁David",
        -9.967444772979903
      ],
      [
        "▁raise",
        -9.968675805037178
      ],
      [
        "▁due",
        -9.96981432168834
      ],
      [
        "▁neck",
        -9.970251184549912
      ],
      [
        ".L",
        -9.971525217348425
      ],
      [
        "ter",
        -9.972156459065959
      ],
      [
        "▁wind",
        -9.972209230788355
      ],
      [
        "▁together,",
        -9.972615923692537
      ],
      [
        "!Don't",
        -9.973586358211882
      ],
      [
        "▁weapon",
        -9.97395445894647
      ],
      [
        "▁damage",
        -9.975871763104639
      ],
      [
        "▁writing",
        -9.976334366003321
      ],
      [
        "▁immediately",
        -9.976361090010633
      ],
      [
        "▁City",
        -9.976403745298224
      ],
      [
        "▁records",
        -9.977039025903302
      ],
      [
        "▁gotten",
        -9.97729873862092
      ],
      [
        "▁6",
        -9.977828085647465
      ],
      [
        "ton",
        -9.978397400060492
      ],
      [
        "▁heat",
        -9.978417595570122
      ],
      [
        "▁lights",
        -9.979681865244235
      ],
      [
        "▁add",
        -9.980359455817355
      ],
      [
        "te",
        -9.98163073090307
      ],
      [
        ".They'll",
        -9.981910968545238
      ],
      [
        "?Yes",
        -9.982662683095864
      ],
      [
        "▁spirit",
        -9.98499080212077
      ],
      [
        "▁smoke",
        -9.985065677902316
      ],
      [
        "▁animal",
        -9.985184503667536
      ],
      [
        "Why",
        -9.985201040683728
      ],
      [
        "▁plenty",
        -9.985249726605673
      ],
      [
        "▁surgery",
        -9.985251397243424
      ],
      [
        "▁complicated",
        -9.985290361129628
      ],
      [
        "▁North",
        -9.985394098784173
      ],
      [
        "▁remind",
        -9.985536308439151
      ],
      [
        "?Let",
        -9.987536563843861
      ],
      [
        "▁practice",
        -9.987689209556958
      ],
      [
        "▁lied",
        -9.987993517303742
      ],
      [
        "et",
        -9.988423575591074
      ],
      [
        "▁there.I",
        -9.989055530510583
      ],
      [
        "▁case,",
        -9.991011117154256
      ],
      [
        "▁walked",
        -9.991324454515517
      ],
      [
        "...But",
        -9.991427861359318
      ],
      [
        "▁pack",
        -9.99175944307827
      ],
      [
        "▁lay",
        -9.991887797283823
      ],
      [
        "▁natural",
        -9.993495516612395
      ],
      [
        "▁afford",
        -9.994341382152767
      ],
      [
        "▁uncle",
        -9.994713476574878
      ],
      [
        "▁obviously",
        -9.994749821073503
      ],
      [
        "▁photo",
        -9.994937582364726
      ],
      [
        "▁village",
        -9.995469193342295
      ],
      [
        ".May",
        -9.99638919881597
      ],
      [
        "▁Take",
        -9.998139664502272
      ],
      [
        "▁hearing",
        -9.998262113723033
      ],
      [
        "ary",
        -10.000461169125535
      ],
      [
        "▁later,",
        -10.001239566150439
      ],
      [
        "▁river",
        -10.001500046781052
      ],
      [
        "▁goddamn",
        -10.00184760662986
      ],
      [
        ".P",
        -10.00251132476777
      ],
      [
        "That",
        -10.00261942372487
      ],
      [
        "▁arrested",
        -10.003072926670622
      ],
      [
        "▁heavy",
        -10.003510606350957
      ],
      [
        "▁bodies",
        -10.003524986250955
      ],
      [
        "▁credit",
        -10.003531492986433
      ],
      [
        "▁absolutely",
        -10.003624956815255
      ],
      [
        "How",
        -10.003694543911202
      ],
      [
        "▁Peter",
        -10.003795907801749
      ],
      [
        ".Last",
        -10.005112138259948
      ],
      [
        "▁whose",
        -10.006940843354418
      ],
      [
        ".Stay",
        -10.007260770752403
      ],
      [
        "▁shows",
        -10.007528288317513
      ],
      [
        ".Well",
        -10.007576444062568
      ],
      [
        "▁bringing",
        -10.007657562303464
      ],
      [
        "▁career",
        -10.008120999156674
      ],
      [
        "▁18",
        -10.00901556881007
      ],
      [
        "▁do?What",
        -10.009302444723843
      ],
      [
        "▁issue",
        -10.00980776497644
      ],
      [
        "ng",
        -10.01058014379682
      ],
      [
        "▁older",
        -10.010726823866758
      ],
      [
        "▁main",
        -10.012163998157316
      ],
      [
        "▁good,",
        -10.012240983902325
      ],
      [
        "▁bullshit",
        -10.012723031889191
      ],
      [
        "▁necessary",
        -10.01277420402177
      ],
      [
        "▁opportunity",
        -10.012774313512203
      ],
      [
        "▁twice",
        -10.012775179130582
      ],
      [
        "▁teeth",
        -10.012786392435004
      ],
      [
        "▁science",
        -10.01281950355974
      ],
      [
        "▁ME",
        -10.014229528137566
      ],
      [
        "▁rain",
        -10.017214662590536
      ],
      [
        "▁murdered",
        -10.017453059998733
      ],
      [
        "▁ordered",
        -10.018054532659217
      ],
      [
        "ir",
        -10.019228416367483
      ],
      [
        "▁starts",
        -10.019596869488183
      ],
      [
        "▁right.-",
        -10.019867774247171
      ],
      [
        "▁papers",
        -10.020324466708228
      ],
      [
        "▁it?-",
        -10.021608484720648
      ],
      [
        "▁man's",
        -10.021780573764888
      ],
      [
        "▁London",
        -10.022018607775294
      ],
      [
        "▁horrible",
        -10.022120396434126
      ],
      [
        "▁dropped",
        -10.022180133128053
      ],
      [
        "▁daddy",
        -10.022246125814371
      ],
      [
        "▁Here",
        -10.022313216218295
      ],
      [
        "▁captain",
        -10.023031394203528
      ],
      [
        "▁man.",
        -10.023984866316528
      ],
      [
        "Hey,",
        -10.02470831780191
      ],
      [
        "▁dreams",
        -10.02505706658497
      ],
      [
        ".Everyone",
        -10.025314635747648
      ],
      [
        "▁plans",
        -10.026518855769947
      ],
      [
        "▁money,",
        -10.026923423404693
      ],
      [
        "no",
        -10.028385769585125
      ],
      [
        "▁THAT",
        -10.030968651571875
      ],
      [
        "▁chief",
        -10.031553731751167
      ],
      [
        "▁proof",
        -10.031576251409497
      ],
      [
        "▁emergency",
        -10.031660713627296
      ],
      [
        "id",
        -10.031837323370556
      ],
      [
        "se",
        -10.031863716609262
      ],
      [
        "▁double",
        -10.032250959613162
      ],
      [
        "▁beach",
        -10.034302660157255
      ],
      [
        "out",
        -10.034679472881878
      ],
      [
        "▁work,",
        -10.035434620985637
      ],
      [
        "▁!",
        -10.035666088967776
      ],
      [
        "▁believed",
        -10.036194952769034
      ],
      [
        "▁guilty",
        -10.036491047081974
      ],
      [
        "▁waste",
        -10.036987232048983
      ],
      [
        "▁trick",
        -10.036987839446489
      ],
      [
        "▁that?",
        -10.037868027732511
      ],
      [
        "s...",
        -10.038001004200101
      ],
      [
        ".G",
        -10.038167584702341
      ],
      [
        "P",
        -10.038273591870517
      ],
      [
        "ot",
        -10.038500547066693
      ],
      [
        "▁her.I",
        -10.038965243206214
      ],
      [
        "rs",
        -10.040111924818401
      ],
      [
        "▁weapons",
        -10.04094284781554
      ],
      [
        "▁OF",
        -10.041084406211638
      ],
      [
        "▁excited",
        -10.041130324146053
      ],
      [
        "▁greatest",
        -10.042001635673309
      ],
      [
        "ty",
        -10.042075997670523
      ],
      [
        "▁roll",
        -10.04259356601259
      ],
      [
        "▁May",
        -10.04330818821008
      ],
      [
        "▁40",
        -10.044194653422505
      ],
      [
        "▁aware",
        -10.0447282920656
      ],
      [
        "▁Daddy",
        -10.044940254315243
      ],
      [
        "?For",
        -10.045290422328499
      ],
      [
        "uch",
        -10.045472309221202
      ],
      [
        "▁Doctor",
        -10.045749085297242
      ],
      [
        "▁hanging",
        -10.04589065970843
      ],
      [
        "▁guys,",
        -10.047552283867498
      ],
      [
        "go",
        -10.047987250004454
      ],
      [
        "v",
        -10.049016163884698
      ],
      [
        "we",
        -10.049478757549938
      ],
      [
        "▁process",
        -10.050075808729204
      ],
      [
        ".Leave",
        -10.050188381940409
      ],
      [
        "▁weight",
        -10.050216767000805
      ],
      [
        "▁major",
        -10.050636678504434
      ],
      [
        "▁several",
        -10.050705910302522
      ],
      [
        "▁powerful",
        -10.050833618808799
      ],
      [
        "▁view",
        -10.050840980893636
      ],
      [
        "▁feed",
        -10.051036475769983
      ],
      [
        "▁belong",
        -10.051494300783043
      ],
      [
        "'Cause",
        -10.052253031803463
      ],
      [
        "▁Me",
        -10.052385593377036
      ],
      [
        "▁held",
        -10.053265037335832
      ],
      [
        "▁Ben",
        -10.056030700703637
      ],
      [
        "▁away,",
        -10.056389748747439
      ],
      [
        "▁V",
        -10.057144800094857
      ],
      [
        "▁pregnant",
        -10.05882375198572
      ],
      [
        "▁South",
        -10.059248091949208
      ],
      [
        "▁shirt",
        -10.059349438851399
      ],
      [
        "z",
        -10.059538709911752
      ],
      [
        "▁large",
        -10.059954371124805
      ],
      [
        "▁ghost",
        -10.059958091626351
      ],
      [
        "▁Tell",
        -10.060081795016234
      ],
      [
        "▁desk",
        -10.060322061963767
      ],
      [
        "▁beauty",
        -10.060403332260393
      ],
      [
        "▁command",
        -10.060439572065075
      ],
      [
        "▁animals",
        -10.060520196557437
      ],
      [
        "▁suddenly",
        -10.060758773390974
      ],
      [
        "▁duty",
        -10.061182608930036
      ],
      [
        "▁AND",
        -10.061404505212797
      ],
      [
        "▁here?-",
        -10.061599854478276
      ],
      [
        "Come",
        -10.062074585910388
      ],
      [
        "▁they'd",
        -10.062464786395097
      ],
      [
        ".F",
        -10.06264085966152
      ],
      [
        "▁speaking",
        -10.063070021295918
      ],
      [
        "!They",
        -10.064692693512363
      ],
      [
        "▁think?What",
        -10.066101845685768
      ],
      [
        "s.You",
        -10.066321081672642
      ],
      [
        "all",
        -10.066783547413284
      ],
      [
        ".Remember",
        -10.067361646556204
      ],
      [
        "▁Man",
        -10.06759093467735
      ],
      [
        "▁study",
        -10.068178049268578
      ],
      [
        "▁me...",
        -10.068546448627952
      ],
      [
        "▁here?",
        -10.068884444425843
      ],
      [
        "▁bird",
        -10.06899276391437
      ],
      [
        "▁d",
        -10.0694341701777
      ],
      [
        "▁meat",
        -10.069964495398198
      ],
      [
        "▁advice",
        -10.070205816743146
      ],
      [
        "▁biggest",
        -10.070206814360537
      ],
      [
        "▁taught",
        -10.070216372653707
      ],
      [
        "▁remain",
        -10.070646595674143
      ],
      [
        "?One",
        -10.07071221618116
      ],
      [
        "▁Sir",
        -10.070733977139843
      ],
      [
        "▁driver",
        -10.071122245233456
      ],
      [
        "▁doing?",
        -10.07238028664963
      ],
      [
        ".Perhaps",
        -10.073267510887616
      ],
      [
        "▁turns",
        -10.073575241013597
      ],
      [
        "▁places",
        -10.074664254905846
      ],
      [
        "▁tells",
        -10.075610962085161
      ],
      [
        "ly,",
        -10.075803659684613
      ],
      [
        "▁anything,",
        -10.07580401943518
      ],
      [
        "▁here's",
        -10.076285172959633
      ],
      [
        "▁H",
        -10.0789151781639
      ],
      [
        "▁La",
        -10.07954465987238
      ],
      [
        "Do",
        -10.079597747746696
      ],
      [
        "▁famous",
        -10.080106810755627
      ],
      [
        "▁nature",
        -10.08010689195682
      ],
      [
        "▁summer",
        -10.080113599645264
      ],
      [
        "▁wild",
        -10.080272370527647
      ],
      [
        "▁pants",
        -10.080745718057404
      ],
      [
        "ga",
        -10.081221090668771
      ],
      [
        "▁agreed",
        -10.081723606702386
      ],
      [
        "▁god",
        -10.081730527501708
      ],
      [
        "?Look",
        -10.082913520339723
      ],
      [
        "▁At",
        -10.083941174603645
      ],
      [
        "▁travel",
        -10.085338663634294
      ],
      [
        ".God,",
        -10.085435804295981
      ],
      [
        ".Excuse",
        -10.085763162842817
      ],
      [
        "▁discuss",
        -10.08601608407103
      ],
      [
        "▁fake",
        -10.087998540803913
      ],
      [
        ".Oh.",
        -10.08807281646326
      ],
      [
        "▁teacher",
        -10.089282250310415
      ],
      [
        "▁up.I",
        -10.089322797279724
      ],
      [
        "▁faith",
        -10.090058610872155
      ],
      [
        "▁funeral",
        -10.090107423117566
      ],
      [
        "▁Agent",
        -10.09026362132023
      ],
      [
        "▁folks",
        -10.092692363529686
      ],
      [
        "▁destroyed",
        -10.09309770070212
      ],
      [
        "▁leader",
        -10.09319139623284
      ],
      [
        "▁dollars",
        -10.093237478821646
      ],
      [
        ".Three",
        -10.09339223391328
      ],
      [
        "▁States",
        -10.094848345853102
      ],
      [
        "▁Paul",
        -10.094944415974073
      ],
      [
        "▁you?-",
        -10.095616767481784
      ],
      [
        "▁breath",
        -10.098943187383103
      ],
      [
        "▁Mike",
        -10.099145373683093
      ],
      [
        "▁criminal",
        -10.099499043479646
      ],
      [
        "▁cards",
        -10.099538282102085
      ],
      [
        "▁ugly",
        -10.100208853859534
      ],
      [
        "▁barely",
        -10.10034300909927
      ],
      [
        "▁finding",
        -10.100455475474128
      ],
      [
        "▁West",
        -10.101226087039516
      ],
      [
        "▁hat",
        -10.10146324061206
      ],
      [
        "▁warning",
        -10.101776634943523
      ],
      [
        "▁market",
        -10.10197857849872
      ],
      [
        "▁bullet",
        -10.101997114047144
      ],
      [
        "▁forced",
        -10.102024521424262
      ],
      [
        "▁Uh,",
        -10.103120659677245
      ],
      [
        "Yes,",
        -10.10349778168797
      ],
      [
        "!I'll",
        -10.104995906603424
      ],
      [
        "▁Paris",
        -10.105050778685026
      ],
      [
        "▁legs",
        -10.107514035787961
      ],
      [
        "?Tell",
        -10.107757815583415
      ],
      [
        "if",
        -10.108443953278503
      ],
      [
        "▁serve",
        -10.109302396256165
      ],
      [
        "▁dogs",
        -10.11036585906886
      ],
      [
        "▁Ma",
        -10.110508498184096
      ],
      [
        "▁band",
        -10.111631114491718
      ],
      [
        "▁paying",
        -10.111810981699918
      ],
      [
        "▁everywhere",
        -10.112705575189135
      ],
      [
        "▁realized",
        -10.112740309167368
      ],
      [
        "▁ruin",
        -10.114332415856094
      ],
      [
        "▁brothers",
        -10.115115963045248
      ],
      [
        "▁ideas",
        -10.115477117323545
      ],
      [
        ".Mom",
        -10.1156514387587
      ],
      [
        ".Me",
        -10.116249443538347
      ],
      [
        "▁so...",
        -10.116590521301
      ],
      [
        ".Fuck",
        -10.116646854478542
      ],
      [
        "▁super",
        -10.11732178030508
      ],
      [
        "?Have",
        -10.117483919210692
      ],
      [
        "de",
        -10.117954468730582
      ],
      [
        "▁smile",
        -10.118174746820673
      ],
      [
        "▁heading",
        -10.118965420119732
      ],
      [
        ".Watch",
        -10.119123808647206
      ],
      [
        "▁fucked",
        -10.119688410878634
      ],
      [
        "▁guest",
        -10.120087288274087
      ],
      [
        "▁awful",
        -10.120333140483169
      ],
      [
        "▁cream",
        -10.120817124994579
      ],
      [
        ".Where's",
        -10.12087661559104
      ],
      [
        "ant",
        -10.12090149954524
      ],
      [
        ".See,",
        -10.121197065104933
      ],
      [
        "▁action",
        -10.121754080356173
      ],
      [
        "▁onto",
        -10.12364024513965
      ],
      [
        "▁As",
        -10.123656733187516
      ],
      [
        "do",
        -10.124532447069353
      ],
      [
        "▁note",
        -10.124656439012455
      ],
      [
        "▁training",
        -10.12533682506663
      ],
      [
        "ted",
        -10.126356676640002
      ],
      [
        "▁nose",
        -10.126528893287553
      ],
      [
        "▁expecting",
        -10.126704354978788
      ],
      [
        "▁So,",
        -10.127928546433171
      ],
      [
        "▁correct",
        -10.12864161128011
      ],
      [
        "▁matters",
        -10.12948150999243
      ],
      [
        "▁there.-",
        -10.129876131237415
      ],
      [
        "▁movies",
        -10.130563381282329
      ],
      [
        "▁families",
        -10.131137841157397
      ],
      [
        "▁written",
        -10.131139732566517
      ],
      [
        "▁ought",
        -10.131480504586584
      ],
      [
        "▁invited",
        -10.132016810135886
      ],
      [
        "▁prepared",
        -10.132043456317314
      ],
      [
        "▁created",
        -10.132063519464463
      ],
      [
        "▁100",
        -10.1330331349918
      ],
      [
        "▁chair",
        -10.133628708384073
      ],
      [
        "▁somehow",
        -10.133649418239266
      ],
      [
        "▁size",
        -10.134390866468646
      ],
      [
        "▁lt",
        -10.13443659632051
      ],
      [
        "▁His",
        -10.13568730043535
      ],
      [
        "!All",
        -10.135705135218428
      ],
      [
        "?Thank",
        -10.136968927747569
      ],
      [
        "▁sight",
        -10.13702005993824
      ],
      [
        "!Now",
        -10.137308383959258
      ],
      [
        "▁focus",
        -10.137637481902408
      ],
      [
        "▁loose",
        -10.138006262939166
      ],
      [
        "im",
        -10.139416302608492
      ],
      [
        "▁dude",
        -10.1395854712361
      ],
      [
        ".Mr",
        -10.139959621606518
      ],
      [
        "▁cars",
        -10.141004464634976
      ],
      [
        "▁You've",
        -10.141280179768206
      ],
      [
        "▁ways",
        -10.141461499080533
      ],
      [
        "▁people,",
        -10.141566418858059
      ],
      [
        "▁birth",
        -10.14174687360659
      ],
      [
        "▁nowhere",
        -10.142368282017099
      ],
      [
        "ard",
        -10.143362402142284
      ],
      [
        "▁vote",
        -10.144205305944773
      ],
      [
        "▁moon",
        -10.144810789415189
      ],
      [
        "▁numbers",
        -10.145186002115189
      ],
      [
        "▁worry,",
        -10.145432818447427
      ],
      [
        "▁flying",
        -10.145991229287844
      ],
      [
        "▁stayed",
        -10.146824074355195
      ],
      [
        "▁girl,",
        -10.1478240813364
      ],
      [
        "!Yeah,",
        -10.148047768990242
      ],
      [
        "▁it?How",
        -10.148690589738406
      ],
      [
        "▁island",
        -10.149275619718406
      ],
      [
        "▁milk",
        -10.149871458852598
      ],
      [
        "▁it!",
        -10.150190718666412
      ],
      [
        "▁Sunday",
        -10.150365099113895
      ],
      [
        "▁cure",
        -10.151747730440135
      ],
      [
        "▁proper",
        -10.151752809337205
      ],
      [
        "▁bottom",
        -10.152302454774976
      ],
      [
        ".Yeah",
        -10.152311139569465
      ],
      [
        "▁total",
        -10.15253442843283
      ],
      [
        "▁chicken",
        -10.153752800566508
      ],
      [
        ".E",
        -10.154464845694118
      ],
      [
        "▁mother's",
        -10.154602966228255
      ],
      [
        "▁upstairs",
        -10.155230527789016
      ],
      [
        ".Whatever",
        -10.155912554046463
      ],
      [
        "▁what?You",
        -10.156678476310612
      ],
      [
        "▁seriously",
        -10.156825255571583
      ],
      [
        "▁sword",
        -10.157464363111416
      ],
      [
        "▁ma'am",
        -10.157682697218695
      ],
      [
        "▁taste",
        -10.157836024291429
      ],
      [
        "▁soldiers",
        -10.15828986367579
      ],
      [
        ".God",
        -10.159786227545537
      ],
      [
        "▁female",
        -10.159864249428232
      ],
      [
        "ve",
        -10.160736217503167
      ],
      [
        "...He",
        -10.16103698180386
      ],
      [
        "▁north",
        -10.161736175053804
      ],
      [
        ".Wait,",
        -10.16258188118815
      ],
      [
        "▁interview",
        -10.162621512514722
      ],
      [
        "▁dry",
        -10.162816243863379
      ],
      [
        "▁Max",
        -10.163428024056934
      ],
      [
        "▁cup",
        -10.163591276515323
      ],
      [
        "▁German",
        -10.163639271762287
      ],
      [
        "▁time.",
        -10.164549120497519
      ],
      [
        "▁kicked",
        -10.165341734351916
      ],
      [
        "▁Mark",
        -10.16541607556228
      ],
      [
        "▁location",
        -10.165614662939612
      ],
      [
        "▁Friday",
        -10.166434185194618
      ],
      [
        "▁IN",
        -10.167162822549706
      ],
      [
        "▁Be",
        -10.16763392703913
      ],
      [
        "men",
        -10.168810867925522
      ],
      [
        "▁out.I",
        -10.170764159975887
      ],
      [
        "▁avoid",
        -10.17104572973448
      ],
      [
        "▁likely",
        -10.173410232239078
      ],
      [
        "▁legal",
        -10.173821231600826
      ],
      [
        "▁slept",
        -10.173924715871099
      ],
      [
        "▁possibly",
        -10.173930203138038
      ],
      [
        "▁planned",
        -10.17399253303879
      ],
      [
        "▁comfortable",
        -10.17400251310889
      ],
      [
        "▁failed",
        -10.174798939353387
      ],
      [
        "▁asleep",
        -10.175097784676545
      ],
      [
        ".and",
        -10.175330497122676
      ],
      [
        "▁operation",
        -10.175402004857652
      ],
      [
        "▁noticed",
        -10.175448262492628
      ],
      [
        "▁dealing",
        -10.17667363266414
      ],
      [
        "▁leaves",
        -10.177890426700301
      ],
      [
        "▁okay?I",
        -10.178132566285853
      ],
      [
        "▁concerned",
        -10.17913256279008
      ],
      [
        "▁Wait",
        -10.180543813598666
      ],
      [
        "▁thoughts",
        -10.18075591552698
      ],
      [
        "▁cook",
        -10.180827231074336
      ],
      [
        "os",
        -10.180852875461081
      ],
      [
        ".How's",
        -10.181899942384227
      ],
      [
        "▁wait,",
        -10.182500888525581
      ],
      [
        "▁picking",
        -10.183226677194952
      ],
      [
        ".Am",
        -10.184238589540643
      ],
      [
        ".Before",
        -10.184433698571924
      ],
      [
        "▁me!",
        -10.18464290222427
      ],
      [
        "▁freedom",
        -10.184915282827646
      ],
      [
        "▁House",
        -10.18495837579178
      ],
      [
        "▁universe",
        -10.185188325088284
      ],
      [
        "▁center",
        -10.185444117869425
      ],
      [
        "▁heads",
        -10.185457345934228
      ],
      [
        "▁received",
        -10.185525390208264
      ],
      [
        "▁lies",
        -10.18592275844479
      ],
      [
        "ian",
        -10.186093832507307
      ],
      [
        "▁letters",
        -10.186243866158122
      ],
      [
        "Your",
        -10.186763786247198
      ],
      [
        "▁map",
        -10.18724076926458
      ],
      [
        "▁deserve",
        -10.18756959092472
      ],
      [
        "?Got",
        -10.188479736223023
      ],
      [
        "▁expected",
        -10.189346921431007
      ],
      [
        "▁breaking",
        -10.191047147497041
      ],
      [
        "▁guy's",
        -10.192466381859902
      ],
      [
        "▁paint",
        -10.192762491978263
      ],
      [
        "!Do",
        -10.193802772893925
      ],
      [
        "?Take",
        -10.193853519836308
      ],
      [
        ".Never",
        -10.194318469643118
      ],
      [
        "._",
        -10.194426679195947
      ],
      [
        "▁sending",
        -10.195099631453417
      ],
      [
        "ED",
        -10.195217140747852
      ],
      [
        "▁apologize",
        -10.195536891018453
      ],
      [
        "▁rough",
        -10.19563654782701
      ],
      [
        ".Turn",
        -10.19598501723741
      ],
      [
        "▁giant",
        -10.196030654638765
      ],
      [
        "▁suicide",
        -10.196079287841762
      ],
      [
        "▁especially",
        -10.196153511478517
      ],
      [
        "▁gang",
        -10.196217990041415
      ],
      [
        "...It",
        -10.196939763788048
      ],
      [
        "▁out.",
        -10.196949830389206
      ],
      [
        "▁weak",
        -10.197157153585126
      ],
      [
        "▁asshole",
        -10.197375392527235
      ],
      [
        ".Say",
        -10.19829728562363
      ],
      [
        "▁clearly",
        -10.198829472246409
      ],
      [
        "▁fellow",
        -10.199245150239076
      ],
      [
        "▁De",
        -10.199525429643288
      ],
      [
        "▁God's",
        -10.200359563312567
      ],
      [
        "▁gentlemen",
        -10.200981355084355
      ],
      [
        "my",
        -10.201358741236081
      ],
      [
        "▁them.I",
        -10.201987986077908
      ],
      [
        "0",
        -10.20271184802919
      ],
      [
        "▁post",
        -10.203026055601374
      ],
      [
        "▁piss",
        -10.20336716077334
      ],
      [
        "?Or",
        -10.203598199448603
      ],
      [
        "▁fingers",
        -10.204106447186017
      ],
      [
        "▁back.-",
        -10.204786690056416
      ],
      [
        "▁create",
        -10.206391009239006
      ],
      [
        "▁release",
        -10.206456870356625
      ],
      [
        "▁speech",
        -10.20650306416763
      ],
      [
        "ma",
        -10.206914514035194
      ],
      [
        "▁strike",
        -10.20694330772333
      ],
      [
        "▁draw",
        -10.207470551911168
      ],
      [
        "▁discovered",
        -10.20810436764288
      ],
      [
        "▁Christ",
        -10.208176285372607
      ],
      [
        "▁Mary",
        -10.20820383440855
      ],
      [
        ".Somebody",
        -10.209049061848848
      ],
      [
        ".Anything",
        -10.209347866671688
      ],
      [
        "▁contract",
        -10.209410265422118
      ],
      [
        "H",
        -10.209414563725122
      ],
      [
        "▁cousin",
        -10.210777114055427
      ],
      [
        "▁returned",
        -10.211915055157814
      ],
      [
        "▁us.I",
        -10.213389719243246
      ],
      [
        "▁department",
        -10.213457375859537
      ],
      [
        "?Good",
        -10.214150195681029
      ],
      [
        "▁See",
        -10.214610885976356
      ],
      [
        "▁knock",
        -10.214627056842241
      ],
      [
        "▁balls",
        -10.21561296024796
      ],
      [
        "▁condition",
        -10.215751264033079
      ],
      [
        "bo",
        -10.217609739848452
      ],
      [
        "▁throat",
        -10.217956153883822
      ],
      [
        "▁truly",
        -10.218653082498538
      ],
      [
        "▁ended",
        -10.219182490127476
      ],
      [
        "▁them.",
        -10.219272045479658
      ],
      [
        "▁cake",
        -10.21935716744888
      ],
      [
        "▁general",
        -10.21986014164306
      ],
      [
        "▁year,",
        -10.220420179324567
      ],
      [
        "▁target",
        -10.22174727829086
      ],
      [
        "▁world,",
        -10.222597950986923
      ],
      [
        "'S",
        -10.22275891530516
      ],
      [
        "He'll",
        -10.22329804514817
      ],
      [
        "▁bucks",
        -10.22412415343214
      ],
      [
        "▁week,",
        -10.224345413949298
      ],
      [
        "▁path",
        -10.224923629399509
      ],
      [
        "▁pray",
        -10.225279395695168
      ],
      [
        "▁kinda",
        -10.225305574914545
      ],
      [
        "▁Mother",
        -10.225561912605054
      ],
      [
        "▁bridge",
        -10.225957097743922
      ],
      [
        "▁details",
        -10.226313323432692
      ],
      [
        "land",
        -10.226972132350664
      ],
      [
        "▁towards",
        -10.227053669579533
      ],
      [
        "▁guns",
        -10.228002378945131
      ],
      [
        ".Call",
        -10.228343630846013
      ],
      [
        "▁victims",
        -10.229039055701405
      ],
      [
        "Okay,",
        -10.22946403510953
      ],
      [
        "▁strength",
        -10.230028070628858
      ],
      [
        "▁Saturday",
        -10.23011867459384
      ],
      [
        "▁naked",
        -10.230175326370642
      ],
      [
        "!There",
        -10.230266900238066
      ],
      [
        "▁keys",
        -10.230399633384682
      ],
      [
        "▁oil",
        -10.230841552652105
      ],
      [
        "▁signal",
        -10.230890686534467
      ],
      [
        "▁parts",
        -10.231176651093378
      ],
      [
        "▁sky",
        -10.231275141143177
      ],
      [
        "▁games",
        -10.231692498594999
      ],
      [
        "▁grave",
        -10.231846093325565
      ],
      [
        "▁7",
        -10.23228978835552
      ],
      [
        "▁began",
        -10.232872598259533
      ],
      [
        "Y",
        -10.234068160295942
      ],
      [
        "?Okay?Okay?Okay?",
        -10.234253294152207
      ],
      [
        "▁flowers",
        -10.23451244138321
      ],
      [
        "▁connection",
        -10.235314293401764
      ],
      [
        "They",
        -10.236379026852465
      ],
      [
        ".Anyway,",
        -10.2365324693092
      ],
      [
        "▁members",
        -10.236796051972625
      ],
      [
        "▁amount",
        -10.236921632083899
      ],
      [
        "▁regret",
        -10.238532653210282
      ],
      [
        "▁per",
        -10.238637098725327
      ],
      [
        "▁turning",
        -10.239609732874374
      ],
      [
        "?Uh,",
        -10.240910709272175
      ],
      [
        "▁pieces",
        -10.241102060682445
      ],
      [
        "▁color",
        -10.241359231295313
      ],
      [
        "▁rent",
        -10.241973957855937
      ],
      [
        "▁brings",
        -10.242135223856241
      ],
      [
        "▁subject",
        -10.242418686087065
      ],
      [
        "▁Bob",
        -10.2435056814954
      ],
      [
        "▁attempt",
        -10.244582971810065
      ],
      [
        "▁pair",
        -10.244775844436887
      ],
      [
        ".O",
        -10.245159056238204
      ],
      [
        "ever",
        -10.245684253146766
      ],
      [
        ".Besides",
        -10.245736758861165
      ],
      [
        "▁south",
        -10.246274552165682
      ],
      [
        "▁right?Okay?",
        -10.24650581540713
      ],
      [
        "▁property",
        -10.247107962057786
      ],
      [
        "ad",
        -10.248729387879708
      ],
      [
        "2",
        -10.249331640401884
      ],
      [
        "▁okay?-",
        -10.249520301126099
      ],
      [
        ".Talk",
        -10.24961223486655
      ],
      [
        "?Here",
        -10.250691273396392
      ],
      [
        "▁11",
        -10.250811746252932
      ],
      [
        "Shall",
        -10.251842505672396
      ],
      [
        "▁ridiculous",
        -10.252779264127287
      ],
      [
        "▁name's",
        -10.252991215050354
      ],
      [
        "mi",
        -10.253305626643733
      ],
      [
        "▁queen",
        -10.253513798981276
      ],
      [
        "▁fought",
        -10.253515976092942
      ],
      [
        "▁manage",
        -10.25371741854207
      ],
      [
        "▁Henry",
        -10.253766295802336
      ],
      [
        "Just",
        -10.253827822668141
      ],
      [
        "▁wash",
        -10.25385508254129
      ],
      [
        "mo",
        -10.254044556790014
      ],
      [
        "▁reality",
        -10.254177747667105
      ],
      [
        ".Welcome",
        -10.255275861550777
      ],
      [
        "▁value",
        -10.255751728325185
      ],
      [
        "▁around,",
        -10.256491348981648
      ],
      [
        "▁invite",
        -10.257658387565105
      ],
      [
        "▁them.-",
        -10.258632596564478
      ],
      [
        "▁f",
        -10.259929759167857
      ],
      [
        "▁ends",
        -10.260450772588584
      ],
      [
        "▁lots",
        -10.261216614048946
      ],
      [
        ".R",
        -10.263757604136995
      ],
      [
        "▁friends,",
        -10.263933635558505
      ],
      [
        "▁powers",
        -10.264291772589772
      ],
      [
        "▁introduce",
        -10.264644077753914
      ],
      [
        "▁spell",
        -10.265296635561056
      ],
      [
        "▁committed",
        -10.265437377959685
      ],
      [
        "▁stars",
        -10.265437684759437
      ],
      [
        "▁community",
        -10.265456231031791
      ],
      [
        "▁this.-",
        -10.265525389220869
      ],
      [
        "ul",
        -10.266851079222032
      ],
      [
        "▁Queen",
        -10.2669263734856
      ],
      [
        "▁perfectly",
        -10.267295088620015
      ],
      [
        "▁um...",
        -10.267648206555535
      ],
      [
        "▁copy",
        -10.26796892764273
      ],
      [
        "▁bro",
        -10.268140432190933
      ],
      [
        "▁dick",
        -10.26826194753566
      ],
      [
        "▁Nothing",
        -10.26907782667707
      ],
      [
        "▁me.And",
        -10.27005217106504
      ],
      [
        "▁attacked",
        -10.270322964672435
      ],
      [
        "▁painting",
        -10.270440635392038
      ],
      [
        "▁con",
        -10.270799963575097
      ],
      [
        "!Look",
        -10.271357351058406
      ],
      [
        "▁selling",
        -10.27203471976174
      ],
      [
        "▁roof",
        -10.27211670417964
      ],
      [
        "▁minute,",
        -10.273322055026096
      ],
      [
        "▁it.The",
        -10.274544692355697
      ],
      [
        "▁boy,",
        -10.275197515242425
      ],
      [
        "ful",
        -10.275201653316472
      ],
      [
        "ping",
        -10.275677505462344
      ],
      [
        "▁Nick",
        -10.275688000501372
      ],
      [
        "▁harm",
        -10.275704424343257
      ],
      [
        "▁jealous",
        -10.275884793255528
      ],
      [
        "▁tip",
        -10.27593748057242
      ],
      [
        "▁silly",
        -10.276025417330512
      ],
      [
        ".Wow",
        -10.276477158543187
      ],
      [
        "▁family,",
        -10.276716071971947
      ],
      [
        "▁illegal",
        -10.276813995838012
      ],
      [
        "▁social",
        -10.276924800299827
      ],
      [
        "▁J",
        -10.277443737505095
      ],
      [
        "▁expensive",
        -10.277561695493564
      ],
      [
        "▁hired",
        -10.278248418922285
      ],
      [
        "▁streets",
        -10.279226284984475
      ],
      [
        "▁justice",
        -10.279572005021793
      ],
      [
        "by",
        -10.279670509242912
      ],
      [
        "▁threat",
        -10.280334834906398
      ],
      [
        "▁headed",
        -10.280630576657941
      ],
      [
        ".Dad",
        -10.28193709948337
      ],
      [
        "Last",
        -10.28355748113536
      ],
      [
        "▁drinks",
        -10.28404421175436
      ],
      [
        ".W",
        -10.286150650133774
      ],
      [
        "▁crack",
        -10.28619664764327
      ],
      [
        "▁deliver",
        -10.28689770458166
      ],
      [
        "▁g",
        -10.28690111139283
      ],
      [
        "▁b",
        -10.287895502740552
      ],
      [
        "R",
        -10.289061518637226
      ],
      [
        "▁desperate",
        -10.289139095775296
      ],
      [
        "▁James",
        -10.289498078313715
      ],
      [
        "▁event",
        -10.289603063661357
      ],
      [
        "▁neither",
        -10.289659399013768
      ],
      [
        "▁incredible",
        -10.28995370827165
      ],
      [
        "▁capable",
        -10.290013774840865
      ],
      [
        "▁alone,",
        -10.290079004896057
      ],
      [
        "▁screwed",
        -10.290944155358808
      ],
      [
        "ang",
        -10.291126979534319
      ],
      [
        "▁whoever",
        -10.291223574081478
      ],
      [
        ".-You",
        -10.292359072969226
      ],
      [
        "▁project",
        -10.292690577627607
      ],
      [
        "▁finger",
        -10.293099448602558
      ],
      [
        "▁yourself,",
        -10.293464099732718
      ],
      [
        "▁plan.I",
        -10.29404311059401
      ],
      [
        "▁us.",
        -10.29466181585671
      ],
      [
        "▁trees",
        -10.295020005008112
      ],
      [
        "ge",
        -10.295426613683826
      ],
      [
        "▁BE",
        -10.29572225942206
      ],
      [
        "▁site",
        -10.297167983710628
      ],
      [
        "▁ears",
        -10.29849865906173
      ],
      [
        "Until",
        -10.298732450567602
      ],
      [
        ".Has",
        -10.299012368865801
      ],
      [
        "▁wrong,",
        -10.299601928540644
      ],
      [
        "▁settle",
        -10.30082230383951
      ],
      [
        "▁opened",
        -10.301048592356215
      ],
      [
        "▁dumb",
        -10.301742704373423
      ],
      [
        ".Really",
        -10.30186695265969
      ],
      [
        "-year-old",
        -10.301883238119878
      ],
      [
        "▁journey",
        -10.302005043324066
      ],
      [
        "▁romantic",
        -10.302005963194269
      ],
      [
        "▁insane",
        -10.302018676697216
      ],
      [
        "▁DNA",
        -10.30202084369682
      ],
      [
        "▁progress",
        -10.30205707289532
      ],
      [
        "▁dating",
        -10.30206010631076
      ],
      [
        "▁War",
        -10.302148826222215
      ],
      [
        "▁back.I",
        -10.302205751273068
      ],
      [
        "▁handsome",
        -10.30244008332895
      ],
      [
        "ish",
        -10.303120302621547
      ],
      [
        "▁monster",
        -10.304670141731771
      ],
      [
        "▁burned",
        -10.304734660417832
      ],
      [
        "▁ticket",
        -10.305391034842813
      ],
      [
        "▁guy,",
        -10.305788193696854
      ],
      [
        ".Everybody",
        -10.305871822617428
      ],
      [
        "▁demand",
        -10.306200652608531
      ],
      [
        "ts",
        -10.306356688125518
      ],
      [
        "▁I-I",
        -10.306386292066168
      ],
      [
        "▁farm",
        -10.306582138362755
      ],
      [
        "▁charges",
        -10.306773838074449
      ],
      [
        "▁going?Where",
        -10.307314571639456
      ],
      [
        "L",
        -10.307539613742993
      ],
      [
        "▁soldier",
        -10.307556859997417
      ],
      [
        "▁scare",
        -10.309518215411554
      ],
      [
        "!Why",
        -10.30987483167167
      ],
      [
        "/",
        -10.31108259861061
      ],
      [
        "Maybe",
        -10.311541329852938
      ],
      [
        "▁exist",
        -10.311595986166797
      ],
      [
        "▁Was",
        -10.3116481730498
      ],
      [
        "▁On",
        -10.312126515611439
      ],
      [
        "▁FOR",
        -10.313098514363183
      ],
      [
        "▁White",
        -10.313408143275563
      ],
      [
        "▁assume",
        -10.31352282882166
      ],
      [
        "▁bright",
        -10.313695604303728
      ],
      [
        "▁freak",
        -10.313977152296678
      ],
      [
        "▁storm",
        -10.314213619576364
      ],
      [
        "▁snow",
        -10.314470774111788
      ],
      [
        "▁Alex",
        -10.314660443007707
      ],
      [
        "▁tiny",
        -10.314677708249716
      ],
      [
        "▁stomach",
        -10.314678151868527
      ],
      [
        "▁treatment",
        -10.31478260411695
      ],
      [
        "▁according",
        -10.314795065888049
      ],
      [
        "▁knowing",
        -10.3149140560989
      ],
      [
        "▁Harry",
        -10.314965519653725
      ],
      [
        "▁manager",
        -10.315144122200268
      ],
      [
        "▁request",
        -10.316114413555681
      ],
      [
        "▁that?I",
        -10.318171893167385
      ],
      [
        "▁crowd",
        -10.3182562315876
      ],
      [
        "in't",
        -10.319965542769355
      ],
      [
        "▁ear",
        -10.320470837235714
      ],
      [
        "▁grade",
        -10.321277970999923
      ],
      [
        "▁sweetheart",
        -10.32230848432928
      ],
      [
        "▁includ",
        -10.324665220519169
      ],
      [
        "▁trade",
        -10.326344293250582
      ],
      [
        "▁advantage",
        -10.327163270891532
      ],
      [
        "▁Chief",
        -10.327163306020356
      ],
      [
        "▁responsibility",
        -10.327163438616052
      ],
      [
        "▁Street",
        -10.327347367794907
      ],
      [
        "▁Danny",
        -10.327370049714023
      ],
      [
        "▁Stop",
        -10.327894792701077
      ],
      [
        "ell",
        -10.328021547552591
      ],
      [
        "li",
        -10.328365506867899
      ],
      [
        "▁toilet",
        -10.328546804063262
      ],
      [
        "▁disappeared",
        -10.32863156033548
      ],
      [
        "▁bedroom",
        -10.32946082559894
      ],
      [
        "▁bill",
        -10.330050914801033
      ],
      [
        "W",
        -10.33029009823029
      ],
      [
        "▁fate",
        -10.33034030603744
      ],
      [
        "▁mean?What",
        -10.330777480126844
      ],
      [
        "▁14",
        -10.330835842998567
      ],
      [
        "▁concern",
        -10.331109541476783
      ],
      [
        "1",
        -10.331970089147264
      ],
      [
        "▁19",
        -10.332323460195106
      ],
      [
        "Probably",
        -10.332541504049358
      ],
      [
        "▁honey,",
        -10.334961387028475
      ],
      [
        "sh",
        -10.335880535949645
      ],
      [
        "ok",
        -10.33624948608406
      ],
      [
        "▁KNOW",
        -10.336495451682232
      ],
      [
        "▁9",
        -10.336627345811685
      ],
      [
        "▁pig",
        -10.337503979421799
      ],
      [
        "▁Black",
        -10.338749614224968
      ],
      [
        ".More",
        -10.339017907906499
      ],
      [
        "▁airport",
        -10.339279572556066
      ],
      [
        ".About",
        -10.339412959402505
      ],
      [
        "▁exact",
        -10.339445375259132
      ],
      [
        "▁ok",
        -10.339956720025409
      ],
      [
        "▁unit",
        -10.340041960443536
      ],
      [
        "▁gentleman",
        -10.340065115156044
      ],
      [
        "▁England",
        -10.340089292139613
      ],
      [
        "da",
        -10.340178595565025
      ],
      [
        "▁Give",
        -10.340376190801972
      ],
      [
        "▁24",
        -10.34054194197751
      ],
      [
        "▁alright",
        -10.34071922296862
      ],
      [
        "▁revenge",
        -10.340866269899578
      ],
      [
        "▁that?-",
        -10.34158000842056
      ],
      [
        "▁enter",
        -10.342011316079228
      ],
      [
        "You'll",
        -10.342490198025358
      ],
      [
        "un",
        -10.34250797980204
      ],
      [
        "▁again.",
        -10.3430087840688
      ],
      [
        "▁source",
        -10.34308032583393
      ],
      [
        "▁her.-",
        -10.34339010348395
      ],
      [
        "ah",
        -10.343789504790786
      ],
      [
        "▁base",
        -10.344237973185331
      ],
      [
        "We've",
        -10.3447038720483
      ],
      [
        "▁tonight,",
        -10.344974562621694
      ],
      [
        "▁files",
        -10.345959984114828
      ],
      [
        "▁off,",
        -10.346409727452194
      ],
      [
        "▁eggs",
        -10.346533539470961
      ],
      [
        "so",
        -10.346651435418623
      ],
      [
        "▁*",
        -10.348375540170816
      ],
      [
        "?See",
        -10.34864469684175
      ],
      [
        "▁suck",
        -10.348921003846534
      ],
      [
        "▁badly",
        -10.349148083979841
      ],
      [
        "▁him.You",
        -10.34916093983547
      ],
      [
        ".Next",
        -10.35010965560902
      ],
      [
        "▁pro",
        -10.350577425398853
      ],
      [
        "▁up!",
        -10.351429467653322
      ],
      [
        "▁physical",
        -10.352097395528368
      ],
      [
        "▁buying",
        -10.352534838730787
      ],
      [
        "be",
        -10.352652429914862
      ],
      [
        "▁Santa",
        -10.353206648662582
      ],
      [
        "▁General",
        -10.35327646322702
      ],
      [
        ".Unless",
        -10.353394128834049
      ],
      [
        "age",
        -10.355182635030078
      ],
      [
        "ni",
        -10.355874257835406
      ],
      [
        ".Honey",
        -10.356358476056656
      ],
      [
        "▁stealing",
        -10.356967911303236
      ],
      [
        "▁man.I",
        -10.357419062396332
      ],
      [
        "▁period",
        -10.357574415118766
      ],
      [
        "▁sooner",
        -10.357631051040936
      ],
      [
        "▁appears",
        -10.357735528747808
      ],
      [
        "▁brother,",
        -10.357933804335518
      ],
      [
        "▁night.-",
        -10.358037439999757
      ],
      [
        "▁goin'",
        -10.358408851608072
      ],
      [
        "▁Bill",
        -10.358700410919663
      ],
      [
        "▁hurts",
        -10.359315166321561
      ],
      [
        "▁toast",
        -10.359778850620618
      ],
      [
        "way",
        -10.360519526790688
      ],
      [
        "▁go.",
        -10.360611273969688
      ],
      [
        "▁sat",
        -10.3610825497353
      ],
      [
        "▁lately",
        -10.36267232714294
      ],
      [
        "▁woods",
        -10.362678839803493
      ],
      [
        ".Sound",
        -10.362986266168232
      ],
      [
        "▁prepare",
        -10.365141709113807
      ],
      [
        "▁school,",
        -10.366236360510456
      ],
      [
        "ped",
        -10.366248038499666
      ],
      [
        "▁weather",
        -10.366277607537489
      ],
      [
        "▁lonely",
        -10.366358318983625
      ],
      [
        "▁gods",
        -10.367179483117145
      ],
      [
        "▁Nice",
        -10.367369334146828
      ],
      [
        "▁border",
        -10.367498247015202
      ],
      [
        "▁Ah",
        -10.367927075018052
      ],
      [
        "▁ruined",
        -10.368147125122427
      ],
      [
        "▁hall",
        -10.368285996290293
      ],
      [
        "▁faster",
        -10.368371397035354
      ],
      [
        "▁wound",
        -10.368732114264889
      ],
      [
        "▁caused",
        -10.369139072275146
      ],
      [
        "▁\"The",
        -10.369247752000007
      ],
      [
        "▁secrets",
        -10.370101597200016
      ],
      [
        "▁opening",
        -10.370844792420762
      ],
      [
        "▁male",
        -10.371907183003934
      ],
      [
        "▁days,",
        -10.371989984215364
      ],
      [
        "e,",
        -10.372119621154434
      ],
      [
        "▁beg",
        -10.374256017610117
      ],
      [
        "Mrs.",
        -10.374372172030583
      ],
      [
        "▁singing",
        -10.374494597187631
      ],
      [
        "▁Sarah",
        -10.375028905245447
      ],
      [
        "ier",
        -10.375444326983946
      ],
      [
        "▁crash",
        -10.375541609877654
      ],
      [
        ".\"And",
        -10.376535979975236
      ],
      [
        "▁climb",
        -10.377139728864226
      ],
      [
        ".Okay",
        -10.377647935191597
      ],
      [
        "You've",
        -10.378807209974706
      ],
      [
        "▁success",
        -10.379292632867557
      ],
      [
        "▁pal",
        -10.379331036131111
      ],
      [
        "▁split",
        -10.379371264999758
      ],
      [
        "▁wide",
        -10.379395059501187
      ],
      [
        "▁enemies",
        -10.379462027279065
      ],
      [
        "▁ashamed",
        -10.379463832640827
      ],
      [
        "▁potential",
        -10.379467511089278
      ],
      [
        "▁devil",
        -10.379625889116097
      ],
      [
        "▁nights",
        -10.379730302448195
      ],
      [
        "When",
        -10.380934647693845
      ],
      [
        "▁block",
        -10.382446687828637
      ],
      [
        "▁students",
        -10.382481059798149
      ],
      [
        "▁affair",
        -10.382662071645054
      ],
      [
        "▁offered",
        -10.383547584232875
      ],
      [
        "▁odd",
        -10.386333401063796
      ],
      [
        "▁falling",
        -10.386950767754282
      ],
      [
        "ol",
        -10.387286275748298
      ],
      [
        "▁this.",
        -10.38853799029172
      ],
      [
        "▁relax",
        -10.388875069067069
      ],
      [
        "o,",
        -10.389368276702953
      ],
      [
        ".Great",
        -10.389407682239455
      ],
      [
        "▁personally",
        -10.3916372227615
      ],
      [
        "▁plant",
        -10.39186190110095
      ],
      [
        "▁now.You",
        -10.391900813443957
      ],
      [
        "▁time.-",
        -10.39251323068381
      ],
      [
        "▁sexual",
        -10.392658734258276
      ],
      [
        "▁disappear",
        -10.392705313370808
      ],
      [
        "▁loss",
        -10.392902161986804
      ],
      [
        "▁flat",
        -10.392940811333167
      ],
      [
        "▁buried",
        -10.392977679748238
      ],
      [
        "▁British",
        -10.393045063712323
      ],
      [
        "▁dozen",
        -10.393518497823086
      ],
      [
        "▁waited",
        -10.394125244141314
      ],
      [
        "for",
        -10.394237138725275
      ],
      [
        "▁released",
        -10.394360074062996
      ],
      [
        "▁language",
        -10.394714865799495
      ],
      [
        "▁considered",
        -10.395743095171357
      ],
      [
        "▁Re",
        -10.397671749370987
      ],
      [
        "▁followed",
        -10.397839800035412
      ],
      [
        "▁8",
        -10.39800650846614
      ],
      [
        "?Go",
        -10.398328237686659
      ],
      [
        "▁listen,",
        -10.398712997020983
      ],
      [
        "▁again.I",
        -10.398878451734532
      ],
      [
        "of",
        -10.399204468506031
      ],
      [
        "ring",
        -10.399519797522057
      ],
      [
        ".Right,",
        -10.399881689799056
      ],
      [
        "▁page",
        -10.40005227144821
      ],
      [
        "▁good.-",
        -10.400322423094368
      ],
      [
        "▁ate",
        -10.400786344938423
      ],
      [
        "ha",
        -10.401148789043368
      ],
      [
        "▁character",
        -10.401207997728884
      ],
      [
        "▁theory",
        -10.40128561742894
      ],
      [
        "▁shame",
        -10.401764828230451
      ],
      [
        "▁sees",
        -10.402825485294429
      ],
      [
        "▁here?I",
        -10.403489450529312
      ],
      [
        "▁medicine",
        -10.404670955019196
      ],
      [
        "▁exchange",
        -10.405594901962314
      ],
      [
        "▁convince",
        -10.405675079334113
      ],
      [
        "▁photos",
        -10.405765249961437
      ],
      [
        "?His",
        -10.406167950247525
      ],
      [
        "▁understood",
        -10.406514410510638
      ],
      [
        "▁trash",
        -10.406683586828015
      ],
      [
        "▁laid",
        -10.406691267614463
      ],
      [
        "▁fancy",
        -10.406697085485117
      ],
      [
        "▁trapped",
        -10.406708268267149
      ],
      [
        "▁forgotten",
        -10.406720208544693
      ],
      [
        "▁dump",
        -10.406761761389696
      ],
      [
        "▁confused",
        -10.40692893068009
      ],
      [
        "▁i'm",
        -10.407722846953437
      ],
      [
        "s.The",
        -10.408093183764048
      ],
      [
        "▁fan",
        -10.408680957188182
      ],
      [
        "▁tear",
        -10.409412901699676
      ],
      [
        "just",
        -10.409569294530113
      ],
      [
        "▁pocket",
        -10.41076669023786
      ],
      [
        "▁covered",
        -10.411254926646226
      ],
      [
        "▁Big",
        -10.413021007715919
      ],
      [
        "▁saving",
        -10.413202081461396
      ],
      [
        "?Like",
        -10.41332962154268
      ],
      [
        "▁led",
        -10.414170193436924
      ],
      [
        "▁appointment",
        -10.414252146002482
      ],
      [
        "U",
        -10.414321755458273
      ],
      [
        ".Their",
        -10.41521203796414
      ],
      [
        "▁this?",
        -10.415350791905505
      ],
      [
        "▁finds",
        -10.41539510713676
      ],
      [
        "▁thousands",
        -10.415572118926995
      ],
      [
        "▁season",
        -10.41586217045727
      ],
      [
        "Trust",
        -10.417366894721859
      ],
      [
        "▁model",
        -10.417457459587965
      ],
      [
        "▁cast",
        -10.41964034130881
      ],
      [
        "▁particular",
        -10.420071180988742
      ],
      [
        "▁bite",
        -10.420289317354246
      ],
      [
        "▁woke",
        -10.420311472943268
      ],
      [
        "▁soft",
        -10.420503845063784
      ],
      [
        "▁eventually",
        -10.420563096717427
      ],
      [
        "▁dancing",
        -10.420565178046267
      ],
      [
        "▁staff",
        -10.420675609518643
      ],
      [
        "one",
        -10.420724665530471
      ],
      [
        "▁WITH",
        -10.420764768765196
      ],
      [
        "▁lord",
        -10.420820702848527
      ],
      [
        "▁Colonel",
        -10.420863422435803
      ],
      [
        "▁DON'T",
        -10.420878532419579
      ],
      [
        "▁lab",
        -10.421711267698079
      ],
      [
        "▁bath",
        -10.421868991420892
      ],
      [
        "▁style",
        -10.421908202736372
      ],
      [
        "▁Two",
        -10.421930463148737
      ],
      [
        "▁raised",
        -10.422130340710165
      ],
      [
        ".Except",
        -10.422310194029922
      ],
      [
        "▁okay.",
        -10.42240797889632
      ],
      [
        "▁below",
        -10.422505361989572
      ],
      [
        ".Today",
        -10.42261789206665
      ],
      [
        "▁stronger",
        -10.422944148887666
      ],
      [
        "▁way.",
        -10.423430745019333
      ],
      [
        "▁up.-",
        -10.424112842666633
      ],
      [
        "▁reached",
        -10.424342115565437
      ],
      [
        "▁rescue",
        -10.424776046262066
      ],
      [
        "▁yet,",
        -10.425206886738072
      ],
      [
        "▁you.Thank",
        -10.426183265362909
      ],
      [
        "▁statement",
        -10.426670486932561
      ],
      [
        "▁trace",
        -10.428401486164535
      ],
      [
        "Shut",
        -10.428592266955786
      ],
      [
        ".Without",
        -10.429068174054237
      ],
      [
        "▁DO",
        -10.42918348740671
      ],
      [
        "▁right?You",
        -10.429547052479835
      ],
      [
        "▁yeah.",
        -10.429754088090863
      ],
      [
        "She's",
        -10.429802649258148
      ],
      [
        ".Miss",
        -10.430035228032985
      ],
      [
        "▁laughing",
        -10.430681516082284
      ],
      [
        "▁lift",
        -10.431032066795781
      ],
      [
        ".Well...",
        -10.431610064911723
      ],
      [
        "▁cases",
        -10.431905220511586
      ],
      [
        "▁repeat",
        -10.433000013663868
      ],
      [
        ".Bring",
        -10.433201376993821
      ],
      [
        "▁heaven",
        -10.43346951608195
      ],
      [
        "▁divorce",
        -10.433767041952203
      ],
      [
        "▁East",
        -10.433775655511079
      ],
      [
        "V",
        -10.434314703619282
      ],
      [
        "▁brilliant",
        -10.434647565544372
      ],
      [
        "▁presence",
        -10.434647593807533
      ],
      [
        "▁WAS",
        -10.43464759650735
      ],
      [
        "▁stood",
        -10.434651122141492
      ],
      [
        "▁familiar",
        -10.43469945421199
      ],
      [
        "▁pot",
        -10.435212624158826
      ],
      [
        "▁grown",
        -10.435499105192159
      ],
      [
        "▁disease",
        -10.436078120047327
      ],
      [
        "▁showing",
        -10.436176452949919
      ],
      [
        "▁pissed",
        -10.436627602216632
      ],
      [
        "▁health",
        -10.436647556625962
      ],
      [
        "▁mentioned",
        -10.437828659495999
      ],
      [
        "▁coat",
        -10.437832469103043
      ],
      [
        "!Just",
        -10.441118847898782
      ],
      [
        "▁marks",
        -10.441366549459236
      ],
      [
        "▁noise",
        -10.441447303857384
      ],
      [
        ".Time",
        -10.44242799776017
      ],
      [
        "▁tickets",
        -10.445207092315949
      ],
      [
        "▁awake",
        -10.447640339339884
      ],
      [
        "▁player",
        -10.447924675439463
      ],
      [
        "per",
        -10.448021749421649
      ],
      [
        "▁opinion",
        -10.448157876788049
      ],
      [
        ".Check",
        -10.448308887353537
      ],
      [
        "▁society",
        -10.448933309174745
      ],
      [
        "▁drove",
        -10.4489345489671
      ],
      [
        "▁goodbye",
        -10.4489382645239
      ],
      [
        "▁boring",
        -10.448940598760444
      ],
      [
        "▁coach",
        -10.448948362050874
      ],
      [
        "▁babe",
        -10.448953341858696
      ],
      [
        "▁usual",
        -10.44910752780855
      ],
      [
        "▁Jimmy",
        -10.449182362606539
      ],
      [
        "▁Richard",
        -10.44930491540182
      ],
      [
        "▁World",
        -10.449416832755315
      ],
      [
        "▁factory",
        -10.449422305561077
      ],
      [
        "▁France",
        -10.449427482257644
      ],
      [
        "▁YOUR",
        -10.451228154034478
      ],
      [
        "▁cameras",
        -10.451374416062972
      ],
      [
        "▁tie",
        -10.451444585883028
      ],
      [
        "▁Tony",
        -10.452080405482405
      ],
      [
        "▁issues",
        -10.452227021562493
      ],
      [
        "▁dressed",
        -10.452490966960632
      ],
      [
        "▁gate",
        -10.45280109467525
      ],
      [
        ".She'll",
        -10.454807579621718
      ],
      [
        "▁incident",
        -10.454820740304534
      ],
      [
        ".Wait",
        -10.455193402119546
      ],
      [
        "▁task",
        -10.455247843504676
      ],
      [
        "▁result",
        -10.455534982528352
      ],
      [
        "ld",
        -10.455953918048085
      ],
      [
        "▁true,",
        -10.456033424657175
      ],
      [
        "▁signed",
        -10.456281534454337
      ],
      [
        "▁results",
        -10.45677230691425
      ],
      [
        "ow",
        -10.456803909507308
      ],
      [
        "▁16",
        -10.45709564316984
      ],
      [
        "▁that?What",
        -10.457289262552687
      ],
      [
        "▁name,",
        -10.457303986105849
      ],
      [
        "▁murderer",
        -10.457834566230602
      ],
      [
        "▁bone",
        -10.458749471391148
      ],
      [
        "?♪",
        -10.459439397172542
      ],
      [
        "▁Park",
        -10.460230091475848
      ],
      [
        ".Man,",
        -10.460682346364024
      ],
      [
        "▁regular",
        -10.462229911135928
      ],
      [
        "▁mail",
        -10.463191314713427
      ],
      [
        "▁Bo",
        -10.463411926073391
      ],
      [
        "▁good.",
        -10.463855450656512
      ],
      [
        "▁swim",
        -10.463948458811771
      ],
      [
        "s.And",
        -10.464155535820073
      ],
      [
        "▁Ray",
        -10.464535101067106
      ],
      [
        "▁based",
        -10.46455334442802
      ],
      [
        "?I'd",
        -10.464753652602926
      ],
      [
        "ler",
        -10.465578430664843
      ],
      [
        "lo",
        -10.46732934978338
      ],
      [
        "▁nor",
        -10.46748164039817
      ],
      [
        "▁stock",
        -10.468031009159326
      ],
      [
        "▁carrying",
        -10.46817283632365
      ],
      [
        "▁nuts",
        -10.46910232682739
      ],
      [
        "▁forces",
        -10.46914501268408
      ],
      [
        "▁IS",
        -10.469318898699992
      ],
      [
        "?At",
        -10.470247728955743
      ],
      [
        "▁Russian",
        -10.470671796491835
      ],
      [
        "▁trap",
        -10.47132811824552
      ],
      [
        "▁puts",
        -10.471980607476832
      ],
      [
        ".Whil",
        -10.47218817877732
      ],
      [
        "▁car,",
        -10.472626157012066
      ],
      [
        ".you",
        -10.473373629048822
      ],
      [
        "▁pure",
        -10.473748475398867
      ],
      [
        "▁poison",
        -10.474143549666982
      ],
      [
        "From",
        -10.474340531757905
      ],
      [
        "ism",
        -10.474710383132736
      ],
      [
        "▁25",
        -10.475388520621319
      ],
      [
        "▁runs",
        -10.47544624864047
      ],
      [
        ".Most",
        -10.47616580500165
      ],
      [
        "▁punch",
        -10.47628807158338
      ],
      [
        "▁attitude",
        -10.478131915119818
      ],
      [
        "▁fortune",
        -10.478132589506753
      ],
      [
        "▁assistant",
        -10.478148357324923
      ],
      [
        "▁nurse",
        -10.47821534443392
      ],
      [
        "▁football",
        -10.478238191605197
      ],
      [
        "▁dis",
        -10.478422838450811
      ],
      [
        "▁protection",
        -10.478499948406878
      ],
      [
        "▁setting",
        -10.478908158249876
      ],
      [
        "▁cancer",
        -10.478947865783299
      ],
      [
        "...No",
        -10.47922591017399
      ],
      [
        "...That's",
        -10.479781467723896
      ],
      [
        "▁becoming",
        -10.479821293237677
      ],
      [
        "▁butt",
        -10.480428236846134
      ],
      [
        "▁say?What",
        -10.480663583158787
      ],
      [
        "▁breathing",
        -10.481495849355474
      ],
      [
        "▁former",
        -10.482125218045319
      ],
      [
        ".Show",
        -10.482195636232563
      ],
      [
        "dy",
        -10.4831287498526
      ],
      [
        "▁changes",
        -10.483360086515447
      ],
      [
        "ba",
        -10.483571978966536
      ],
      [
        "▁professional",
        -10.484686566433243
      ],
      [
        "▁member",
        -10.484998136070452
      ],
      [
        ".Try",
        -10.485155818792709
      ],
      [
        "▁loud",
        -10.485713395650595
      ],
      [
        "▁Ms.",
        -10.485732552215637
      ],
      [
        "▁image",
        -10.48591839651046
      ],
      [
        "▁huh?I",
        -10.486296138576893
      ],
      [
        "ac",
        -10.486486136684926
      ],
      [
        "▁go.I",
        -10.487160427006916
      ],
      [
        "▁Would",
        -10.487455497986645
      ],
      [
        "▁ships",
        -10.488464505786375
      ],
      [
        "▁alarm",
        -10.488882768609315
      ],
      [
        "▁screw",
        -10.489113866031275
      ],
      [
        "ca",
        -10.48961592027704
      ],
      [
        "▁whom",
        -10.489616272387828
      ],
      [
        "▁confirm",
        -10.491407365883124
      ],
      [
        ".Guess",
        -10.491714486208673
      ],
      [
        ".Guys",
        -10.49233816716185
      ],
      [
        "▁positive",
        -10.492414148315572
      ],
      [
        "▁U.S.",
        -10.492747460861917
      ],
      [
        "▁false",
        -10.493057284588271
      ],
      [
        "▁tongue",
        -10.493062643263027
      ],
      [
        "▁hidden",
        -10.493071972693564
      ],
      [
        "Once",
        -10.49307199101856
      ],
      [
        "▁technology",
        -10.493084299107913
      ],
      [
        "▁surface",
        -10.493132254086676
      ],
      [
        "▁changing",
        -10.493139824754408
      ],
      [
        "▁Chinese",
        -10.493231200422391
      ],
      [
        "Who",
        -10.49331193458482
      ],
      [
        "▁clock",
        -10.49337978849765
      ],
      [
        "▁doctors",
        -10.494939309631427
      ],
      [
        "▁him?",
        -10.496419832354317
      ],
      [
        "grew",
        -10.497627558864066
      ],
      [
        "ate",
        -10.498428050921525
      ],
      [
        "▁father,",
        -10.498548935218667
      ],
      [
        "▁appear",
        -10.49856639837578
      ],
      [
        "▁it.And",
        -10.498861463723905
      ],
      [
        "ja",
        -10.499881369900734
      ],
      [
        ".Listen",
        -10.500376239937548
      ],
      [
        "'II",
        -10.500562844937669
      ],
      [
        "▁stone",
        -10.501406641090071
      ],
      [
        "▁whore",
        -10.501620071518584
      ],
      [
        "▁chest",
        -10.502146320491896
      ],
      [
        "There",
        -10.503824094319834
      ],
      [
        "▁switch",
        -10.504066165251423
      ],
      [
        "▁watched",
        -10.504528291180387
      ],
      [
        "LL",
        -10.504580948865467
      ],
      [
        "...So",
        -10.50500408783049
      ],
      [
        "▁fine.",
        -10.506538479083895
      ],
      [
        "?With",
        -10.507049884335423
      ],
      [
        "▁cheap",
        -10.507580736883604
      ],
      [
        "▁cheese",
        -10.508204264498183
      ],
      [
        "▁yourselves",
        -10.508208862760952
      ],
      [
        "▁y'all",
        -10.508211076760276
      ],
      [
        "▁data",
        -10.508247114707185
      ],
      [
        "7",
        -10.508430301904177
      ],
      [
        "▁brave",
        -10.508516863949522
      ],
      [
        "▁dead,",
        -10.50891618484592
      ],
      [
        "▁sand",
        -10.508966498408142
      ],
      [
        "▁defense",
        -10.509234160827527
      ],
      [
        "▁tied",
        -10.509619916971918
      ],
      [
        "▁saying,",
        -10.510595418945535
      ],
      [
        "!Good",
        -10.510712116867744
      ],
      [
        "▁birds",
        -10.510792067457796
      ],
      [
        "--I",
        -10.511420111398662
      ],
      [
        "▁Could",
        -10.51200804090442
      ],
      [
        "▁Ha",
        -10.512325546370656
      ],
      [
        "▁pills",
        -10.512808405055125
      ],
      [
        "▁again.-",
        -10.513250304066936
      ],
      [
        "▁Jane",
        -10.513260596149284
      ],
      [
        "▁brother's",
        -10.513429060649134
      ],
      [
        "▁Great",
        -10.513875497640054
      ],
      [
        "lin",
        -10.514144376847266
      ],
      [
        ".Still",
        -10.514665554249238
      ],
      [
        "F",
        -10.514741417333886
      ],
      [
        "▁harder",
        -10.514786547732346
      ],
      [
        "▁plate",
        -10.515045944356691
      ],
      [
        "▁forest",
        -10.515164737654995
      ],
      [
        "▁pop",
        -10.515958713659682
      ],
      [
        "▁God.",
        -10.517124647747107
      ],
      [
        "▁that?How",
        -10.517440866635448
      ],
      [
        ".Open",
        -10.518406121632644
      ],
      [
        ".Back",
        -10.519480074369348
      ],
      [
        "▁mood",
        -10.519540065279429
      ],
      [
        "co",
        -10.51985477541049
      ],
      [
        "?We've",
        -10.520089795400365
      ],
      [
        "▁tour",
        -10.521064789737075
      ],
      [
        "▁guards",
        -10.521193639766537
      ],
      [
        "▁mind,",
        -10.521527925156892
      ],
      [
        "▁Dr",
        -10.521703886262923
      ],
      [
        "▁warn",
        -10.522211140003133
      ],
      [
        "?Our",
        -10.522290003062771
      ],
      [
        "▁reports",
        -10.522494778472472
      ],
      [
        "▁celebrate",
        -10.52255298420438
      ],
      [
        "▁remove",
        -10.522945120745685
      ],
      [
        "▁hug",
        -10.523280077725055
      ],
      [
        "▁faces",
        -10.523308846404712
      ],
      [
        "▁custody",
        -10.523593418377324
      ],
      [
        "▁fantastic",
        -10.523593418948398
      ],
      [
        "▁easily",
        -10.523593539619478
      ],
      [
        "▁memories",
        -10.523595061874317
      ],
      [
        "▁Minister",
        -10.523600519853648
      ],
      [
        "▁shopping",
        -10.52368905613926
      ],
      [
        "▁safety",
        -10.523810844724947
      ],
      [
        "▁CIA",
        -10.523816134035595
      ],
      [
        "▁national",
        -10.523919192445362
      ],
      [
        "▁Lieutenant",
        -10.524052613478137
      ],
      [
        "▁available",
        -10.524061942434393
      ],
      [
        "▁MY",
        -10.524324794430537
      ],
      [
        "ki",
        -10.524873484036345
      ],
      [
        "▁Her",
        -10.526144562748238
      ],
      [
        "▁firm",
        -10.526940312909861
      ],
      [
        "▁Jim",
        -10.527103851040483
      ],
      [
        "Good",
        -10.527160971417768
      ],
      [
        "▁text",
        -10.52744611667348
      ],
      [
        "▁Got",
        -10.52758608357672
      ],
      [
        "▁skills",
        -10.527648790350133
      ],
      [
        "▁her.",
        -10.527856722602374
      ],
      [
        "▁growing",
        -10.52791019290072
      ],
      [
        "▁detail",
        -10.528739977924893
      ],
      [
        "ti",
        -10.528903957636887
      ],
      [
        "▁patients",
        -10.529288064586135
      ],
      [
        "▁claim",
        -10.52943884253576
      ],
      [
        "▁attorney",
        -10.529634836187752
      ],
      [
        "▁Yes.",
        -10.52990828892273
      ],
      [
        "▁hook",
        -10.530146266350762
      ],
      [
        "▁cares",
        -10.531147098651566
      ],
      [
        "?Yeah.",
        -10.531237120057419
      ],
      [
        "▁vision",
        -10.531270322666536
      ],
      [
        "▁route",
        -10.531424941595954
      ],
      [
        "▁13",
        -10.53164966263489
      ],
      [
        "▁perform",
        -10.532237904889389
      ],
      [
        "▁effect",
        -10.53227985994457
      ],
      [
        "▁Bye",
        -10.53271726329044
      ],
      [
        "▁moment,",
        -10.532770758693008
      ],
      [
        "▁jobs",
        -10.533243402024132
      ],
      [
        "▁events",
        -10.534782607214895
      ],
      [
        "ley",
        -10.535395491961724
      ],
      [
        "...\"",
        -10.535580734532157
      ],
      [
        "▁range",
        -10.537477653611084
      ],
      [
        "▁borrow",
        -10.537639116581193
      ],
      [
        ".Yes.",
        -10.538123322000642
      ],
      [
        "▁mental",
        -10.538670677817292
      ],
      [
        "▁hire",
        -10.538881858018831
      ],
      [
        "▁license",
        -10.539218550917008
      ],
      [
        "▁violence",
        -10.539219118869328
      ],
      [
        "▁permission",
        -10.539224322725042
      ],
      [
        "▁garage",
        -10.539228850331838
      ],
      [
        "▁extremely",
        -10.539484585125862
      ],
      [
        "▁here...",
        -10.540017627443978
      ],
      [
        "▁cutting",
        -10.540038134022037
      ],
      [
        "▁obvious",
        -10.540047577759585
      ],
      [
        "▁eh",
        -10.540278593264599
      ],
      [
        "▁mark",
        -10.540453428301156
      ],
      [
        "▁babies",
        -10.54046965409573
      ],
      [
        "▁someone's",
        -10.540498122644893
      ],
      [
        "▁managed",
        -10.54054933225423
      ],
      [
        "▁healthy",
        -10.540760318534833
      ],
      [
        "▁Hold",
        -10.540926094080897
      ],
      [
        "▁honestly",
        -10.541122541921704
      ],
      [
        "▁wife,",
        -10.541154639022405
      ],
      [
        "▁Billy",
        -10.541222983949424
      ],
      [
        "les",
[...]
