{
  "version": "1.0",
  "truncation": null,
  "padding": null,
  "added_tokens": [
    {
      "id": 0,
      "content": "<cls>",
      "single_word": false,
      "lstrip": false,
      "rstrip": false,
      "normalized": false,
      "special": true
    },
    {
      "id": 1,
      "content": "<sep>",
      "single_word": false,
      "lstrip": false,
      "rstrip": false,
      "normalized": false,
      "special": true
    },
    {
      "id": 2,
      "content": "<unk>",
      "single_word": false,
      "lstrip": false,
      "rstrip": false,
      "normalized": false,
      "special": true
    },
    {
      "id": 3,
      "content": "<pad>",
      "single_word": false,
      "lstrip": false,
      "rstrip": false,
      "normalized": false,
      "special": true
    },
    {
      "id": 4,
      "content": "<mask>",
      "single_word": false,
      "lstrip": false,
      "rstrip": false,
      "normalized": false,
      "special": true
    },
    {
      "id": 5,
      "content": "<s>",
      "single_word": false,
      "lstrip": false,
      "rstrip": false,
      "normalized": false,
      "special": true
    },
    {
      "id": 6,
      "content": "</s>",
      "single_word": false,
      "lstrip": false,
      "rstrip": false,
      "normalized": false,
      "special": true
    }
  ],
  "normalizer": {
    "type": "Sequence",
    "normalizers": [
      {
        "type": "Replace",
        "pattern": {
          "String": "``"
        },
        "content": "\""
      },
      {
        "type": "Replace",
        "pattern": {
          "String": "''"
        },
        "content": "\""
      },
      {
        "type": "NFKD"
      },
      {
        "type": "StripAccents"
      },
      {
        "type": "Replace",
        "pattern": {
          "Regex": " {2,}"
        },
        "content": " "
      }
    ]
  },
  "pre_tokenizer": {
    "type": "Metaspace",
    "replacement": "▁",
    "prepend_scheme": "always",
    "split": true
  },
  "post_processor": {
    "type": "TemplateProcessing",
    "single": [
      {
        "Sequence": {
          "id": "A",
          "type_id": 0
        }
      },
      {
        "SpecialToken": {
          "id": "<sep>",
          "type_id": 0
        }
      },
      {
        "SpecialToken": {
          "id": "<cls>",
          "type_id": 2
        }
      }
    ],
    "pair": [
      {
        "Sequence": {
          "id": "A",
          "type_id": 0
        }
      },
      {
        "SpecialToken": {
          "id": "<sep>",
          "type_id": 0
        }
      },
      {
        "Sequence": {
          "id": "B",
          "type_id": 1
        }
      },
      {
        "SpecialToken": {
          "id": "<sep>",
          "type_id": 1
        }
      },
      {
        "SpecialToken": {
          "id": "<cls>",
          "type_id": 2
        }
      }
    ],
    "special_tokens": {
      "<cls>": {
        "id": "<cls>",
        "ids": [
          0
        ],
        "tokens": [
          "<cls>"
        ]
      },
      "<sep>": {
        "id": "<sep>",
        "ids": [
          1
        ],
        "tokens": [
          "<sep>"
        ]
      }
    }
  },
  "decoder": {
    "type": "Metaspace",
    "replacement": "▁",
    "prepend_scheme": "always",
    "split": true
  },
  "model": {
    "type": "Unigram",
    "unk_id": 2,
    "vocab": [
      [
        "<cls>",
        0.0
      ],
      [
        "<sep>",
        0.0
      ],
      [
        "<unk>",
        0.0
      ],
      [
        "<pad>",
        0.0
      ],
      [
        "<mask>",
        0.0
      ],
      [
        "<s>",
        0.0
      ],
      [
        "</s>",
        0.0
      ],
      [
        "■",
        -3.795356918267416
      ],
      [
        "▁",
        -4.140607796307039
      ],
      [
        "▵",
        -4.357789371948606
      ],
      [
        "▦",
        -4.67300564979633
      ],
      [
        "▁◀◗◓",
        -4.803247181318451
      ],
      [
        "▁◀◫◓",
        -4.810449212462828
      ],
      [
        "▵►",
        -4.997611546973591
      ],
      [
        "◠",
        -5.30105033563804
      ],
      [
        "▁◎◬?▶◠◎◠◎",
        -5.339583466851227
      ],
      [
        "◪",
        -5.450738114628017
      ],
      [
        "▴",
        -5.50090618995697
      ],
      [
        "◫",
        -5.502412157132872
      ],
      [
        "◗",
        -5.547144247324033
      ],
      [
        "▨",
        -5.58587451721853
      ],
      [
        "◎",
        -5.63569161767178
      ],
      [
        "▵▵▵",
        -5.701855928588548
      ],
      [
        "▁◈◠",
        -5.712008990981653
      ],
      [
        "►",
        -5.7346970423630435
      ],
      [
        "▁◚▴",
        -5.738613602359099
      ],
      [
        "▁◚◪",
        -5.7560041367151005
      ],
      [
        "?",
        -5.8214383908495915
      ],
      [
        "!",
        -5.843555187137168
      ],
      [
        "▱◠◓",
        -5.956213059272239
      ],
      [
        "▁◚◠◓",
        -5.960225356459388
      ],
      [
        "▁▨◠◈◠◓",
        -5.964596408314145
      ],
      [
        "▁◀◨",
        -5.97458057859699
      ],
      [
        "▁◀▾",
        -5.982143422669784
      ],
      [
        "▁◈◠▷◠",
        -5.992150382491106
      ],
      [
        "▁◈◪",
        -6.000592977136277
      ],
      [
        "▁◈▴",
        -6.019957999148739
      ],
      [
        "▁◠◎◠",
        -6.023164118989358
      ],
      [
        "◈◠",
        -6.164702839394929
      ],
      [
        "▁▦◪",
        -6.215967127186001
      ],
      [
        "▁▦▴",
        -6.231605113278638
      ],
      [
        "▪",
        -6.283436858036218
      ],
      [
        "◬",
        -6.350248299927975
      ],
      [
        "▱◠",
        -6.356457275581143
      ],
      [
        "▁▢◠◎◠▦",
        -6.382705545454517
      ],
      [
        "▫",
        -6.390053457257645
      ],
      [
        "▁◉◂▨",
        -6.398143055026608
      ],
      [
        "▁◉◧▨",
        -6.398807804082416
      ],
      [
        "◈◪",
        -6.40407867100317
      ],
      [
        "◈▴",
        -6.404510302737805
      ],
      [
        "▁◗◉◗▦",
        -6.47129122710977
      ],
      [
        "▁◫◉◗▦",
        -6.487878125866617
      ],
      [
        "▁◀◠▦◠",
        -6.500161145179456
      ],
      [
        "▁◗◉◫▦",
        -6.512392430987694
      ],
      [
        "▁◫◉◫▦",
        -6.5248679269693675
      ],
      [
        "▱◪◓",
        -6.536721796517078
      ],
      [
        "◈◠▦",
        -6.5393973921063
      ],
      [
        "▱▴◓",
        -6.552627909263775
      ],
      [
        "◳◠",
        -6.584160458040181
      ],
      [
        "◈▴▦",
        -6.606105600892418
      ],
      [
        "◳",
        -6.606683784977012
      ],
      [
        "▱▴",
        -6.629147690696008
      ],
      [
        "▁◂",
        -6.6310382444768114
      ],
      [
        "▁◧",
        -6.6440849996073705
      ],
      [
        "▽◠",
        -6.6544760930040905
      ],
      [
        "◓",
        -6.655079690009771
      ],
      [
        "\"",
        -6.660440374323621
      ],
      [
        "◫▦",
        -6.664238041838378
      ],
      [
        "◈◪▦",
        -6.6777345457132276
      ],
      [
        "▢",
        -6.681085167542659
      ],
      [
        "▁►",
        -6.68741816442603
      ],
      [
        "▱",
        -6.692015573232537
      ],
      [
        "▦◠",
        -6.716268487600407
      ],
      [
        "▱◪",
        -6.7173322471520365
      ],
      [
        "▵◝◨",
        -6.719328198692688
      ],
      [
        "◗▦",
        -6.753784578522449
      ],
      [
        "▽",
        -6.754901293680347
      ],
      [
        "▵◝▾",
        -6.766146866372229
      ],
      [
        "◎◠",
        -6.77314998877202
      ],
      [
        "▱◫",
        -6.81344418735192
      ],
      [
        "◞",
        -6.840791398679387
      ],
      [
        "◞◫",
        -6.88321593578678
      ],
      [
        "▁◒◪▽",
        -6.885124425794349
      ],
      [
        "▁◒◪◳",
        -6.88720038234939
      ],
      [
        "▱◗",
        -6.892611811277044
      ],
      [
        "▱◠◓◬",
        -6.89320433414262
      ],
      [
        "◞◗",
        -6.90119833819423
      ],
      [
        "▱◠◓▪",
        -6.917165570662389
      ],
      [
        "▁◞◠▦◠",
        -6.921466265203537
      ],
      [
        "◠▦",
        -6.939363413571442
      ],
      [
        "▁◒▴▽",
        -6.940419376609097
      ],
      [
        "◨",
        -6.943863950746638
      ],
      [
        "?►",
        -6.956684267496263
      ],
      [
        "▁◀◪▦",
        -6.9810450682623095
      ],
      [
        "▁◎◫",
        -6.991637573459146
      ],
      [
        "▁◒▴◳",
        -6.994864843505473
      ],
      [
        "◥▢◕◭▦◭◎▵◥▢◕◭▦◭◎▵",
        -7.005906615962343
      ],
      [
        "◬▦",
        -7.035952028741889
      ],
      [
        "▁◀▴▦",
        -7.036391852341744
      ],
      [
        "▁◈◪◐◫▱",
        -7.042395426224322
      ],
      [
        "▻",
        -7.054719695089126
      ],
      [
        "▁◎◗",
        -7.067856386422924
      ],
      [
        "▾",
        -7.068989646095795
      ],
      [
        "▁◎▪?",
        -7.084530640949428
      ],
      [
        "▁◎◬?",
        -7.102412151078606
      ],
      [
        "▁◎◗?",
        -7.105891124678552
      ],
      [
        "▁◎◫?",
        -7.1375021427291365
      ],
      [
        "◪▦",
        -7.147229081543035
      ],
      [
        "▯◪",
        -7.162106117424254
      ],
      [
        "▁\"",
        -7.1649316529606235
      ],
      [
        "▪▦",
        -7.171855248333718
      ],
      [
        "▴▦",
        -7.187323185289862
      ],
      [
        "▁◈▴◐◫▱",
        -7.190865728554938
      ],
      [
        "▁◎◬",
        -7.196500980693131
      ],
      [
        "▵\"",
        -7.210062136553559
      ],
      [
        "▁◍◠▢▱◠",
        -7.226125653270017
      ],
      [
        "▁◈▴◐◗▱",
        -7.229946613714308
      ],
      [
        "▁◈◪◐◗▱",
        -7.246323738460277
      ],
      [
        "▁▷▴◓",
        -7.252103833501663
      ],
      [
        "▁◎▪",
        -7.255435049694626
      ],
      [
        "▵◝◗◓",
        -7.259499588518188
      ],
      [
        "▁▷◪◓",
        -7.272875530305017
      ],
      [
        "▁◀◠◒▨◠",
        -7.275392450956328
      ],
      [
        "▱◬",
        -7.2782811197330535
      ],
      [
        "▁◞◪▦",
        -7.283876418569433
      ],
      [
        "▵◝◫◓",
        -7.285715575303456
      ],
      [
        "◎◠▨",
        -7.2910160090888905
      ],
      [
        "▁◞▴▦",
        -7.30517053753955
      ],
      [
        "▱▪",
        -7.320502305886959
      ],
      [
        "▾◎",
        -7.334020117485343
      ],
      [
        "◎◪",
        -7.340583521403732
      ],
      [
        "◫◎",
        -7.341906666727678
      ],
      [
        "◈◫",
        -7.3443932456811
      ],
      [
        "▨◫",
        -7.347058660865833
      ],
      [
        "▵◱",
        -7.347844218633281
      ],
      [
        "▫◠",
        -7.351537243214244
      ],
      [
        "▨◗",
        -7.359892024500107
      ],
      [
        "▁◠◈◠◎",
        -7.371505204152034
      ],
      [
        "◈◗",
        -7.373940508419563
      ],
      [
        "▼◠",
        -7.3790401881586645
      ],
      [
        "▁◕◫◀◫",
        -7.379454222902533
      ],
      [
        "◞▪",
        -7.382156779295954
      ],
      [
        "◗◎",
        -7.38658508002581
      ],
      [
        "▁◕◗◀◗",
        -7.388101636948185
      ],
      [
        "▁◚◠◓▵",
        -7.389509988006813
      ],
      [
        "!►",
        -7.38982195074567
      ],
      [
        "▁▦◠◞◬▱",
        -7.389967253153787
      ],
      [
        "◞◠",
        -7.391647813079029
      ],
      [
        "◨◎",
        -7.400024689041719
      ],
      [
        "◞◬",
        -7.400366531508557
      ],
      [
        "▵▿",
        -7.406239918414854
      ],
      [
        "▁▨◗",
        -7.423522124157012
      ],
      [
        "▁▦◠◞▪▱",
        -7.424604117335416
      ],
      [
        "▁▷◗◉",
        -7.430162802962449
      ],
      [
        "▁▨◫",
        -7.4356105609853085
      ],
      [
        "◎▴",
        -7.442421522054587
      ],
      [
        "▁◞◧▦◓◠",
        -7.454096521572432
      ],
      [
        "'",
        -7.459802637149799
      ],
      [
        "▁◕◫◀◗",
        -7.461475988120983
      ],
      [
        "◒",
        -7.461523116405303
      ],
      [
        "◝◗▱◎◗▽◧◓◨◎▵",
        -7.465729588103327
      ],
      [
        "▁◕◗◀◫",
        -7.466304528247197
      ],
      [
        "◎▴▨",
        -7.476168574904383
      ],
      [
        "▁◳◠",
        -7.4992381912474935
      ],
      [
        "▁▷◫◉",
        -7.501140390106827
      ],
      [
        "▁◚◪◓",
        -7.502015077663721
      ],
      [
        "▼▴",
        -7.511333461201711
      ],
      [
        "▁◀◠▨",
        -7.525330783488666
      ],
      [
        "▁◀▾◓◠◈◠",
        -7.527175954690769
      ],
      [
        "▁◀◨◓◠◈◠",
        -7.530628301967315
      ],
      [
        "▁◪▦",
        -7.5413449514516975
      ],
      [
        "◎◪▨",
        -7.546152933238811
      ],
      [
        "▵◝◪▦",
        -7.5470480378513844
      ],
      [
        "◳▴",
        -7.5523598936172815
      ],
      [
        "▱◪◓◫",
        -7.553341498684186
      ],
      [
        "▱▴◓◫",
        -7.553547353936821
      ],
      [
        "▁◚▴◓",
        -7.562834975900672
      ],
      [
        "▁◞◂▦◓◠",
        -7.563031283556703
      ],
      [
        "▁▴▦",
        -7.570277286837535
      ],
      [
        "▱▴◓◗",
        -7.5705397125300555
      ],
      [
        "▁▽◠",
        -7.583792247409053
      ],
      [
        "▁▫◠◎◠◎",
        -7.594306326343745
      ],
      [
        "▼◪",
        -7.597995055117666
      ],
      [
        "◨▢",
        -7.616147028012022
      ],
      [
        "▁◠▦",
        -7.624812906595279
      ],
      [
        "▾▢",
        -7.626955756188075
      ],
      [
        "▁◠▱",
        -7.627218661659599
      ],
      [
        "▽◪",
        -7.627646407922046
      ],
      [
        "▵◝▴▦",
        -7.628520693492762
      ],
      [
        "◳◪",
        -7.6294725525675595
      ],
      [
        "▽▴",
        -7.635470418831101
      ],
      [
        "◂",
        -7.64137957076316
      ],
      [
        "▱◫▨",
        -7.644929416519038
      ],
      [
        "▁▨◠◉",
        -7.6451658091455785
      ],
      [
        "▵◦◎◠",
        -7.645618020489212
      ],
      [
        "▦▪▦",
        -7.649320299922634
      ],
      [
        "▁◂▱◠▦",
        -7.6517193781873285
      ],
      [
        "▱◪◓◗",
        -7.662079348226274
      ],
      [
        "▩",
        -7.6627984052242715
      ],
      [
        "▫◠▦",
        -7.663676478974752
      ],
      [
        "◭",
        -7.674468150125418
      ],
      [
        "▁◧▱◠◓◠▨",
        -7.674547890087541
      ],
      [
        "▦◬▦",
        -7.678680763903019
      ],
      [
        "▁◧▱◞◨▦",
        -7.680255259351342
      ],
      [
        "◞▾▦",
        -7.6811744372183215
      ],
      [
        "◗▢",
        -7.691304836881926
      ],
      [
        "▁▻◠◓◠",
        -7.693691391973332
      ],
      [
        "◍",
        -7.69815570932329
      ],
      [
        "▁◂▱◠◓◠▨",
        -7.700453341364352
      ],
      [
        "◞◨▦",
        -7.704028214617649
      ],
      [
        "▴◓",
        -7.710173225126179
      ],
      [
        "▵○◎◠",
        -7.711750987486885
      ],
      [
        "◞◗▦",
        -7.714415806541229
      ],
      [
        "▁◝▾",
        -7.715300845310727
      ],
      [
        "◫▢",
        -7.718148101574686
      ],
      [
        "▵▯▴",
        -7.719351858543619
      ],
      [
        "▵◝◠▦◠",
        -7.719993445604367
      ],
      [
        "▫▴",
        -7.723070638519757
      ],
      [
        "▫◪",
        -7.7243658497017345
      ],
      [
        "▱◠◓◠",
        -7.732430462830653
      ],
      [
        "▦◪",
        -7.733291083028294
      ],
      [
        "◉",
        -7.736325379006793
      ],
      [
        "▦▴",
        -7.739128181640436
      ],
      [
        "▱◬▨",
        -7.74309395374334
      ],
      [
        "◧",
        -7.74328111850032
      ],
      [
        "▁◧▱◠▦",
        -7.745553466590644
      ],
      [
        "▦◫▦",
        -7.750771372396318
      ],
      [
        "▷",
        -7.765550572952583
      ],
      [
        "▁◕◭▦",
        -7.77471429711804
      ],
      [
        "▱◗▨",
        -7.77723357350046
      ],
      [
        "▁◝◨",
        -7.7815853942240905
      ],
      [
        "◠▼◠▨",
        -7.78217458308994
      ],
      [
        "◕",
        -7.783350772609481
      ],
      [
        "▁◕▩▦",
        -7.788280251611467
      ],
      [
        "▵▵",
        -7.788978679605539
      ],
      [
        "▁◞◠◠▫",
        -7.7978758784452324
      ],
      [
        "▁◀◫◓◠▢",
        -7.800847127969376
      ],
      [
        "▁▯▴",
        -7.804581026288333
      ],
      [
        "▁◕▴▱",
        -7.81092770887986
      ],
      [
        "▁◠◓◠",
        -7.818087404280422
      ],
      [
        "'◠",
        -7.821916688563992
      ],
      [
        "▁◀◗◓◠▢",
        -7.825205807863583
      ],
      [
        "▱▪▨",
        -7.828125225372778
      ],
      [
        "▦◫",
        -7.838170630502033
      ],
      [
        "◈",
        -7.838247998404877
      ],
      [
        "◪◓",
        -7.83950766792355
      ],
      [
        "▵▲◠▦▴▫",
        -7.84577207664541
      ],
      [
        "◞◠▦",
        -7.84717068801137
      ],
      [
        "▵▯◪",
        -7.848440409750083
      ],
      [
        "▦◗",
        -7.851267445068234
      ],
      [
        "▁◒▾",
        -7.851540761643613
      ],
      [
        "◝◨",
        -7.864348555364586
      ],
      [
        "▁◒◨",
        -7.865218793464205
      ],
      [
        "◞◫▦",
        -7.866136664201041
      ],
      [
        "▦◗▦",
        -7.867659384274249
      ],
      [
        "▵▮◠▦◠",
        -7.877740956023876
      ],
      [
        "▁▫◪▨",
        -7.8777656257190465
      ],
      [
        "◎◫◒",
        -7.896060234795415
      ],
      [
        "◞◪",
        -7.897010500720869
      ],
      [
        "◎▪◒",
        -7.901725341636952
      ],
      [
        "◎◗◒",
        -7.905735361263898
      ],
      [
        "◝▾",
        -7.907247477456809
      ],
      [
        "▁▫▴▨",
        -7.912434714732331
      ],
      [
        "◞▴",
        -7.91632066551891
      ],
      [
        "▁◳◧▨",
        -7.925628668101836
      ],
      [
        "▁▫◠◎",
        -7.928758137140741
      ],
      [
        "▁▽◠▻",
        -7.935424639747605
      ],
      [
        "▵◅◂▨",
        -7.9389476278537385
      ],
      [
        "▁▽◂▨",
        -7.947401182028438
      ],
      [
        "◎◬◒",
        -7.949294389494766
      ],
      [
        "▦▪",
        -7.952739474577797
      ],
      [
        "▁◪▫",
        -7.958942396236169
      ],
      [
        "▁◳◂▨",
        -7.961101405001337
      ],
      [
        "▁◀◪▦◗◎",
        -7.9620566934528805
      ],
      [
        "▁▽◧▨",
        -7.965531592673213
      ],
      [
        "◈◫◓",
        -7.966151793119295
      ],
      [
        "◈◬",
        -7.968765505335808
      ],
      [
        "◈▪",
        -7.974129370416682
      ],
      [
        "▁◣▦▼◪",
        -7.974825777885239
      ],
      [
        "▁▵▵▵",
        -7.976241041217194
      ],
      [
        "▁◱",
        -7.976896229120704
      ],
      [
        "▁▨◠▱",
        -7.980710724593005
      ],
      [
        "◠◓",
        -7.989669563201657
      ],
      [
        "◳▪",
        -7.991077176130598
      ],
      [
        "▵◑◪",
        -7.99804554085984
      ],
      [
        "◫◓",
        -8.001838417867106
      ],
      [
        "◈◗◓",
        -8.003872216521856
      ],
      [
        "▁◫◳◗",
        -8.006413088140398
      ],
      [
        "▁◇▦▼▴",
        -8.016888531062765
      ],
      [
        "▁◧▦◨",
        -8.0183977226616
      ],
      [
        "▦◬",
        -8.020674568753293
      ],
      [
        "▵◑▴",
        -8.021748622995965
      ],
      [
        "▱◠◓▪▦",
        -8.023257636455519
      ],
      [
        "▁◗◳◫",
        -8.024277794527734
      ],
      [
        "▁▴▫",
        -8.025052605696763
      ],
      [
        "◈◨",
        -8.02534145829916
      ],
      [
        "◈▾",
        -8.026560252621564
      ],
      [
        "▁◫▽◫",
        -8.027906530941884
      ],
      [
        "▁◀▴▦◫◎",
        -8.028276575654822
      ],
      [
        "▽▪",
        -8.028876437986584
      ],
      [
        "▁▷◠◍▫◠",
        -8.031272130105556
      ],
      [
        "▁◂▦◨",
        -8.031776122300194
      ],
      [
        "▁◗▽◫",
        -8.037263068710374
      ],
      [
        "▱◠◓◬▦",
        -8.04928802945652
      ],
      [
        "▁◂▦◠",
        -8.05111628045768
      ],
      [
        "▁◀◪▦◫",
        -8.05200861725731
      ],
      [
        "▁◀◫▱▴",
        -8.055571036457014
      ],
      [
        "◗◓",
        -8.055776418688101
      ],
      [
        "▁◕◪▱",
        -8.05716198488199
      ],
      [
        "▁◣▦▼▴",
        -8.058680578774696
      ],
      [
        "▁◀◪▦◫◎",
        -8.059022274399894
      ],
      [
        "▁◳◠▻",
        -8.05998931764076
      ],
      [
        "◨▦",
        -8.062927462514512
      ],
      [
        "▦◈◠▦",
        -8.063992250177197
      ],
      [
        "▁◗◒",
        -8.06407164433208
      ],
      [
        "▁◇▦▼◪",
        -8.065062827021244
      ],
      [
        "◳◬",
        -8.067251334092699
      ],
      [
        "▁◠▦◈◠",
        -8.073838793943935
      ],
      [
        "▁◀▴▦◗◎",
        -8.073861477538328
      ],
      [
        "▁◀◗▱◪",
        -8.077281724637073
      ],
      [
        "▾▦",
        -8.080054883804863
      ],
      [
        "▁◀◪▦◗",
        -8.080673422447632
      ],
      [
        "▁▨▪▢",
        -8.080797153513938
      ],
      [
        "▁▿",
        -8.08156220413953
      ],
      [
        "▁◀▴▦◗",
        -8.082922626630424
      ],
      [
        "▁◀◗▱▴",
        -8.082997325103012
      ],
      [
        "▁▯◪",
        -8.083085700767759
      ],
      [
        "▵▮▴▦",
        -8.085010813911182
      ],
      [
        "▁◠◉",
        -8.092382360564702
      ],
      [
        "▁◧▦◠",
        -8.095299888798348
      ],
      [
        "'◗▦",
        -8.097567204747067
      ],
      [
        ":",
        -8.097787524338775
      ],
      [
        "▁◠◞▱◠",
        -8.098209608226027
      ],
      [
        "▁◧▦▾",
        -8.098562299549219
      ],
      [
        "▁◠▢",
        -8.101903041082092
      ],
      [
        "▁◫◒",
        -8.103593818275025
      ],
      [
        "▁◀▴▦◫",
        -8.103920727653264
      ],
      [
        "▁◫▽◗",
        -8.105751426628048
      ],
      [
        "▵▮◪▦",
        -8.10786469489316
      ],
      [
        "◞▪▦",
        -8.111127104504801
      ],
      [
        "▵◅◧▨",
        -8.113021697709325
      ],
      [
        "▁◗▽◗",
        -8.115424171105646
      ],
      [
        "▁◗◳◗",
        -8.11691079594925
      ],
      [
        "◬▢",
        -8.122578307391052
      ],
      [
        "▁◫◳◫",
        -8.123488959778264
      ],
      [
        "▁◂▦▾",
        -8.124012604695109
      ],
      [
        "▽◬",
        -8.127927654861967
      ],
      [
        "▁◀◬◓◠▨",
        -8.128031707358199
      ],
      [
        "▯▴",
        -8.133809880735068
      ],
      [
        "▫◗",
        -8.13854833335679
      ],
      [
        "▁◞▴▦◗",
        -8.141860495539717
      ],
      [
        "▁▨◬▢",
        -8.146835524108987
      ],
      [
        "▁◞▴▦◫",
        -8.14870567161253
      ],
      [
        "'◈◠",
        -8.151780291757937
      ],
      [
        "▁◀◫▱◪",
        -8.152103550994788
      ],
      [
        "◎◗",
        -8.152263161620752
      ],
      [
        "▁◀◨▦◨",
        -8.155104788679928
      ],
      [
        "▪◓",
        -8.15581318972722
      ],
      [
        "◎◫",
        -8.162721870959864
      ],
      [
        "▁▷◠▨▨◬▦◈◠",
        -8.164316918310005
      ],
      [
        "'▪▦",
        -8.170255216008112
      ],
      [
        "▱◠◓▵",
        -8.173127915501258
      ],
      [
        "▿",
        -8.174506088385428
      ],
      [
        "▁◀▾▦◨",
        -8.174773864344939
      ],
      [
        "▁◕▴◉",
        -8.176465533839998
      ],
      [
        "▁◝◗◓",
        -8.179051567986445
      ],
      [
        "▵◙◠▷◠",
        -8.180497913354216
      ],
      [
        "▁◎▾",
        -8.184790140215433
      ],
      [
        "◱",
        -8.18515149027106
      ],
      [
        "◞◬▦",
        -8.187515555406225
      ],
      [
        "▁◀◨▦▾",
        -8.188014117885203
      ],
      [
        "▁◀▾▦▾",
        -8.188658599959485
      ],
      [
        "▁▷◠▱◠",
        -8.189042607208059
      ],
      [
        "▁▨◗◎",
        -8.191136129480746
      ],
      [
        "▁▨◫◎",
        -8.191156984576939
      ],
      [
        "◈◬◓",
        -8.196193122766152
      ],
      [
        "▪◎",
        -8.198573545623844
      ],
      [
        "▁◠◓▫◬▨",
        -8.19945988394284
      ],
      [
        "◈▪◓",
        -8.201761474116214
      ],
      [
        "▁▮",
        -8.21402835149447
      ],
      [
        "▁◂▱",
        -8.214599611677846
      ],
      [
        "'◫▦",
        -8.216461603241104
      ],
      [
        "▁◞◪▦◫",
        -8.216511686324047
      ],
      [
        "▁◕◪◉",
        -8.217336651631179
      ],
      [
        "▁◞◂▦",
        -8.218846129596612
      ],
      [
        "▁◝◫◓",
        -8.220726790803806
      ],
      [
        "▫◪▦",
        -8.221348648419404
      ],
      [
        "▁◠◓▫▪▨",
        -8.221451240979505
      ],
      [
        "▁▨◠◓◠◓",
        -8.22194996811232
      ],
      [
        "◳◗",
        -8.222686277543879
      ],
      [
        "▁▷◠▨▨▪▦◈◠",
        -8.22444324329145
      ],
      [
        "'◬▦",
        -8.227063788033522
      ],
      [
        "▁◀▪◓◠▨",
        -8.228366691471273
      ],
      [
        "◎◠◳◠",
        -8.229876625865554
      ],
      [
        "▱◠▦",
        -8.23190551542696
      ],
      [
        "▁◢",
        -8.23246361396217
      ],
      [
        "▁◞◪▦◫▦",
        -8.23352188418747
      ],
      [
        "▱◠◓◈◠▦",
        -8.234476590308745
      ],
      [
        "◬◎",
        -8.238433380385077
      ],
      [
        "▁◍◠▱◠▦",
        -8.23880638426677
      ],
      [
        "◠▱",
        -8.239389886704043
      ],
      [
        "◈◫◎",
        -8.239584096728354
      ],
      [
        "◫▱",
        -8.24187182308017
      ],
      [
        "▽◫",
        -8.24223983641521
      ],
      [
        "▫◫",
        -8.243760655200353
      ],
      [
        "▨▴▦",
        -8.245439233529725
      ],
      [
        "▁◎◨?",
        -8.250364297684271
      ],
      [
        "▱◨",
        -8.251272725213603
      ],
      [
        "▁◧▱◠▼◠▨",
        -8.251963721612531
      ],
      [
        "▁◞◪▦◗▦",
        -8.25536765349742
      ],
      [
        "▁◎◨",
        -8.255620689994817
      ],
      [
        "◀",
        -8.25570376207499
      ],
      [
        "◬◓",
        -8.256123649972485
      ],
      [
        "◎◠▦",
        -8.25825290136024
      ],
      [
        "◞◫▢",
        -8.261177632542372
      ],
      [
        "▁◞◪▦◗",
        -8.262523586080679
      ],
      [
        "▁◎▾◞◨▦?",
        -8.263196047951638
      ],
      [
        "◚",
        -8.266692891186306
      ],
      [
        "▼",
        -8.267829146217144
      ],
      [
        "▁◞▴▦◗▦",
        -8.271460814118319
      ],
      [
        "▁◉▪▨◠◓",
        -8.272587667011246
      ],
      [
        "◗▻",
        -8.27899189381576
      ],
      [
        "▦◈◠",
        -8.28871251180118
      ],
      [
        "▵▭▴◓",
        -8.290693523490642
      ],
      [
        "▁◞◧▦",
        -8.293446943532278
      ],
      [
        "▁◂▱◠▼◠▨",
        -8.295971253359337
      ],
      [
        "▁◈◇▦",
        -8.296264850045729
      ],
      [
        "◳◫",
        -8.297279847021835
      ],
      [
        "◎◠▽◠",
        -8.299447987080349
      ],
      [
        "◝◫◓",
        -8.305727416354763
      ],
      [
        "▵▵▵►",
        -8.308693018839286
      ],
      [
        "◫▦◫",
        -8.309906112892913
      ],
      [
        "▁▨◠◓◒◬",
        -8.311727129987322
      ],
      [
        "◪▫",
        -8.315428072225021
      ],
      [
        "▽◗",
        -8.315448970191596
      ],
      [
        "▵◝",
        -8.323382252225807
      ],
      [
        "▁▫◭◎",
        -8.324009370787167
      ],
      [
        "◗▦◗",
        -8.32691907291214
      ],
      [
        "◈▾◎",
        -8.32712517650207
      ],
      [
        "▼◗",
        -8.33178555608788
      ],
      [
        "▁▨◠◓◒▪",
        -8.332108496751015
      ],
      [
        "▁◠◓◠◀◠",
        -8.332496487695009
      ],
      [
        "◞◗▢",
        -8.334102868205985
      ],
      [
        "▽▱◠",
        -8.334503083646371
      ],
      [
        "◈◨◎",
        -8.335329796205519
      ],
      [
        "▁◕▩▢◪▱",
        -8.344811179005
      ],
      [
        "◎◨◒",
        -8.345437642046178
      ],
      [
        "▁◞▴▦◫▦",
        -8.347162384556363
      ],
      [
        "▴▼◪▨",
        -8.347547229339435
      ],
      [
        "▁◠▫",
        -8.352744489178427
      ],
      [
        "▨◪▦",
        -8.353435630829543
      ],
      [
        "◗▱",
        -8.36036906215703
      ],
      [
        "▁◝▴▦",
        -8.362237989568458
      ],
      [
        "▼◬",
        -8.364973782861234
      ],
      [
        "◙◠▷◠",
        -8.367959713360277
      ],
      [
        "▪▢",
        -8.368794867814845
      ],
      [
        "▱▾",
        -8.369638826464682
      ],
      [
        "▁◀◗▢",
        -8.374583079926392
      ],
      [
        "▁◎▾?",
        -8.374657146792273
      ],
      [
        "◪▼◪▨",
        -8.375997844877409
      ],
      [
        "▁◂▱◎◠▨",
        -8.376398626967081
      ],
      [
        "▾◎▵",
        -8.377929292992008
      ],
      [
        "▵▮",
        -8.379381453437334
      ],
      [
        "▫◬",
        -8.380340890757697
      ],
      [
        "▁◧▱◎◠▨",
        -8.381032728013132
      ],
      [
        "▱◠◓▱◠",
        -8.382972277540492
      ],
      [
        "▁◞◠◈◪▼▴",
        -8.390030756426782
      ],
      [
        "▁◉◬▨◠◓",
        -8.392696409864438
      ],
      [
        "◗▦◫",
        -8.395895343497997
      ],
      [
        "▁▫▩◎",
        -8.397175153634135
      ],
      [
        "◫▦◗",
        -8.397618179226374
      ],
      [
        "▁◞◠◈◪▼◪",
        -8.397696906745864
      ],
      [
        "◬▻",
        -8.39809944645247
      ],
      [
        "▁◀◫◓◗",
        -8.399098964380205
      ],
      [
        "▁◠▦▱◠▫",
        -8.399201973257338
      ],
      [
        "▱◠◓◬▦▪",
        -8.400405539354487
      ],
      [
        "◎▾◒",
        -8.401295808534911
      ],
      [
        "▁◝◫▱◎◗◳◂◓▾◎▵",
        -8.401947985817898
      ],
      [
        "▁◕▴◓◫",
        -8.403434869592793
      ],
      [
        "▁◗▱▨",
        -8.406851303156808
      ],
      [
        "▫▴▦",
        -8.412744602862283
      ],
      [
        "▁◠▨◒◠◎",
        -8.412987844255657
      ],
      [
        "▁◳◠◓◈▪◎",
        -8.416843578876563
      ],
      [
        "◝◗◓",
        -8.418449060021533
      ],
      [
        "▁◕◭▢▴▱",
        -8.419016853163605
      ],
      [
        "▵▭◪◓",
        -8.419104416741934
      ],
      [
        "▁◕▩▢▴▱",
        -8.419462928932091
      ],
      [
        "▁◈◣▦",
        -8.41956021267679
      ],
      [
        "▁◕◪◓◫",
        -8.420423970337481
      ],
      [
        "◎▪",
        -8.426565628076162
      ],
      [
        "▁◕▴◓◗",
        -8.426694772792528
      ],
      [
        "▁◀◠◀◠",
        -8.43149797847046
      ],
      [
        "◞◨▦?",
        -8.431987715295062
      ],
      [
        "▁◂◓◠◈◠",
        -8.436485583681467
      ],
      [
        "▁◫▱▨",
        -8.4370274707529
      ],
      [
        "▁◈◂◐◓▾",
        -8.43951963776016
      ],
      [
        "◓◠",
        -8.440051893662183
      ],
      [
        "▁◝◪▦",
        -8.440146958797609
      ],
      [
        "◗▨",
        -8.442944016925711
      ],
      [
        "▵◖◨",
        -8.44441952276577
      ],
      [
        "◳▱◠",
        -8.445639353335459
      ],
      [
        "▁◕◪◓◗",
        -8.446543768859488
      ],
      [
        "▫▪",
        -8.448403278682086
      ],
      [
        "◠▫",
        -8.449627052157641
      ],
      [
        "▁◕◭▢◪▱",
        -8.450354174311668
      ],
      [
        "▴▱",
        -8.458731524215485
      ],
      [
        "◓◪",
        -8.462327749603736
      ],
      [
        "◨◎▵",
        -8.464065260573246
      ],
      [
        "◐",
        -8.467045187001702
      ],
      [
        "▁◀◫▢",
        -8.4678474374379
      ],
      [
        "◈◗◎",
        -8.46942211939194
      ],
      [
        "◈▪◎",
        -8.469676066279607
      ],
      [
        "▁◞◠◈▴▼◪",
        -8.469683134685873
      ],
      [
        "▁▦▴◈◪▦",
        -8.46990375050787
      ],
      [
        "▁◧▱",
        -8.469965961901819
      ],
      [
        "◎◬",
        -8.471409040457171
      ],
      [
        "▼▪",
        -8.473088080470244
      ],
      [
        "▨◠",
        -8.47422412531257
      ],
      [
        "▱◠◓▪▦▪",
        -8.476857430955961
      ],
      [
        "▁◞◠◈▴▼▴",
        -8.477092225442494
      ],
      [
        "▫◗◓",
        -8.482304964577466
      ],
      [
        "▁◫▱▴",
        -8.483313530431204
      ],
      [
        "▁◀◗◓◗",
        -8.484083137388161
      ],
      [
        "▱◠◓◈◠",
        -8.484441188515724
      ],
      [
        "▁○◎◠",
        -8.488848124440473
      ],
      [
        "◪▼▴▨",
        -8.48886301439172
      ],
      [
        "▁◞◠◀◠▷",
        -8.488881152907787
      ],
      [
        "▁▦◪◈◪▦",
        -8.494309674198835
      ],
      [
        "▁◠▱◎◠▨",
        -8.499747977117483
      ],
      [
        "▁◀◗◓◫",
        -8.500561175311676
      ],
      [
        "▁◎◨◞◨▦?",
        -8.501032794288918
      ],
      [
        "▁◈◠▨◫▨◠",
        -8.504550343797877
      ],
      [
        "▫◫◓",
        -8.509652452996331
      ],
      [
        "◙",
        -8.509743934470727
      ],
      [
        "▁◝◠◳",
        -8.511934096624392
      ],
      [
        "▱◠◓◬▦◬",
        -8.513605455124083
      ],
      [
        "▁◀◫◓◫",
        -8.514218383391416
      ],
      [
        "◓▴",
        -8.516250689997149
      ],
      [
        "▴▼▴▨",
        -8.516658131127892
      ],
      [
        "▵◀◗◓",
        -8.517881065604126
      ],
      [
        "▁◈◪◚◠◎",
        -8.518643163518378
      ],
      [
        "▼◫",
        -8.521729782424192
      ],
      [
        "▁◕◗◓",
        -8.52223846736629
      ],
      [
        "▁◗▱▴",
        -8.523136397546649
      ],
      [
        "'◗",
        -8.52400997795165
      ],
      [
        "◀◫◓",
        -8.524136517029095
      ],
      [
        "▵▶◠◎◠◎■",
        -8.525226163415489
      ],
      [
        "▁◧◓◠◈◠",
        -8.52550104296593
      ],
      [
        "▁◕◪◓▴▨",
        -8.526327232312338
      ],
      [
        "▁◦◎◠",
        -8.528611679263257
      ],
      [
        "▁◎◨◞▾▦?",
        -8.532054549233067
      ],
      [
        "▁▦◪◈▴▦",
        -8.532174382162154
      ],
      [
        "▁◈◧◐◓▾",
        -8.534237210806133
      ],
      [
        "▵◦",
        -8.535538595317822
      ],
      [
        "▁◞◇◳▱▴",
        -8.537347064301336
      ],
      [
        "▁◚◠◓▵►",
        -8.538692800353523
      ],
      [
        "◝◪▦",
        -8.54192436187823
      ],
      [
        "▁▢◧◓",
        -8.542241856868609
      ],
      [
        "▁◕◪▼▴",
        -8.546446527584838
      ],
      [
        "▁◫▱◪",
        -8.547731208869017
      ],
      [
        "▾◓",
        -8.548834970455417
      ],
      [
        "▁◕▴▼◪",
        -8.552709993732996
      ],
      [
        "▪▻",
        -8.553137651263189
      ],
      [
        "▁◈◠▨◗▨◠",
        -8.555731493374047
      ],
      [
        "◞▾▦?",
        -8.555991144679592
      ],
      [
        "▱◠◓■",
        -8.55678563382447
      ],
      [
        "▴▫",
        -8.557453221089666
      ],
      [
        "◪▱",
        -8.558038886939364
      ],
      [
        "▁◉◪▨",
        -8.560112918478145
      ],
      [
        "▁◂▱◈◨",
        -8.56457518294419
      ],
      [
        "►►",
        -8.566305116505207
      ],
      [
        "▁◕◪▼◪",
        -8.56632459668068
      ],
      [
        "▁◗▱◪",
        -8.567148302128512
      ],
      [
        "◫▦◪",
        -8.568055430471727
      ],
      [
        "▩▦",
        -8.568576051181168
      ],
      [
        "◫◒",
        -8.56862216384865
      ],
      [
        "▁▨◠◈◬▦",
        -8.569239431455568
      ],
      [
        "▁◧▱◈▾",
        -8.570999442524696
      ],
      [
        "▁◍◠◓▨",
        -8.573327546585125
      ],
      [
        "?◝◨",
        -8.576566796813761
      ],
      [
        "▁◕▴◓◪▨",
        -8.576923330276433
      ],
      [
        "▁◝",
        -8.577296474167259
      ],
      [
        "▱◠◓▪▦◬",
        -8.578152955905505
      ],
      [
        "▁◕▴▼▴",
        -8.578966677850918
      ],
      [
        "◨◓",
        -8.580003101650213
      ],
      [
        "▁◦",
        -8.581464464435175
      ],
      [
        "▁▨▾▱▱◠▦",
        -8.582093972435578
      ],
      [
        "◬▦◠",
        -8.582331628246688
      ],
      [
        "○◎◠",
        -8.582357691348292
      ],
      [
        "▁▽◪◓",
        -8.583355642794627
      ],
      [
        "▁◕◇▢",
        -8.589536494435048
      ],
      [
        "▁◒◗◎◈◗",
        -8.589691570616058
      ],
      [
        "◀◗◓",
        -8.591746915791411
      ],
      [
        "◠◓◠▨",
        -8.594509248859328
      ],
      [
        "◯",
        -8.59484396032273
      ],
      [
        "▁◞◠◚◠◒",
        -8.594864449816178
      ],
      [
        "'▱◠",
        -8.596608392576234
      ],
      [
        "◝",
        -8.597461465471778
      ],
      [
        "▁◳◠▻◬▽◧◓◞◨▦?",
        -8.6042052496935
      ],
      [
        "'◈◠▦",
        -8.60453650642845
      ],
      [
        "▁▫◪▨◓◠◓",
        -8.6071305626503
      ],
      [
        "▁▨◨▱▱◠▦",
        -8.608624829143022
      ],
      [
        "▁▦▴◈▴▦",
        -8.61035636053519
      ],
      [
        "▁◝◠▽",
        -8.612191070235127
      ],
      [
        "▁◞◠◐",
        -8.614299535977645
      ],
      [
        "◝▴▦",
        -8.61448674060744
      ],
      [
        "▁◞◣▽▱◪",
        -8.61871336306277
      ],
      [
        "▁◳◠◓◈◬◎",
        -8.619440176567252
      ],
      [
        "◝◠▦◠",
        -8.62132758469219
      ],
      [
        "◧▦",
        -8.621692153252589
      ],
      [
        "▁▷◠◚◠",
        -8.621746882843972
      ],
      [
        "▁◳◠▻◬▽◧◓◞▾▦?",
        -8.623766844247838
      ],
      [
        "▁◂▱◨◓",
        -8.62650585246265
      ],
      [
        "▁▨◠▦",
        -8.629657507390942
      ],
      [
        "▁▽◠◓◈▪◎",
        -8.634364866813124
      ],
      [
        "▮",
        -8.634661487176277
      ],
      [
        "▁◂▱▾◓",
        -8.636035735480121
      ],
      [
        "◈◗▦",
        -8.637399368292929
      ],
      [
        "▁◕◫◓",
        -8.641827744597856
      ],
      [
        "◭▦",
        -8.642021409702426
      ],
      [
        "▱◠◎◠",
        -8.64294153014185
      ],
      [
        "◫▻",
        -8.643236415766403
      ],
      [
        "▁◳◪◓",
        -8.644155162598176
      ],
      [
        "▁#",
        -8.64473398638978
      ],
      [
        "▁◧▱▾◓",
        -8.647597096295542
      ],
      [
        "'▴",
        -8.647799043941061
      ],
      [
        "◫▨",
        -8.64948625784721
      ],
      [
        "◃",
        -8.652026436326775
      ],
      [
        "▁◫▨◫",
        -8.652306049696033
      ],
      [
        "◗▦▴",
        -8.653796649157478
      ],
      [
        "▁◒◗◎◈◫",
        -8.654914921689826
      ],
      [
        "▁◈▴◚◠◎",
        -8.656881042941311
      ],
      [
        "▁◞◇▢",
        -8.657416994799277
      ],
      [
        "▁▬",
        -8.658078197997927
      ],
      [
        "▁▢◂◓",
        -8.658680405612461
      ],
      [
        "▪▦◬",
        -8.659324103412356
      ],
      [
        "▱▩",
        -8.659999541438806
      ],
      [
        "▁▽◠◓◈◬◎",
        -8.660422205148976
      ],
      [
        "◈◬◎",
        -8.662756750635761
      ],
      [
        "'◫",
        -8.665999954708411
      ],
      [
        "▁◫◉",
        -8.667012427171004
      ],
      [
        "▁◗▨◗",
        -8.667108971421115
      ],
      [
        "▁◒◫◎◈◫",
        -8.667549743730481
      ],
      [
        "▁◎◫◞◫▦?",
        -8.669170437373705
      ],
      [
        "▁◒◫◎◈◗",
        -8.669237244982776
      ],
      [
        "▵◀◫◓",
        -8.669384439636922
      ],
      [
        "?◝▾",
        -8.670362304198687
      ],
      [
        "◓◗",
        -8.673505747706574
      ],
      [
        "◀◠",
        -8.674045022132258
      ],
      [
        "◓◫",
        -8.676098122629902
      ],
      [
        "▁▫▴▨◓◠◓",
        -8.677556435350624
      ],
      [
        "▁◫▦◞◠▦",
        -8.679551445383465
      ],
      [
        "▁◧▱◈◨",
        -8.682113171522634
      ],
      [
        "▁▨◠◈▪▦",
        -8.683610486829437
      ],
      [
        "◞◨",
        -8.68406586557969
      ],
      [
        ";",
        -8.68488011789262
      ],
      [
        "▁◳▴◓",
        -8.686578509907374
      ],
      [
        "▁◠◳",
        -8.686756088511306
      ],
      [
        "▁◎▾◞▾▦?",
        -8.688663405602053
      ],
      [
        "▁▷◠▢▪◓",
        -8.689373584782734
      ],
      [
        "▫▪◓",
        -8.689781775772179
      ],
      [
        "▁◈◂◐◓◨",
        -8.69047815425447
      ],
      [
        "◚▴",
        -8.69064999514696
      ],
      [
        "▁◕◣◓",
        -8.691026955545956
      ],
      [
        "▁◗▦◠▦",
        -8.69531599158055
      ],
      [
        "▁◗◉",
        -8.695643772767331
      ],
      [
        "▮◠▦◠",
        -8.69763451380909
      ],
      [
        "▁◉▴▨",
        -8.698443611185843
      ],
      [
        "◞◠▨",
        -8.698503582732602
      ],
      [
        "◂▦",
        -8.700222478855117
      ],
      [
        "▁◕◪◓◪▨",
        -8.700649282070463
      ],
      [
        "▁◉▪▨",
        -8.7014210417268
      ],
      [
        "▁◕▴◓▴▨",
        -8.70362709371717
      ],
      [
        "▁◧▦◨▦",
        -8.707313716342789
      ],
      [
        "▁◫▨◗",
        -8.709173892476255
      ],
      [
        "▁◕◣▢",
        -8.709929162495747
      ],
      [
        "▁◂▱◈▾",
        -8.710878136257538
      ],
      [
        "▵◢",
        -8.712562524020104
      ],
      [
        "▁◕◇◓◪",
        -8.712885450765087
      ],
      [
        "◈◠▨◫",
        -8.714734853798177
      ],
      [
        "▁▫◠▦▴",
        -8.715143890857307
      ],
      [
        "▁◣▽▱▴",
        -8.715245487681058
      ],
      [
        "◞◗▦◗",
        -8.715716485954124
      ],
      [
        "▁◧▦▾▦",
        -8.715737634662503
      ],
      [
        "◫▦▴",
        -8.71641388632759
      ],
      [
        "◄",
        -8.71820182995697
      ],
      [
        "▦▪▢",
        -8.718202024057597
      ],
      [
        "◞▴▦",
        -8.718640802518962
      ],
      [
        "◢",
        -8.721173655747172
      ],
      [
        "◚◪",
        -8.722069888069168
      ],
      [
        "▁◈◧◐◓◨",
        -8.722439970680105
      ],
      [
        "◠▨",
        -8.723430171648012
      ],
      [
        "◈◠▨◗",
        -8.723466468363636
      ],
      [
        "◞▾",
        -8.725625273948577
      ],
      [
        "◅◧▨",
        -8.725999864378686
      ],
      [
        "▱◭",
        -8.726401190009005
      ],
      [
        "◈◫▦",
        -8.726423004679207
      ],
      [
        "▁◞◣◳▱▴",
        -8.726465291103843
      ],
      [
        "▁◂▦▾▦",
        -8.72835000588855
      ],
      [
        "▁▴▱",
        -8.72913750690283
      ],
      [
        "▁◚◠◓◈▪",
        -8.729305331965381
      ],
      [
        "▁○",
        -8.729689838985484
      ],
      [
        "◞◗▦◫",
        -8.730974600456296
      ],
      [
        "▁◇◳▱▴",
        -8.73101514055609
      ],
      [
        "▁▻▴▨",
        -8.732089242667765
      ],
      [
        "▁◎▪?►",
        -8.73282680363631
      ],
      [
        "▁▢◠◎◠▦◈◠",
        -8.733273514516997
      ],
      [
        "▁◞◣▢",
        -8.740402555579756
      ],
      [
        "▁◧▱◨◓",
        -8.741011424172308
      ],
      [
        "▱◪◓◫▦",
        -8.74159230279513
      ],
      [
        "▁▷a▱a",
        -8.744497106342155
      ],
      [
        "▁◎◗◞◫▦?",
        -8.745008605230575
      ],
      [
        "▱◪◓◗▦",
        -8.745040742441592
      ],
      [
        "▵◝◨▦▾",
        -8.749963956638037
      ],
      [
        "▁▫◠▨",
        -8.752601571247684
      ],
      [
        "▁◂▦◨▦",
        -8.753500220061486
      ],
      [
        "▁▷◫◉◀◗◓",
        -8.754653196424925
      ],
      [
        "▁◎◫?►",
        -8.756799986567172
      ],
      [
        "▁▽▴◓",
        -8.75795452662716
      ],
      [
        "◬▦▪",
        -8.760542346739346
      ],
      [
        "▁◗▦◞◠▦",
        -8.76166489194837
      ],
      [
        "▱◠◓◬▦◠",
        -8.762433109237044
      ],
      [
        "▪▦◠",
        -8.76401485205081
      ],
      [
        "▁◕◣◓▴",
        -8.764297212563651
      ],
      [
        "◎◠◞◬",
        -8.765842024673097
      ],
      [
        "▁◕◣◞▫▴◓",
        -8.767500963324819
      ],
      [
        "▁◕◫▫",
        -8.767655001800042
      ],
      [
        "▵▮◪▦◗",
        -8.7691377726354
      ],
      [
        "▁▨◠▻◠▫",
        -8.769344992971234
      ],
      [
        "▁▨◇▫◭",
        -8.769533216168044
      ],
      [
        "'◪",
        -8.769795196310001
      ],
      [
        "◞▪▦◠",
        -8.770414228301199
      ],
      [
        "▵▭",
        -8.770854102278
      ],
      [
        "◬▦◬",
        -8.771476658141133
      ],
      [
        "▁▽▪▱",
        -8.772382682338279
      ],
      [
        "▁▨◇▫▩",
        -8.773272109870636
      ],
      [
        "▁◞◇▽▱▴",
        -8.774456285798617
      ],
      [
        "▁◞◣◳▱◪",
        -8.774908777408474
      ],
      [
        "◞◫▦◗",
        -8.775015634615887
      ],
      [
        "▁◫▦◠▦",
        -8.775326348958682
      ],
      [
        "▁◎◫◞◗▦?",
        -8.776384435792144
      ],
      [
        "▁◑◪",
        -8.77653278587964
      ],
      [
        "▁▷◠▢◬◓",
        -8.776593197323649
      ],
      [
        "▁◉◠▱◬◒",
        -8.7776044494886
      ],
      [
        "▵◰◚▴▫■",
        -8.781722538428042
      ],
      [
        "◞◬▦◠",
        -8.782775892311264
      ],
      [
        "▁◕◣◓◪",
        -8.784320276172217
      ],
      [
        "'▪",
        -8.785683150738283
      ],
      [
        "▁◀◠▨◠▱▪◎",
        -8.785799452506966
      ],
      [
        "▁◕◇◓▴",
        -8.785812154867703
      ],
      [
        "▁▨◗◒◫",
        -8.790185954635842
      ],
      [
        "▁◪▱",
        -8.790370141041766
      ],
      [
        "◞◠◎",
        -8.791167487028966
      ],
      [
        "▪▦▪",
        -8.791185393190428
      ],
      [
        "'◬",
        -8.79197278795504
      ],
      [
        "◎▪▢",
        -8.792983860996252
      ],
      [
        "▁▭",
        -8.793144092080356
      ],
      [
        "▁▨◣▫◭",
        -8.793617021600957
      ],
      [
        "▁◕◪▫◗◓",
        -8.795680650383979
      ],
      [
        "▁◕◇◓",
        -8.798405374696166
      ],
      [
        "▵◖▾",
        -8.79869850635044
      ],
      [
        "▁▷◠◀◪◓",
        -8.799445227989562
      ],
      [
        "▁▨◗◒◗",
        -8.80190043905884
      ],
      [
        "▁▽◠▻◎◠▨",
        -8.802166134789907
      ],
      [
        "▦◫▢",
        -8.804717811353253
      ],
      [
        "▱◠◓▪▦◠",
        -8.805689967778841
      ],
      [
        "▁◠▽",
        -8.808178919798202
      ],
      [
        "▁◞▴◚",
        -8.808227126726617
      ],
      [
        "▁◠◓▨◠◈◠◒",
        -8.809763740967242
      ],
      [
        "▁◚◠◓■",
        -8.81149083465436
      ],
      [
        "▬",
        -8.811641869364763
      ],
      [
        "▁◳◠▻◎◠▨",
        -8.811841041591691
      ],
      [
        "?▯▴",
        -8.81191266357769
      ],
      [
        "▁◀◨▱",
        -8.812236232129564
      ],
      [
        "▁◕▴▫◗◓",
        -8.812890802566454
      ],
      [
        "◦◎◠",
        -8.81301547632787
      ],
      [
        "▱▴◓◗▦",
        -8.814340639915596
      ],
      [
        "▁▫◠▦◪",
        -8.814570840990852
      ],
      [
        "▁◀◠◒",
        -8.815100259467076
      ],
      [
        "▷◠",
        -8.815213202741008
      ],
      [
        "▁◞◪◚",
        -8.816872728654902
      ],
      [
        "▁▷◠◓◗▨◠",
        -8.817093372587241
      ],
      [
        "▁◞◗▢",
        -8.817130825517408
      ],
      [
        "▁▨◣▫▩",
        -8.81714259265063
      ],
      [
        "▁▻",
        -8.819901419098857
      ],
      [
        "▁▷◠◞▫◠",
        -8.82042538478419
      ],
      [
        "◎◪◎",
        -8.822720178388533
      ],
      [
        "▁◑▴",
        -8.823227638522885
      ],
      [
        "▁◀◠◒▱◠",
        -8.82450909673517
      ],
      [
        "▁◀▴▨▱▴",
        -8.825116807423596
      ],
      [
        "▫◬◓",
        -8.825614841893403
      ],
      [
        "◎◪▢",
        -8.826787759361537
      ],
      [
        "▁▷◗◉◀◗◓",
        -8.828585013359122
      ],
      [
        "◂▱",
        -8.831236753462434
      ],
      [
        "▁◀◗◓▨◠◉",
        -8.833442246290229
      ],
      [
        "▁▷◠◓◫▨◠",
        -8.833667080240392
      ],
      [
        "◗▦◪",
        -8.835011181036858
      ],
      [
        "'▦◗▦",
        -8.83544149059452
      ],
      [
        "▁◕▴▫◫◓",
        -8.83705152372039
      ],
      [
        "▁◀◪▨▱▴",
        -8.837648144451842
      ],
      [
        "◞◬▦◬",
        -8.838237135028312
      ],
      [
        "▁▢◠◓◠◓",
        -8.838824280611703
      ],
      [
        "◞▪▢",
        -8.838933095190608
      ],
      [
        "▁▨◠▢◠▦",
        -8.839134628089905
      ],
      [
        "▁▨◪◞",
        -8.840136550663214
      ],
      [
        "◞◫▦◫",
        -8.840147287173846
      ],
      [
        "◉◫",
        -8.840181015328419
      ],
      [
        "'◨▦",
        -8.840585762246931
      ],
      [
        "◎▴▢",
        -8.842129439446254
      ],
      [
        "▁▷◪▻",
        -8.842400257453676
      ],
      [
        "▵◝◠◒▨◠",
        -8.843100459853401
      ],
      [
        "▁▨▴▦◈◗",
        -8.845514018801687
      ],
      [
        "▁◠▻▫◠▱",
        -8.846871593876468
      ],
      [
        "◦",
        -8.848785835244467
      ],
      [
        "▢◠",
        -8.849126018673193
      ],
      [
        "▁◎◗◞◗▦?",
        -8.849471138332845
      ],
      [
        "▵▮◂▦◓◠",
        -8.850298622500407
      ],
      [
        "▁◭◉",
        -8.851239598288924
      ],
      [
        "◎▵",
        -8.8523220986755
      ],
      [
        "▱▾▨",
        -8.852633741624196
      ],
      [
        "▁◗▨◫",
        -8.852798692130634
      ],
      [
        "◀◫▱",
        -8.853617479154622
      ],
      [
        "▁◓◠▷◠▫",
        -8.854665981091646
      ],
      [
        "▁▩◉",
        -8.85646689485438
      ],
      [
        "▵◝▾▦◨",
        -8.856750658946934
      ],
      [
        "▁◕◇◞▫◪◓",
        -8.856940552802598
      ],
      [
        "▱▴◓◫▦",
        -8.8578261954251
      ],
      [
        "▁◎◬?►",
        -8.861677900467791
      ],
      [
        "▁◈◨◓",
        -8.862745184910729
      ],
      [
        "▁◞◫▢",
        -8.863001233484866
      ],
      [
        "▁◳▪▱",
        -8.863449697641993
      ],
      [
        "▵▭◠◳◬◓■",
        -8.867812880209044
      ],
      [
        "▵◝◨▦◨",
        -8.868784120531831
      ],
      [
        "▁▷◫◉◀◫◓",
        -8.870199465776103
      ],
      [
        "▁▻◪▨",
        -8.872342724382344
      ],
      [
        "▁▴▫◎▴",
        -8.872460436126278
      ],
      [
        "▁▨◪▦◈◫",
        -8.873281906968678
      ],
      [
        "▁10",
        -8.874790028785412
      ],
      [
        "◈◨◓",
        -8.875157005120297
      ],
      [
        "◈◫◎▵",
        -8.876506353709752
      ],
      [
        "▴▨",
        -8.876760944459983
      ],
      [
        "▁▨◫◒◗",
        -8.876971868966118
      ],
      [
        "▁◍◠▨◠▫",
        -8.877016473681614
      ],
      [
        "◎◬▢",
        -8.877423754905536
      ],
      [
        "▁▨◪▢",
        -8.877647216292864
      ],
      [
        "▼▨",
        -8.879403970303642
      ],
      [
        "◠▼◠◐▪◎",
        -8.879642833426363
      ],
      [
        "▁◈▩◒▩▦",
        -8.879877864644854
      ],
      [
        "▁◗▢◫▦",
        -8.881506461956473
      ],
      [
        "▦◬▢",
        -8.882956840543375
      ],
      [
        "▁◳◬▱",
        -8.88361809423505
      ],
      [
        "◞◪▦",
        -8.8841619579409
      ],
      [
        "▵◝▾▦▾",
        -8.885335847566571
      ],
      [
        "▁▫◨▫",
        -8.887155555996216
      ],
      [
        "▁◀◫◓▨◠◉",
        -8.88717694922341
      ],
      [
        "▮▴▦",
        -8.888073334675202
      ],
      [
        "▁◉◬▨",
        -8.889391567951844
      ],
      [
        "▪▦◈◠",
        -8.8903692905346
      ],
      [
        "▁▮◪▦",
        -8.892202134495836
      ],
      [
        "◀▴",
        -8.893400781997101
      ],
      [
        "▁▷◗◉◀◫◓",
        -8.89615446540669
      ],
      [
        "▁◀◫▱",
        -8.898491799980512
      ],
      [
        "▁▮▴▦",
        -8.901738760937118
      ],
      [
        "◆",
        -8.901968162871597
      ],
      [
        "◞◫▦▵",
        -8.90543838942196
      ],
      [
        "▁▱◠▢◬◎",
        -8.90577534526671
      ],
      [
        "▁◞◇◳▱◪",
        -8.90746215161542
      ],
      [
        "▁▽◠▻◎◠",
        -8.907653652226127
      ],
      [
        "▁▱◠▢▪◎",
        -8.907908296481057
      ],
      [
        "▁◈◠◚◓◠▦",
        -8.90889731486514
      ],
      [
        "▁▷▴▻",
        -8.909066888294586
      ],
      [
        "▁◉◠▱",
        -8.91012326629239
      ],
      [
        "□",
        -8.910583249827877
      ],
      [
        "○",
        -8.912144559848592
      ],
      [
        "◎■",
        -8.914513242648749
      ],
      [
        "◠◎◠",
        -8.914676701147203
      ],
      [
        "▁▨▴▦◈◫",
        -8.916857970704537
      ],
      [
        "◎◠◈◠▦",
        -8.917393107325353
      ],
      [
        "▁▨◪▦◈◗",
        -8.917838329546122
      ],
      [
        "▁◕◗▫",
        -8.92112255145189
      ],
      [
        "▁▽◠▢",
        -8.922323877979935
      ],
      [
        "◞▫",
        -8.923522661682103
      ],
      [
        "▁◚◠◓◈◬",
        -8.923921056352146
      ],
      [
        "▁◈▾◓",
        -8.924323034035297
      ],
      [
        "▹",
        -8.927301497955197
      ],
      [
        "◑▴",
        -8.928112439328025
      ],
      [
        "▵◝◨◓◠◈◠",
        -8.92963395275542
      ],
      [
        "▵◝▾◓◠◈◠",
        -8.929969906278387
      ],
      [
        "◈◗▨",
        -8.930327044274343
      ],
      [
        "▁▨◫◒◫",
        -8.930719034321005
      ],
      [
        "▾▱",
        -8.930720163799037
      ],
      [
        "◳▱◪",
        -8.930977213222825
      ],
      [
        "◀◗▱",
        -8.932085985405266
      ],
      [
        "◬▦◈◠",
        -8.932175182544999
      ],
      [
        "▭",
        -8.932619144228648
      ],
      [
        "▁◆",
        -8.933375682835997
      ],
      [
        "◪▨",
        -8.933538425332985
      ],
      [
        "▁◞◇▽▱◪",
        -8.934692120074505
      ],
      [
        "▁▨▴◞",
        -8.935592032576594
      ],
      [
        "◕◠",
        -8.935751017741515
      ],
      [
        "▁◀▾▱",
        -8.937485578864642
      ],
      [
        "▁▵▵",
        -8.938439165349337
      ],
      [
        "◎◫▢",
        -8.938735001112489
      ],
      [
        "▁▮◠▦◠",
        -8.940546200722448
      ],
      [
        "▁◇▽▱◪",
        -8.942078445057003
      ],
      [
        "▦◗▢",
        -8.942185732211229
      ],
      [
        "▁◞◨",
        -8.94318985256379
      ],
      [
        "▦▼◠",
        -8.944185657537204
      ],
      [
        "▁◣◳▱◪",
        -8.944532697702723
      ],
      [
        "▁◀◇▽▱▴",
        -8.944970373201246
      ],
      [
        "▁◚◠◓?",
        -8.945009851762464
      ],
      [
        "◎◈◠",
        -8.9482886673303
      ],
      [
        "▁◇▽▱▴",
        -8.94915742815257
      ],
      [
        "▁◠▼▪",
        -8.951226683828374
      ],
      [
        "◈◗▵",
        -8.951458592905205
      ],
      [
        "◈▪▦",
        -8.952420437451295
      ],
      [
        "▁◧▱◈▾◐◨▦▾",
        -8.953029426470282
      ],
      [
        "◞◬▢",
        -8.953046650801248
      ],
      [
        "◈▾◓",
        -8.953272573420605
      ],
      [
        "▁◙",
        -8.956471357585002
      ],
      [
        "▁◈◪◎▴▨",
        -8.95744597463342
      ],
      [
        "▁◈◠◚◠",
        -8.957870990442427
      ],
      [
        "▁◠◉◬▨",
        -8.958336451050709
      ],
      [
        "▁◂▱◎◠▢",
        -8.958691635316427
      ],
      [
        "▩◎",
        -8.958903557852802
      ],
      [
        "▁◫▢◗▦",
        -8.958933047589468
      ],
      [
        "▵◤◠",
        -8.959329140069826
      ],
      [
        "◓▨▴▦",
        -8.959650679827844
      ],
      [
        "▁◫▦◞◠▦▱◠◓",
        -8.960823629971458
      ],
      [
        "▁◗◞▫▴◓",
        -8.962594023233343
      ],
      [
        "▁◀▾◓◠◳◠",
        -8.963009250272673
      ],
      [
        "▁2",
        -8.963602746846357
      ],
      [
        "◈◫▵",
        -8.963674961748737
      ],
      [
        "▁◫◞▫▴◓",
        -8.965727260637692
      ],
      [
        "▁◠▽▦◬",
        -8.965802319193683
      ],
      [
        "▸",
        -8.966054082870027
      ],
      [
        "▶",
        -8.966546667551249
      ],
      [
        "▁▨▴▢",
        -8.96669848380565
      ],
      [
        "▁◠▦▦◪",
        -8.967178515108579
      ],
      [
        "▁◞◣▽▱▴",
        -8.96744965157147
      ],
      [
        "▫◫▨",
        -8.967667785945565
      ],
      [
        "▵▭◠◳▪◓■",
        -8.967752126720278
      ],
      [
        "◑◪",
        -8.968439640593814
      ],
      [
        "?\"",
        -8.972006378805311
      ],
      [
        "▁◘◚▴▫■",
        -8.972104571666634
      ],
      [
        "▁◧▱◎◠",
        -8.972497616556067
      ],
      [
        "▁◣▽▱◪",
        -8.973045443996703
      ],
      [
        "◚◠",
        -8.973961989777127
      ],
      [
        "▁◄◠",
        -8.97494796897247
      ],
      [
        "▁▷◂◒",
        -8.97525138329529
      ],
      [
        "▁▷◠▨",
        -8.975514618377659
      ],
      [
        "▁▷◠◀▴◓",
        -8.975855401508856
      ],
      [
        "▁▷◠▫◠",
        -8.976876281291037
      ],
      [
        "▴▱▴◓",
        -8.977098151730086
      ],
      [
        "▁▽◬▱",
        -8.977499874650317
      ],
      [
        "▁◉◠▱▪◒",
        -8.977595324168714
      ],
      [
        "◞◠▱",
        -8.978044849444196
      ],
      [
        "▥",
        -8.97876530155645
      ],
      [
        "▱◨▨",
        -8.978803498064854
      ],
      [
        "◠◀◫▱◗◓",
        -8.980774192295868
      ],
      [
        "▽◈◗",
        -8.98084257553535
      ],
      [
        "▵◝◫▢",
        -8.981491203568064
      ],
      [
        "▵▶",
        -8.982039496350719
      ],
      [
        "◞▴▱",
        -8.982208534596353
      ],
      [
        "◞◂▦",
        -8.982953071556533
      ],
      [
        "▁3",
        -8.983864339603743
      ],
      [
        "▵◟◠",
        -8.984244160939152
      ],
      [
        "◈◗◎▵",
        -8.988608493295912
      ],
      [
        "▮◪▦",
        -8.988744379165663
      ],
      [
        "▪▽◂◓",
        -8.98922596408915
      ],
      [
        "'▾▦",
        -8.989381436793067
      ],
      [
        "▁◗◞▫◪◓",
        -8.99002588534238
      ],
      [
        "▁◀◨◓◠▽◠",
        -8.990111058365404
      ],
      [
        "◳◠▦",
        -8.99054953868379
      ],
      [
        "▁◕◣◞▫◪◓",
        -8.992783911091898
      ],
      [
        "◞▪▦▪",
        -8.993262166877983
      ],
      [
        "▁◂▱◈◨◐▾▦◨",
        -8.993744374912264
      ],
      [
        "◎▴◎",
        -8.993910707624973
      ],
      [
        "◚▴◓",
        -8.994423805872948
      ],
      [
        "'◈▴",
        -8.994456501994296
      ],
      [
        "▁◠▽▦▪",
        -8.997787967963564
      ],
      [
        "▫▾",
        -8.999489299310808
      ],
      [
        "▁▫▾▫",
        -9.000137783996976
      ],
      [
        "◎◠◞▪",
        -9.0021022650198
      ],
      [
        "▁◠◉▪▨",
        -9.002340799985056
      ],
      [
        "◀◪",
        -9.002755012224704
      ],
      [
        "▵◩▦◪◎▱",
        -9.003139169055078
      ],
      [
        "◞▪▦◬",
        -9.00332061312772
      ],
      [
        "◬▨",
        -9.00352215738472
      ],
      [
        "◉◠",
        -9.003522719446659
      ],
      [
        "◠▱◬◎",
        -9.003609219807597
      ],
      [
        "▁◧▱◈◨◐◨▦◨",
        -9.00419355003865
      ],
      [
        "▵▭◠▽▪◓■",
        -9.004856888118134
      ],
      [
        "▁◀▾◓◠▽◠",
        -9.005089601111528
      ],
      [
        "▵▭◠▽◬◓■",
        -9.005428310533016
      ],
      [
        "▁◀◨◓◠◳◠",
        -9.006394685302922
      ],
      [
        "▫◗◎",
        -9.00664868865414
      ],
      [
        "▁▨◫■",
        -9.006735524218943
      ],
      [
        "◈▾◎▵",
        -9.008611081340964
      ],
      [
        "▽▱▴",
        -9.008930669392154
      ],
      [
        "▁◧▱◈▾◐◨▦◨",
        -9.010261442847867
      ],
      [
        "▁◂▱◈▾◐▾▦▾",
        -9.011023427276257
      ],
      [
        "◞◪▱",
        -9.0115022983898
      ],
      [
        "▁◇◳▱◪",
        -9.012273357364608
      ],
      [
        "▁◠▼◬",
        -9.01244353490602
      ],
      [
        "◎◪▦",
        -9.01498129225246
      ],
      [
        "▁◉◂▼◨▨",
        -9.01716891745698
      ],
      [
        "◠◀◫▱◫◓",
        -9.017465544041507
      ],
      [
        "▁◠◓◠◎◠",
        -9.017514637062243
      ],
      [
        "▵◰◚◪▫■",
        -9.017705905473793
      ],
      [
        "◠▼◠◐◬◎",
        -9.020663623230648
      ],
      [
        "◚◪◓",
        -9.02096902535973
      ],
      [
        "◎◗▢",
        -9.021622093890734
      ],
      [
        "▁◧▱◎◠▢",
        -9.021769790442155
      ],
      [
        "◬◳◂◓",
        -9.021786533125592
      ],
      [
        "▵◘◚◪▫■",
        -9.022243189956331
      ],
      [
        "▁◅◂▨",
        -9.022594170348892
      ],
      [
        "▁▷◧◒",
        -9.023958470774527
      ],
      [
        "▁◗▦◞◠▦▱◠◓",
        -9.024064344413548
      ],
      [
        "▵◙",
        -9.025412405254096
      ],
      [
        "▁◎◭",
        -9.026025055819826
      ],
      [
        "▫◗▨",
        -9.02649125102057
      ],
      [
        "◞▴◎",
        -9.02696861508429
      ],
      [
        "▁▶▴◒◪▨▨▩◓",
        -9.028680163199203
      ],
      [
        "▁◗▢◗▦",
        -9.028966579496021
      ],
      [
        "▁▨◠◀▾▱",
        -9.029412013994953
      ],
      [
        "▵◝▴▦◗◎",
        -9.02976837509659
      ],
      [
        "▁◉◂▼▾▨",
        -9.030867361009513
      ],
      [
        "▁◳◠▢",
        -9.031541986655936
      ],
      [
        "▁◳◠▻◎◠",
        -9.034330982291454
      ],
      [
        "▁◂▱◈◨◐◨▦◨",
        -9.0353648236702
      ],
      [
        "▁▨◠◍◠",
        -9.036888213180614
      ],
      [
        "▵◝◠▨",
        -9.038801242692692
      ],
      [
        "▁◈◭◒◭▦",
        -9.039491745639591
      ],
      [
        "▁▴▫◎◪",
        -9.040150211506202
      ],
      [
        "▱▴▦",
        -9.041130230082224
      ],
      [
        "▁◂▱◈◨◐◨▦▾",
        -9.041200963735761
      ],
      [
        "◭◎",
        -9.041304647900688
      ],
      [
        "◧◓",
        -9.04152709050003
      ],
      [
        "▁◫◞▫◪◓",
        -9.0421930373248
      ],
      [
        "▁◣◳▱▴",
        -9.042518609140995
      ],
      [
        "▁◎◗?►",
        -9.044897655976245
      ],
      [
        "▁◎▩",
        -9.047101648480302
      ],
      [
        "▁▶",
        -9.047399201569835
      ],
      [
        "◈◬▦",
        -9.049959652118655
      ],
      [
        "◞▷",
        -9.050116365178795
      ],
      [
        "◞◧▦",
        -9.051415629633073
      ],
      [
        "▁◂▱◈▾◐◨▦▾",
        -9.054291728123502
      ],
      [
        "▵◘◚▴▫■",
        -9.054498071200836
      ],
      [
        "▁◪◚",
        -9.055805064223069
      ],
      [
        "◎▴▦",
        -9.056861088523881
      ],
      [
        "▁▨◠◀◨▱",
        -9.058186327113456
      ],
      [
        "◧▱",
        -9.058636129888349
      ],
      [
        "▁◫▢◫▦",
        -9.059645566472891
      ],
      [
        "▁◧▱◈◨◐▾▦◨",
        -9.060504970855062
      ],
      [
        "▁▨◫◎◞▴",
        -9.060569353155469
      ],
      [
        "▵◰▦",
        -9.061532796464173
      ],
      [
        "◓◧",
        -9.062530898205551
      ],
      [
        "◂◓",
        -9.064128958406982
      ],
      [
        "▱◪◓◗▦◗",
        -9.064207461721152
      ],
      [
        "◞◨▦▵",
        -9.06429778927832
      ],
      [
        "▁◈▴◎◪▨",
        -9.064401613699953
      ],
      [
        "◎◠▢",
        -9.064672539263725
      ],
      [
        "▼◨",
        -9.064758227385916
      ],
      [
        "▁◈◂▱◠◓",
        -9.065130243582502
      ],
      [
        "◨▢▵",
        -9.065423325633802
      ],
      [
        "▁◈◭◒▩▦",
        -9.065831692697607
      ],
      [
        "◳◈◫",
        -9.066744772703235
      ],
      [
        "▁◞◗▱◠▷",
        -9.067237268406014
      ],
      [
        "▁◕▴◓◉▴▨",
        -9.067726176247742
      ],
      [
        "▱◪▦",
        -9.069662683130403
      ],
      [
        "▁◉◧▼◨▨",
        -9.070183303466987
      ],
      [
        "◘◚◪▫■",
        -9.071875356326977
      ],
      [
        "▤",
        -9.071927991020598
      ],
      [
        "▁◫◒▫▴",
        -9.073176171404643
      ],
      [
        "▁▴◈▴◓◗◎▵►",
        -9.073767869786629
      ],
      [
        "▲",
        -9.074293203095865
      ],
      [
        "◞◬▦▪",
        -9.0745366671174
      ],
      [
        "▁◫◞▫▴",
        -9.074567563529197
      ],
      [
        "▁◍◠◓▨▱◬",
        -9.075683024895639
      ],
      [
        "▁◂▱◈▾◐◨▦◨",
        -9.075702545166035
      ],
      [
        "◚◫",
        -9.075816720372845
      ],
      [
        "◈◬▵",
        -9.076863555443646
      ],
      [
        "▁◕◪▫◫◓",
        -9.078491447585641
      ],
      [
        "▫◪◓",
        -9.078658126238865
      ],
      [
        "▁▨◠▫",
        -9.079060739978013
      ],
      [
        "▁◂▦▱◠◓◬",
        -9.079836410256046
      ],
      [
        "'▦◫▦",
        -9.080012373494803
      ],
      [
        "◈◨◎▵",
        -9.080017507631034
      ],
      [
        "▵◱▦▾",
        -9.080543731078926
      ],
      [
        "▵▬",
        -9.082440934048725
      ],
      [
        "◬◳◧◓",
        -9.0829029517764
      ],
      [
        "▁◞◠▷◗▻",
        -9.083175227340881
      ],
      [
        "▁◗◒▫◪",
        -9.083958807464963
      ],
      [
        "▁◧▱◈◨◐◨▦▾",
        -9.085431543997892
      ],
      [
        "▁◞▾",
        -9.086205637335294
      ],
      [
        "▁◧▱◨▽◧◓?▯",
        -9.08740396245603
      ],
      [
        "▵○",
        -9.088183533250922
      ],
      [
        "▁◀◗▱",
        -9.088829014104693
      ],
      [
        "◨▱",
        -9.090301225885298
      ],
      [
        "▁◠▦▱◠◎◠",
        -9.090400699688582
      ],
      [
        "◞▾▦▵",
        -9.090518886031681
      ],
      [
        "▁◀◇▽▱◪",
        -9.091749784968833
      ],
      [
        "▁◀◇◳▱◪",
        -9.091813945403622
      ],
      [
        "◎◠◎",
        -9.093113872508447
      ],
      [
        "▵▮◪▦◫",
        -9.094296787705318
      ],
      [
        "▁▨◗■",
        -9.094475507440201
      ],
      [
        "▵#",
        -9.094618023989828
      ],
      [
        "▁◀◣◳▱◪",
        -9.095703429065427
      ],
      [
        "◅◂▨",
        -9.096226620244053
      ],
      [
        "◞◗▦▵",
        -9.096691930713451
      ],
      [
        "▁◧▱◈▾◐▾▦◨",
        -9.098081428471083
      ],
      [
        "▁◠▦▦▴",
        -9.09839033309893
      ],
      [
        "▁▨◠▱◎◠",
        -9.09944222672438
      ],
      [
        "▁▢◠▫▴▦",
        -9.099543463583576
      ],
      [
        "▁◂▱◈◨◐▾▦▾",
        -9.100223097055409
      ],
      [
        "▪▽◧◓",
        -9.100429121997664
      ],
      [
        "▵◱▦◨",
        -9.1014370426166
      ],
      [
        "▽◠▦",
        -9.101946737795043
      ],
      [
        "'▦◬▦",
        -9.103133419683537
      ],
      [
        "◗◒",
        -9.103466496620527
      ],
      [
        "▁▴◚",
        -9.103849607206165
      ],
      [
        "◓▨◪▦",
        -9.10445154712794
      ],
      [
        "◉◗",
        -9.105857597764949
      ],
      [
        "◳◈◗",
        -9.105994013642935
      ],
      [
        "▵▿▦▾",
        -9.107049462273174
      ],
      [
        "▁◂▱◎◠",
        -9.108201847873417
      ],
      [
        "▵◆",
        -9.108660067642667
      ],
      [
        "▁▨◫◎◞◪",
        -9.111151246578896
      ],
      [
        "▁◚◠◓◞◠",
        -9.111527135390986
      ],
      [
        "▁◉▩▦▨▩",
        -9.111869259799828
      ],
      [
        "◈▴▨◗",
        -9.112048822954709
      ],
      [
        "▁▻◠◓◉◠",
        -9.112140280642961
      ],
      [
        "▱▴◓◫▦◫",
        -9.112792700264468
      ],
      [
        "▁▨◫?",
        -9.113503786035654
      ],
      [
        "▾▢▵",
        -9.113737218246055
      ],
      [
        "▁◂▱◈▾◐▾▦◨",
        -9.113977026836528
      ],
      [
        "▁◅◧▨",
        -9.114351701462459
      ],
      [
        "◫▽◂◓",
        -9.114857157217235
      ],
      [
        "▁◧▱◈▾◐▾▦▾",
        -9.115456804989634
      ],
      [
        "▱◠◓▵►",
        -9.115987779745112
      ],
      [
        "▁5",
        -9.116291637553255
      ],
      [
        "▁◧▱◈◨◐▾▦▾",
        -9.116590177626229
      ],
      [
        "▁◀◭▽◭▨",
        -9.116699907525557
      ],
      [
        "▫◨",
        -9.117201969696264
      ],
      [
        "◈◨▵",
        -9.11966149706365
      ],
      [
        "▁◘",
        -9.120117110707863
      ],
      [
        "◈◪▨◗",
        -9.12020077926639
      ],
      [
        "◬◒",
        -9.123014902026178
      ],
      [
        "▁◀◣▽▱▴",
        -9.123582987089662
      ],
      [
        "▁◠◳▦◬",
        -9.124162988931182
      ],
      [
        "▁1",
        -9.125747947507866
      ],
      [
        "▁◰",
        -9.126799009403939
      ],
      [
        "▁◈▩◒◭▦",
        -9.127293673622193
      ],
      [
        "◗◞",
        -9.12783510773116
      ],
      [
        "▁◉◭▦▨◭",
        -9.128444015456488
      ],
      [
        "▽◨",
        -9.128729133771607
      ],
      [
        "▁◪▫◎▴",
        -9.129052012912988
      ],
      [
        "▁◀◣▽▱◪",
        -9.129507211102304
      ],
      [
        "◭◓",
        -9.131947958158321
      ],
      [
        "▁◠◳▦▪",
        -9.132587981629925
      ],
      [
        "◀▾",
        -9.133726820762782
      ],
      [
        "▼▾",
        -9.134013455758533
      ],
      [
        "◀◗",
        -9.134134049040224
      ],
      [
        "◈◫▨",
        -9.134931920663071
      ],
      [
        "▨◠◓",
        -9.135696727538583
      ],
      [
        "▁◀◠◞",
        -9.135936669450794
      ],
      [
        "▁◉◭▦▨▩",
        -9.136400714264642
      ],
      [
        "▁◄",
        -9.136671156636147
      ],
      [
        "▁◀◠▢◬",
        -9.136995847585919
      ],
      [
        "◞◪◎",
        -9.13789357444498
      ],
      [
        "▁◠▨",
        -9.138049645745085
      ],
      [
        "◈▾▵",
        -9.139915809965784
      ],
      [
        "◞◫▦▴",
        -9.141108090128327
      ],
      [
        "▁◂▱◞▾▦",
        -9.14122978911697
      ],
      [
        "▁▫▩◓",
        -9.141376486459656
      ],
      [
        "▁◝◠▦◠",
        -9.143167230444952
      ],
      [
        "◫◳◂◓",
        -9.144371304265963
      ],
      [
        "▁◉▩▦▨◭",
        -9.14469096530412
      ],
      [
        "▁▨◠▻◬",
        -9.144721200649107
      ],
      [
        "▁◧▱◞◠",
        -9.145021431451799
      ],
      [
        "▁▽◠◓◠",
        -9.145340486150575
      ],
      [
        "◀◫",
        -9.146205848991098
      ],
      [
        "▁◕◪◓◉▴▨",
        -9.146762572389308
      ],
      [
        "▁◠◓▨◠",
        -9.146766349588805
      ],
      [
        "▁◀◨▦◠",
        -9.146844261549361
      ],
      [
        "◈▪▵",
        -9.14724987461895
      ],
      [
        "▁▨◂▦▾◒",
        -9.148034162308338
      ],
      [
        "▁◞◠▷◫▻",
        -9.148158733219358
      ],
      [
        "▱▴◓◫▦◗",
        -9.148164141030964
      ],
      [
        "▁◠◓◠◈◠",
        -9.148376901101066
      ],
      [
        "◠▱▪◎",
        -9.149656952381132
      ],
      [
        "▁▨◧▦▾◒",
        -9.150522106645099
      ],
      [
        "▵◀▾",
        -9.151004885221646
      ],
      [
        "▵▿▦◨",
        -9.151909462309447
      ],
      [
        "?▯◪",
        -9.152747182841429
      ],
      [
        "◫◞",
        -9.15324971516684
      ],
      [
        "▁◍◠◓▨▱▪",
        -9.153572554635497
      ],
      [
        "▁◉◧▼▾▨",
        -9.154826098401786
      ],
      [
        "▁◣▱◈◭◓",
        -9.156084342280934
      ],
      [
        "▵◝◪▦◗",
        -9.156089417115357
      ],
      [
        "▵◘▦",
        -9.15665307953079
      ],
      [
        "▁◀◗▦",
        -9.156906821744304
      ],
      [
        "▵◌",
        -9.158510574816198
      ],
      [
        "'◈◪",
        -9.15935414430054
      ],
      [
        "▽▱◪",
        -9.159521415779098
      ],
      [
        "▭◠◳▪◓■",
        -9.160354247808531
      ],
      [
        "◝◨◓◠◳◠",
        -9.161139885617061
      ],
      [
        "▪◳◂◓",
        -9.16240117542133
      ],
      [
        "▁◫◒▫◪",
        -9.162755643493735
      ],
      [
        "▁◕◪◓◉◪▨",
        -9.163258614834039
      ],
      [
        "▫◫▦",
        -9.163629131460088
      ],
      [
        "▵▮▴▦◗",
        -9.163699090695982
      ],
      [
        "◓◂",
        -9.164951863290554
      ],
      [
        "◎▾",
        -9.165636989394086
      ],
      [
        "▁◞◧◓◨▦",
        -9.165734765097
      ],
      [
        "◠▦◠",
        -9.168169019887797
      ],
      [
        "◉◪",
        -9.168172590682971
      ],
      [
        "▁▢◠▫◪▦",
        -9.168846538862148
      ],
      [
        "▪▨",
        -9.169254992943529
      ],
      [
        "▁◠▫▴◒",
        -9.169906973620357
      ],
      [
        "◈◪▨◫",
        -9.170524298742723
      ],
      [
        "▁◀▾▦◠",
        -9.170680424114787
      ],
      [
        "▁◕▴◓◉◪▨",
        -9.170924327636437
      ],
      [
        "▁◳◠◓◠",
        -9.171214516264678
      ],
      [
        "▁◒◪▽▱▴◓",
        -9.171531466627545
      ],
      [
        "▁▨◠◓",
        -9.171718691620924
      ],
      [
        "◫▦◈▴",
        -9.17253655311492
      ],
      [
        "◞◗▦◪",
        -9.173101115481096
      ],
      [
        "◕◪",
        -9.173655820101006
      ],
      [
        "▁◀◇◳▱▴",
        -9.173783817338796
      ],
      [
        "▱▴◓◗▦◗",
        -9.174246240985909
      ],
      [
        "◠◎◠▢",
        -9.174705963842404
      ],
      [
        "▁◒▴▽▱▴◓",
        -9.176030614451749
      ],
      [
        "▁◒◪◳▱▴◓",
        -9.177051576576929
      ],
      [
        "▁◇▱◈▩◓",
        -9.178836191119274
      ],
      [
        "▁◞◂◓◨▦",
        -9.180218651118786
      ],
      [
        "◞◬▦◈◠",
        -9.180887741822028
      ],
      [
        "▁◠▦◠",
        -9.18106939849011
      ],
      [
        "▱▩▨",
        -9.181194250390341
      ],
      [
        "◎◪▽▴",
        -9.181287919420118
      ],
      [
        "▽◫◎",
        -9.18160781143791
      ],
      [
        "▁▨◧▦◨◒",
        -9.182330513491841
      ],
      [
        "▁◀▩◳◭▨",
        -9.183582575274922
      ],
      [
        "▱▴◓■",
        -9.184259426820523
      ],
      [
        "◌",
        -9.184839329134912
      ],
      [
        "◗▽◧◓",
        -9.18527633885124
      ],
      [
        "▁◞◠▫",
        -9.187575137094779
      ],
      [
        "▱◠◓◬◎",
        -9.188843855368575
      ],
      [
        "▁◈◪◎◪▨",
        -9.189505684626333
      ],
      [
        "◬▽◂◓",
        -9.189787931124709
      ],
      [
        "▱◪◓◪",
        -9.190410027354561
      ],
      [
        "▁▢◂◓◨▦◈◠",
        -9.190473065126326
      ],
      [
        "▁◧◈◠",
        -9.190532300260728
      ],
      [
        "◳◫◎",
        -9.191354964401459
      ],
      [
        "▁▨◗?",
        -9.191612582796852
      ],
      [
        "▁◧▱◞▾▦",
        -9.191671225811984
      ],
      [
        "▁◀◠▢▪",
        -9.191835637812314
      ],
      [
        "▁◈◗▨▨◠▫",
        -9.193293518586481
      ],
      [
        "▱▴◓▴",
        -9.193331723060567
      ],
      [
        "▁◞◧◓",
        -9.194226044969849
      ],
      [
        "▱◪◓◫▦◗",
        -9.194410194223844
      ],
      [
        "▁◀◠▨◎◠",
        -9.195832359620905
      ],
      [
        "▁▦◨◎◠◓◠",
        -9.196030478234903
      ],
      [
        "▁◕▴▱◈◗",
        -9.196568312598448
      ],
      [
        "▁◂▱◞◠",
        -9.197136774276935
      ],
      [
        "▁◞◠▦",
        -9.197669628981838
      ],
      [
        "▵◄",
        -9.197930694831513
      ],
      [
        "◠◀◗▱◗◓",
        -9.198846965906547
      ],
      [
        "▁◀◣◳▱▴",
        -9.199232364296801
      ],
      [
        "▁▨▩◉▩▨",
        -9.19982347247147
      ],
      [
        "▽◈◫",
        -9.20023787429289
      ],
      [
        "▵▶◠◎",
        -9.201530012530139
      ],
      [
        "▾◞",
        -9.20165816834702
      ],
      [
        "▁◒◠▦◞",
        -9.202396372072931
      ],
      [
        "▁▷◠◳◠▱",
        -9.203395186156104
      ],
      [
        "▱◪◓▴",
        -9.204402354949494
      ],
      [
        "▵▿▦◠",
        -9.205160039919699
      ],
      [
        "▱◠◓◬▦◈◠",
        -9.205425996832762
      ],
      [
        "◚◗",
        -9.205694572842003
      ],
      [
        "▁◪▫◎◪",
        -9.205735063408309
      ],
      [
        "◠◀◗▱◫◓",
        -9.205792864472384
      ],
      [
        "▁◂▦▱◠◓",
        -9.205849948803438
      ],
      [
        "◈▪◎▵",
        -9.206421612222108
      ],
      [
        "▁◍",
        -9.206483214249765
      ],
      [
        "◞◫▦◪",
        -9.20700359209393
      ],
      [
        "◞▪▦◈◠",
        -9.20783589927954
      ],
      [
        "▁◕◪◉◗◓",
        -9.208854190828731
      ],
      [
        "▁▷◠▽◠▱",
        -9.209302266910136
      ],
      [
        "▢◪",
        -9.21125323460238
      ],
      [
        "▁◧▦▱◠◓",
        -9.213349842428311
      ],
      [
        "▵▯◪◈◪▦",
        -9.213796240964472
      ],
      [
        "▁◕◇◞▫▴◓",
        -9.214749102378853
      ],
      [
        "◎◠▨▫◠▦",
        -9.214925037934503
      ],
      [
        "▾▦◠",
        -9.216079091750347
      ],
      [
        "◞◠▦■",
        -9.21729665494869
      ],
      [
        "▵▮▴▦◫",
        -9.21771777168448
      ],
      [
        "▁▢◠◎◠▦◬",
        -9.21888765047417
      ],
      [
        "◞◠■",
        -9.219576112231053
      ],
      [
        "▽▾",
        -9.220150335234525
      ],
      [
        "◳▱▴",
        -9.22020695014515
      ],
      [
        "▁20",
        -9.221095431435476
      ],
      [
        "▵▮◧▦◓◠",
        -9.22240888077582
      ],
      [
        "▁◀▴▨▱◪",
        -9.222860717579124
      ],
      [
        "▵◖◗◎◈◫",
        -9.22466796039161
      ],
      [
        "▁◒◪▽◫",
        -9.22489914262202
      ],
      [
        "▪◳◧◓",
        -9.225520986746902
      ],
      [
        "▁◕◪◉◫◓",
        -9.226548439344253
      ],
      [
        "▫◨◓",
        -9.226638711185496
      ],
      [
        "▁◈▴◐◫▱▵",
        -9.22832295104076
      ],
      [
        "◫▫",
        -9.228469560119635
      ],
      [
        "▁◀◫▦",
        -9.229643046603815
      ],
      [
        "▵▮▴▦◗▦",
        -9.229670591892441
      ],
      [
        "▫◫◎",
        -9.229855675273798
      ],
      [
        "◈◭",
        -9.229929433058242
      ],
      [
        "◳◨",
        -9.229974897965185
      ],
      [
        "◈◨▦",
        -9.230134842091498
      ],
      [
        "◈▩",
        -9.230224909407017
      ],
      [
        "◗▦◈◪",
        -9.230759302044625
      ],
      [
        "▵◖◫◎◈◫",
        -9.231685583828451
      ],
      [
        "▁◞◧◓▾▦",
        -9.232536135331298
      ],
      [
        "▱◪◓◗▦◫",
        -9.234896063391973
      ],
      [
        "▁◕◇▫◭◓",
        -9.234958876973685
      ],
      [
        "◪▼▴◐◗◎",
        -9.236134469185572
      ],
      [
        "▵◝◫▱",
        -9.23881743783322
      ],
      [
        "▫▷",
        -9.239360078614553
      ],
      [
        "◗◳◧◓",
        -9.23948405223831
      ],
      [
        "▁▽◠◒◠",
        -9.24019982087797
      ],
      [
        "▵▭◫◉",
        -9.240422166523519
      ],
      [
        "◎▴▽◪",
        -9.240517534887685
      ],
      [
        "▁◈◫▽▴",
        -9.240997088813792
      ],
      [
        "▁◀◨◓◠◈◠▦",
        -9.24109466666621
      ],
      [
        "▵▭◗◉",
        -9.241250524771054
      ],
      [
        "◎▩◒",
        -9.24249477654254
      ],
      [
        "◉◬",
        -9.242896783591036
      ],
      [
        "▁◠▱▫▪▦◈◠",
        -9.242956559875928
      ],
      [
        "▵▮◠◈▴▼▴",
        -9.242988189286164
      ],
      [
        "◞◗▦▴",
        -9.242988881766514
      ],
      [
        "▁◂▱◠◀◫▱◗◓",
        -9.243052312527608
      ],
      [
        "◗◳◂◓",
        -9.24385303416561
      ],
      [
        "▨◂",
        -9.243965651728745
      ],
      [
        "▁◧▱◎◠▱▪",
        -9.24401690110199
      ],
      [
        "▁◈◠▦◞",
        -9.244692715940452
      ],
      [
        "▵◝◠▨■",
        -9.245627410233862
      ],
      [
        "▁◒◪▽◗",
        -9.24617100592622
      ],
      [
        "▪◒",
        -9.246756107814514
      ],
      [
        "▁▽◠▱◠▦",
        -9.247252900797115
      ],
      [
        "▵▮◠◈▴▼◪",
        -9.248230241259296
      ],
      [
        "▵▮◠◈◪▼◪",
        -9.24830294587155
      ],
      [
        "▵▮◠◈◪▼▴",
        -9.248310336574798
      ],
      [
        "▁▨◭◉▩▨",
        -9.25030207831438
      ],
      [
        "▁◀◭◳▩▨",
        -9.250417875860578
      ],
      [
        "▫◗▦",
        -9.250543706467589
      ],
      [
        "▁▫◠◓◠◍▪▦◈◠▦",
        -9.251275609744074
      ],
      [
        "▵◝◪▦◗◎",
        -9.2515704495304
      ],
      [
        "▶◠◎◠◎■",
        -9.251689165168578
      ],
      [
        "◎◨",
        -9.251902043725192
      ],
      [
        "▻◠",
        -9.252730632958917
      ],
      [
        "▁◈◪◐◗▱▵",
        -9.252939747513993
      ],
      [
        "▁◕▴◉◫◓",
        -9.253119898341797
      ],
      [
        "◓▴▫",
        -9.253317435873978
      ],
      [
        "▁◂▱◞◨▦",
        -9.253677740297451
      ],
      [
        "▁◠◈◠◎▪",
        -9.254323695713408
      ],
      [
        "◞▾▦■",
        -9.254413906829317
      ],
      [
        "◫▦◈◪",
        -9.255201368267375
      ],
      [
        "▁◣◐◓◪▦",
        -9.255433932054107
      ],
      [
        "▁◈◫◳◪",
        -9.255753902404722
      ],
      [
        "◫▽◧◓",
        -9.25696548574449
      ],
      [
        "▁◇◐◓▴▦",
        -9.258144037844755
      ],
      [
        "▁◀◠◒▪▦◠",
        -9.258694573891209
      ],
      [
        "▁◒◪▽▱◪◓",
        -9.258800240569094
      ],
      [
        "▁◀▾◓◠◈◠▦",
        -9.259766825996417
      ],
      [
        "▁◪▫◎▴▨",
        -9.260102157075103
      ],
      [
        "▁◒▴◳▱▴◓",
        -9.262057008297969
      ],
      [
        "?◱",
        -9.262611596135987
      ],
      [
        "▁▨◗◎◞▴",
        -9.262801755798552
      ],
      [
        "◘",
        -9.262835794834174
      ],
      [
        "▁◕▴◉◗◓",
        -9.262957818324473
      ],
      [
        "◗▫",
        -9.263164862769191
      ],
      [
        "◕◗",
        -9.26332398295182
      ],
      [
        "▁◪▫◎◪▨",
        -9.264483428662317
      ],
      [
        "▁◠▱◠▦",
        -9.267439052692623
      ],
      [
        "▫▩",
        -9.2676665464661
      ],
      [
        "▁▨▩◉◭▨",
        -9.267769535744094
      ],
      [
        "◍◠",
        -9.267991833042764
      ],
      [
        "▁◠◓▨◠◈◠◒▪◎",
        -9.268088978294934
      ],
      [
        "◈◗◐◫",
        -9.268550612049111
      ],
      [
        "▱▴◓◗▦◫",
        -9.268607282864068
      ],
      [
        "◠▷",
        -9.268675800750515
      ],
      [
        "▁◀◗▢◗◎",
        -9.268730272343934
      ],
      [
        "▁◈◨◳",
        -9.26893975363108
      ],
      [
        "▁▨◧▽",
        -9.2706395129675
      ],
      [
        "▁◀",
        -9.271278247343709
      ],
      [
        "◈◬◎▵",
        -9.272406978552958
      ],
      [
        "▁4",
        -9.272489419087968
      ],
      [
        "▽◈▪",
        -9.273205268137215
      ],
      [
        "▁▢◂◓▾▦◈◠",
        -9.273545179018761
      ],
      [
        "▁◀◫▢◫◎",
        -9.273645648935869
      ],
      [
        "▁◒▴▽◗",
        -9.273865512248399
      ],
      [
        "▁◕◣▫▩◓",
        -9.274218172313553
      ],
      [
        "▁◠▱◎◠",
        -9.275059177140818
      ],
      [
        "▵▯◠◞◬▱",
        -9.278455765836933
      ],
      [
        "▨▫◠▦",
        -9.278534270963078
      ],
      [
        "▵▯◪◈▴▦",
        -9.278600211052572
      ],
      [
        "▵▯▴◈◪▦",
        -9.278801066511267
      ],
      [
        "▁◣▱◈▩◓",
        -9.279182773950202
      ],
      [
        "▵◝◪▦◫◎",
        -9.279355707720445
      ],
      [
        "◈◬▨",
        -9.28163090748329
      ],
      [
        "▵▭◠◈◗",
        -9.282422184574173
      ],
      [
        "▁◳◧▨▵",
        -9.283185776265606
      ],
      [
        "▼▷",
        -9.283392619759452
      ],
      [
        "◎◪◳◪",
        -9.283586670353698
      ],
      [
        "◎◪◳▴",
        -9.283694780706373
      ],
      [
        "◞◬▦▵",
        -9.284867810827574
      ],
      [
        "▁▽◧▱",
        -9.285517270356294
      ],
      [
        "◨▦◨",
        -9.2858538059802
      ],
      [
        "▁◒◪◳◗",
        -9.286184061433318
      ],
      [
        "▮◠▦◎◬▽◂◓◨◎▵",
        -9.286429858898302
      ],
      [
        "▁◀◠◀◠◎",
        -9.28814684515493
      ],
      [
        "▁▽◂▱",
        -9.288290728784334
      ],
      [
        "▁◀▩◳▩▨",
        -9.28878080450052
      ],
      [
        "▁▨◠▻▪",
        -9.289202071578057
      ],
      [
        "◈◫◐◫◎",
        -9.289718761939845
      ],
      [
        "▁◠▢▪▦◈◠▦",
        -9.291457242893603
      ],
      [
        "▁◗◒◫",
        -9.291472266493424
      ],
      [
        "▁▨◂▽",
        -9.29152531288667
      ],
      [
        "▁▴▫◎◪▨",
        -9.2916668958229
      ],
      [
        "◈▴▨◫",
        -9.29235576380908
      ],
      [
        "▁◈◧▱◠◓",
        -9.293080370381128
      ],
      [
        "▁◳◠▱◠▦",
        -9.293489078126672
      ],
      [
        "▁◒▴◳▱◪◓",
        -9.294199869195161
      ],
      [
        "◳◈▪",
        -9.294213964137416
      ],
      [
        "▵▯▴◈▴▦",
        -9.294268600406102
      ],
      [
        "▁◫◒◪",
        -9.294734548581939
      ],
      [
        "◫◎◗",
        -9.295174227204232
      ],
      [
        "▱◪◓■",
        -9.295721007250338
      ],
      [
        "!◝◨",
        -9.29586298946607
      ],
      [
        "○◓▫◬▨",
        -9.296780746074887
      ],
      [
        "◈◫◓▵",
        -9.29690531425793
      ],
      [
        "▱▴◓▵",
        -9.297055369071456
      ],
      [
        "▁◫◒◫",
        -9.297637567723275
      ],
      [
        "▁▨◭◉◭▨",
        -9.297796003318854
      ],
      [
        "▁▴◈▴◓",
        -9.298377868214965
      ],
      [
        "▵▮◫▢",
        -9.298702066526438
      ],
      [
        "▁◈◫◳▴",
        -9.298913800054944
      ],
      [
        "▁◀◗▢◫◎",
        -9.300591584052114
      ],
      [
        "◓▫",
        -9.300857664706374
      ],
      [
        "▁◒◪◳◫",
        -9.301381510206925
      ],
      [
        "▵◝▴▦◫◎",
        -9.30153474906845
      ],
      [
        "▁▨◂▦◨◒",
        -9.302072216690327
      ],
      [
        "▁▽◂▨▵",
        -9.302534359984097
      ],
      [
        "▵◝◗▢",
        -9.30359643608979
      ],
      [
        "▁◀◠◒◬▦◠",
        -9.306661010452416
      ],
      [
        "▁▨▾◓▫◠◓",
        -9.307160567276295
      ],
      [
        "◈◗◐◫◎",
        -9.3071838102762
      ],
      [
        "◨◞",
        -9.308307240781218
      ],
      [
        "◞◨▦■",
        -9.308718988510321
      ],
      [
        "▁◠▫◪◒",
        -9.308932717292773
      ],
      [
        "▁▢◧◓▾▦◈◠",
        -9.309103486014697
      ],
      [
        "▱◠◓▪◎",
        -9.309572436224517
      ],
      [
        "◞◫▦◗▢",
        -9.310335979698856
      ],
      [
        "▁◒▴▽▱◪◓",
        -9.311430705067739
      ],
      [
        "▁◀▩▽◭▨",
        -9.311720716256545
      ],
      [
        "▁◀◗▢◪",
        -9.31204928244893
      ],
      [
        "▁◫◒▴",
        -9.312232933145673
      ],
      [
        "▁▨◗◎◞◪",
        -9.312518374123883
      ],
      [
        "▁◞◂◓",
        -9.312982518593795
      ],
      [
        "▵◢◠",
        -9.313260613712123
      ],
      [
        "▱◪◓◫▦◫",
        -9.31411893006624
      ],
      [
        "▵◱▦◠",
        -9.314693726438867
      ],
      [
        "▁▻▱◠▦",
        -9.31556190402915
      ],
      [
        "▁◠◞",
        -9.317624791772113
      ],
      [
        "▱◫◐◫",
        -9.318077252428235
      ],
      [
        "▵◝◪▦◫",
        -9.318638319956044
      ],
      [
        "▁◝◠▽◠▦",
        -9.319207255154552
      ],
      [
        "◗▦◈▴",
        -9.319307478037045
      ],
      [
        "▁◕◣▫◭◓",
        -9.32053192927351
      ],
      [
        "▵◘◐▴◓",
        -9.320556588166987
      ],
      [
        "▁◈◫◐▴◓",
        -9.320576546555763
      ],
      [
        "▁◂▱◠◀◫▱◫◓",
        -9.320606504445363
      ],
      [
        "◝▾◓◠◈◠",
        -9.321911972709358
      ],
      [
        "◈◫◐◗◎",
        -9.32202793366173
      ],
      [
        "▱◠◓◬▦◈◠▦",
        -9.323189261563503
      ],
      [
        "▁◀◪◒",
        -9.32397523163848
      ],
      [
        "▁◈◫▽◪",
        -9.324141233457802
      ],
      [
        "◞◗▦◗▢",
        -9.324457564251583
      ],
      [
        "▁▷◠",
        -9.324696812274142
      ],
      [
        "▱◪◒",
        -9.325036886112404
      ],
      [
        "▩▢",
        -9.325368403539574
      ],
      [
        "▁▱◭▫◍◪▦",
        -9.326451480787593
      ],
      [
        "▁▨◨◓▫◠◓",
        -9.327361720695176
      ],
      [
        "'▦▪▦",
        -9.327411104094487
      ],
      [
        "▵◀◨",
        -9.327539629132566
      ],
      [
        "▁▫◠◓◠◍◬▦◈◠▦",
        -9.328140407703906
      ],
      [
        "▁◣◐◓▴▦",
        -9.328481060455438
      ],
      [
        "◳◈◬",
        -9.328529120527811
      ],
      [
        "▁◈◪◐◫▱▵",
        -9.329300934883522
      ],
      [
        "▁◇▱◈◭◓",
        -9.330111544737294
      ],
      [
        "▁◳◂▱",
        -9.330115781994817
      ],
      [
        "▁◒◠◓▨▪",
        -9.330551514625629
      ],
      [
        "▱▴◓◪",
        -9.330557801875832
      ],
      [
        "▁◀◭▫◭▦",
        -9.330625730323217
      ],
      [
        "▵◝◫◓◠▢",
        -9.330923932729865
      ],
      [
        "▱◠◓▪▦◈◠",
        -9.331182149012136
      ],
      [
        "▁▽◪▦◫",
        -9.332262337157001
      ],
      [
        "▁◂▦▱◠◓▪",
        -9.333920109861339
      ],
      [
        "?◝◫◓",
        -9.334310911774331
      ],
      [
        "◉▴",
        -9.334743657621194
      ],
      [
        "▁▨◨◓",
        -9.335261649785583
      ],
      [
        "▁▨◠◚◕◠",
        -9.335576515960762
      ],
      [
        "▁◀▾▦▱◠◓",
        -9.33560264950207
      ],
      [
        "◳◗◎",
        -9.336444736436874
      ],
      [
        "▱◠◒",
        -9.336914168030319
      ],
      [
        "▱◠◓▪▦◈◠▦",
        -9.337070922367076
      ],
      [
        "▁◞▩◓▴",
        -9.338496935789292
      ],
      [
        "◈▪▨",
        -9.338609500122178
      ],
      [
        "◤",
        -9.338751743162366
      ],
      [
        "◓◠▦",
        -9.339640318391538
      ],
      [
        "▵▮◪▦◫▦",
        -9.339669752161326
      ],
      [
        "▁◈◗◳◪",
        -9.339698338922105
      ],
      [
        "▁▱▩▫◍◪▦",
        -9.34061950177944
      ],
      [
        "▫▴◓",
        -9.340809687047365
      ],
      [
        "▁▷◪◓▨◪◞",
        -9.340812310485113
      ],
      [
        "◪▱◫◎",
        -9.342112842090636
      ],
      [
        "▁◠▦▱◠◒◎◠",
        -9.34310127622491
      ],
      [
        "◎◗▦",
        -9.343233936708849
      ],
      [
        "▁◒▴▽◫",
        -9.343985227792103
      ],
      [
        "▁◪◈▴◓",
        -9.344189640541732
      ],
      [
        "▁◝◠◳◠▦",
        -9.34439952271843
      ],
      [
        "▁◳◂▨▵",
        -9.344769162175352
      ],
      [
        "▁▨▪◓",
        -9.34578595886035
      ],
      [
        "▱◠▨",
        -9.345986179341915
      ],
      [
        "▵▮◗▢",
        -9.346150693073673
      ],
      [
        "◠◐▪",
        -9.346210210000017
      ],
      [
        "▁▢◧◓◨▦◈◠",
        -9.346499062510457
      ],
      [
        "▩◓",
        -9.346683654493592
      ],
      [
        "▁◒▴◳◗",
        -9.346922167483537
      ],
      [
        "▴◚",
        -9.348098284489677
      ],
      [
        "▁▽▴▦◫",
        -9.348210408446102
      ],
      [
        "◀◨",
        -9.348288540515014
      ],
      [
        "▁▶◠◎◠◎",
        -9.34836850705112
      ],
      [
        "▁◉◠▱▪◒◎◠",
        -9.349140410100304
      ],
      [
        "?◝◗◓",
        -9.34971804041413
      ],
      [
        "▵□",
        -9.349848246510078
      ],
      [
        "◣",
        -9.350052688581926
      ],
      [
        "▁◠◓◠◞◬▦◈◠",
        -9.35078361167989
      ],
      [
        "▁◂◈◠",
        -9.351071187403853
      ],
      [
        "◞◨▢",
        -9.351329368986127
      ],
      [
        "▁◠◈◠◎◬",
        -9.351568379153889
      ],
      [
        "▁◀◫▢◗◎",
        -9.351952303348693
      ],
      [
        "▫◧▦",
        -9.352233158741175
      ],
      [
        "▁◠▱▪▦",
        -9.354250778510167
      ],
      [
        "▁◳▩▢",
        -9.35431221242639
      ],
      [
        "◳▾",
        -9.35443289887646
      ],
      [
        "◕◫",
        -9.356186927986535
      ],
      [
        "▵◰◐◪◓",
        -9.357213647256788
      ],
      [
        "▁◠◒▨",
        -9.357345981820853
      ],
      [
        "▁◧▱◠◀◫▱◫◓",
        -9.35816991247972
      ],
      [
        "▁◞◂◓▾▦",
        -9.358220566336087
      ],
      [
        "▁◈▴◎▴▨",
        -9.359957869109067
      ],
      [
        "◞▴▨",
        -9.360407485074852
      ],
      [
        "◓◨",
        -9.361154566643453
      ],
      [
        "▁◧▦▱◠◓◠",
        -9.362424068450865
      ],
      [
        "◓◠▨",
        -9.36291882163665
      ],
      [
        "◕▴▱",
        -9.363423627305025
      ],
      [
        "▁◀◫▢◗",
        -9.363534523414568
      ],
      [
        "▭◠▽▪◓■",
        -9.363724644440637
      ],
      [
        "▁◧▱◎◠▱◬",
        -9.363767708506714
      ],
      [
        "▻▴",
        -9.36416735242112
      ],
      [
        "▵▯◠◞▪▱",
        -9.364603095200241
      ],
      [
        "▴◀◗▱◫◓",
        -9.365018997510347
      ],
      [
        "▁◕▩◚◪▦",
        -9.36556731118834
      ],
      [
        "◨▦◠",
        -9.36614534743951
      ],
      [
        "▁▭◠▽◬◓■",
        -9.36622118133996
      ],
      [
        "▁◈◠▱◕◠",
        -9.366775887676456
      ],
      [
        "▁◈◗▽▴",
        -9.368725568533781
      ],
      [
        "▁◈▴◐◗▱▵",
        -9.369145822499164
      ],
      [
        "▁◀◨▦◨▦",
        -9.369586382221376
      ],
      [
        "▁◒◪◳▱◪◓",
        -9.369599687035524
      ],
      [
        "▁◦▱",
        -9.36981034788553
      ],
      [
        "▁◳◪▦◗",
        -9.370193688546124
      ],
      [
        "▁▷",
        -9.370817808260856
      ],
      [
        "◣◓",
        -9.370848397757111
      ],
      [
        "▁◕◫▫◎◪",
        -9.370978861577509
      ],
      [
        "▁◒◠◓▨◬",
        -9.37147778479926
      ],
      [
        "▵◖◫◎◈◗",
        -9.371588802925688
      ],
      [
        "◕▴",
        -9.372099411530026
      ],
      [
        "▁◠▱◠▼◠▨",
        -9.372187884109142
      ],
      [
        "▁▨◠▱◈▪◓",
        -9.374104455895882
      ],
      [
        "◈▾▦",
        -9.374190337846647
      ],
      [
        "◨◎■",
        -9.3748695872496
      ],
      [
        "▁◕▴▦◉",
        -9.37493488295367
      ],
      [
        "▁◧▦▱◠◓◬",
        -9.375151386166849
      ],
      [
        "▭◪◓",
        -9.375631756505944
      ],
      [
        "▁◀◪",
        -9.375687464326003
      ],
      [
        "▁◞◫▱◠▷",
        -9.375969106421412
      ],
      [
        "▁◒▴◳◫",
        -9.376463446940598
      ],
      [
        "▁▱▩▫◍▴▦",
        -9.376974488198744
      ],
      [
        "▁◀◫▢◪",
        -9.377103846638493
      ],
      [
        "◈◪◓",
        -9.377263621039914
      ],
      [
        "▁◫◒◗",
        -9.377396936701214
      ],
      [
        "◗▽◂◓",
        -9.37802377105809
      ],
      [
        "▵◘",
        -9.378157809055834
      ],
      [
        "▦◕",
        -9.378332089081553
      ],
      [
        "▁◕◪▱◈◫",
        -9.378729557799208
      ],
      [
        "▁◳◭▢",
        -9.380267746091025
      ],
      [
        "▁▻◠◓▫◗",
        -9.380596695494827
      ],
      [
        "▁▨",
        -9.381182173792808
      ],
      [
        "◫◳◧◓",
        -9.381581834092621
      ],
      [
        "▾▻",
        -9.381728895552438
      ],
      [
        "◎▴◳◪",
        -9.381915202671117
      ],
      [
        "▵◌◠▨◠▫",
        -9.38200500072956
      ],
      [
        "▁◉◠◐◬◓",
        -9.382162003416369
      ],
      [
        "▁◎◠▱",
        -9.382890367696884
      ],
      [
        "▁◈◗◐▴◓",
        -9.38304700474187
      ],
      [
        "▁◀◭◳◭▨",
        -9.383297801586018
      ],
      [
        "▁◪◈◪◓",
        -9.383580156517908
      ],
      [
        "▁▫◭◓",
        -9.384493905533876
      ],
      [
        "▱◭▨",
        -9.38449656669792
      ],
      [
        "▵◝▴▦◗",
        -9.385206078341923
      ],
      [
        "▁◈▩▦◳◠",
        -9.385435750358363
      ],
      [
        "◈◗◐◗◎",
        -9.385630616651827
      ],
      [
        "▁◈◭▦◳◠",
        -9.386931194809293
      ],
      [
        "▵◚◪",
        -9.386963473534314
      ],
      [
        "▁▨◠▻",
        -9.387152379508564
      ],
      [
        "◭▢",
        -9.38746238628968
      ],
      [
        "▵◘◐◪◓",
        -9.388273002288784
      ],
      [
        "▁◠▱▫◬▦◈◠",
        -9.388674025402906
      ],
      [
        "▁▴◎◫▦",
        -9.388868400327123
      ],
      [
        "▁▢◠◎◠▦▪",
        -9.389409368145804
      ],
      [
        "◰",
        -9.38992159676018
      ],
      [
        "▵◝◗▱",
        -9.389950261382594
      ],
      [
        "◲",
        -9.390297615676467
      ],
      [
        "▵◖◗◎◈◗",
        -9.390336556701566
      ],
      [
        "▵◰◐▴◓",
        -9.391466328054591
      ],
      [
        "▁◂▱◎◠▱◬",
        -9.392256207917585
      ],
      [
        "▁◀◫▢▴",
        -9.39241710821005
      ],
      [
        "▁◫◞▫◪",
        -9.392613383150024
      ],
      [
        "▁◎◪◓◠▨",
        -9.392629863727848
      ],
      [
        "▁◠◓◠◞▪▦◈◠",
        -9.393128955941805
      ],
      [
        "▁◈◫▨▨◠▫",
        -9.393447291865492
      ],
      [
        "▁◞▴◞",
        -9.393490078849634
      ],
      [
        "▁◗◒▴",
        -9.393607362241681
      ],
      [
        "▁◀◭▫▩▦",
        -9.393824667178116
      ],
      [
        "▁◕◪▱◈◗",
        -9.394026778881916
      ],
      [
        "◬▽◧◓",
        -9.394695919608468
      ],
      [
        "▁◀▾▦◨▦",
        -9.395463777265885
      ],
      [
        "▁◠▦▱◠",
        -9.396226111228732
      ],
      [
        "▁◳◂▨◞◠",
        -9.396790904884336
      ],
      [
        "▁◧▱◠◀◫▱◗◓",
        -9.397483035850687
      ],
      [
        "▁◀◠▨◠▱◬◎",
        -9.397859742354676
      ],
      [
        "▁◞◫▢◗▦",
        -9.397878801754693
      ],
      [
        "◘◐▴◓",
        -9.397959772303434
      ],
      [
        "▁▴▫◎▴▨",
        -9.39831916211661
      ],
      [
        "▁◀◗▢▴",
        -9.398768974480188
      ],
      [
        "◎◠▽▪",
        -9.399507593686772
      ],
      [
        "▫▾◓",
        -9.402347703225336
      ],
      [
        "▁▷◠◳◠▫",
        -9.403414195359339
      ],
      [
        "▁◕▴▱◈◫",
        -9.404021781188511
      ],
      [
        "◑",
        -9.404746976090792
      ],
      [
        "▵□◠◓◠",
        -9.404901394101842
      ],
      [
        "▁◳◠▻◠▼◠▨",
        -9.405323097521478
      ],
      [
        "▁▫◪◓▨",
        -9.405852751654743
      ],
      [
        "▁○▱",
        -9.405909813350565
      ],
      [
        "▁▭◠◳◬◓■",
        -9.40592162450481
      ],
      [
        "▁◀▾▦▾▦",
        -9.405966328277863
      ],
      [
        "▁◗◒▫▴",
        -9.407188582531724
      ],
      [
        "▾◎■",
        -9.40723614885946
      ],
      [
        "▁◇◐◓◪▦",
        -9.40776865398229
      ],
      [
        "▁◗◒◗",
        -9.40778818059513
      ],
      [
        "▁▫◠▦◬",
        -9.409720595251612
      ],
      [
        "▁◉◠▱◬◒◎◠",
        -9.41036903106353
      ],
      [
        "▁◀◭▽▩▨",
        -9.410964011511258
      ],
      [
        "◇◓",
        -9.411084000042766
      ],
      [
        "▁◞◭◓◪",
        -9.412015719481776
      ],
      [
        "▴▼▴◐◗◎",
        -9.41246897980156
      ],
      [
        "▭▴◓",
        -9.41289676631682
      ],
      [
        "▴▽",
        -9.413991470271778
      ],
      [
        "▁◀◪▨▱◪",
        -9.414154466983812
      ],
      [
        "▫▫",
        -9.414842584389476
      ],
      [
        "▽◈◬",
        -9.41492179808905
      ],
      [
        "▽◬◎",
        -9.415308278138976
      ],
      [
        "▁▷◠▽◬◓",
        -9.415595532450382
      ],
      [
        "▁◈◗◳▴",
        -9.416205037517308
      ],
      [
        "'▾",
        -9.416435604306887
      ],
      [
        "◟",
        -9.416528846023972
      ],
      [
        "▫◭",
        -9.416754123041574
      ],
      [
        "'◈▴▦",
        -9.418593329750122
      ],
      [
        "▨◠▦",
        -9.419024548634905
      ],
      [
        "▁◗▢▱▴",
        -9.419193412682322
      ],
      [
        "▁◞◭◓▴",
        -9.419371021544002
      ],
      [
        "▁▼◪◚◠▻",
        -9.419615173230204
      ],
      [
        "▁◀◗▢◗",
        -9.419895286009659
      ],
      [
        "▁◉",
        -9.419965277812242
      ],
      [
        "▁◠▦▼◠▨",
        -9.420102879108054
      ],
      [
        "?▿",
        -9.420224953922364
      ],
      [
        "▁◕◪▦◉",
        -9.420816777537063
      ],
      [
        "▁◠▢◬▦◈◠▦",
        -9.421049783955592
      ],
      [
        "▁▨◠▢◠",
        -9.421542337716627
      ],
      [
        "▁▷◂◒▱◠▦",
        -9.422146302534339
      ],
      [
        "◈◫◐◗",
        -9.422719434187904
      ],
      [
        "▁◠◎◠▵▵▵",
        -9.422891759007012
      ],
      [
        "▁◠◓▨◠◈◠◒◬◎",
        -9.423574776105609
      ],
      [
        "▁▨◠▱◠▦",
        -9.424228838383446
      ],
      [
        "▁◒◠▨◠",
        -9.425418531448218
      ],
      [
        "▵◝▴▦◫",
        -9.425928741126306
      ],
      [
        "▁◣▦",
        -9.428204184471486
      ],
      [
        "◠◀◗▱",
        -9.428271494326545
      ],
      [
        "◞◪▨",
        -9.428607035501393
      ],
      [
        "◎▴◳▴",
        -9.429085396220078
      ],
      [
        "▁▭◠◳▪◓",
        -9.42986461960087
      ],
      [
        "▱◪◓▵",
        -9.430056248431256
      ],
      [
        "◪◚",
        -9.430407736408025
      ],
      [
        "▁▨▾◓",
        -9.43090172997471
      ],
      [
        "▁▴◎◗▦",
        -9.43158240713337
      ],
      [
        "▪▼◬",
        -9.431697412839348
      ],
      [
        "▨◠▱",
        -9.432281701328401
      ],
      [
        "◪◀◗▱◗◓",
        -9.434484534361388
      ],
      [
        "▁◕▩◚▴▦",
        -9.435202575232971
      ],
      [
        "◞◫▦◫▢",
        -9.435418095483769
      ],
      [
        "▁◈▾◳",
        -9.436014767010196
      ],
      [
        "▵◝◗◓◠▢",
        -9.436685338383482
      ],
      [
        "▁◠◈◬◎",
        -9.436698917720644
      ],
      [
        "▁◞◗▢◗▦",
        -9.436753400527657
      ],
      [
        "▁▷◠▽◠▫",
        -9.436926934305989
      ],
      [
        "▁▽◠▦",
        -9.437024898763424
      ],
      [
        "▁◠◞▱◬▦◈◠",
        -9.437070990536366
      ],
      [
        "▁▮◠",
        -9.437113546634823
      ],
      [
        "◞▪▦▵",
        -9.437754434772282
      ],
      [
        "▁◕◪◉▫◗",
        -9.43913343186874
      ],
      [
        "▁▽▴▦◗",
        -9.439905310969046
      ],
      [
        "▁◉◠◐▪◓",
        -9.440367107207447
      ],
      [
        "▵▮◪▦◗▦",
        -9.441909512335627
      ],
      [
        "▁▭◪◓",
        -9.442187253839293
      ],
      [
        "▁◠▱◬▦",
        -9.442601419829952
      ],
      [
        "▁◂▱◠◀◗▱◫◓",
        -9.442611196178532
      ],
      [
        "▾▦▾",
        -9.442731359045364
      ],
      [
        "!\"",
        -9.442959888445257
      ],
      [
        "▁◨▢▾▦",
        -9.445084674945111
      ],
      [
        "▁▨◂▦▾◒◎◠",
        -9.445816575818817
      ],
      [
        "◠'▦◬▦",
        -9.445871087686466
      ],
      [
        "◞◫▦◈▴",
        -9.446610222365827
      ],
      [
        "◪◳",
        -9.44717255334905
      ],
      [
        "▴▼◪◐◗◎",
        -9.447799267019874
      ],
      [
        "▁▽◧▨▵",
        -9.447820549685304
      ],
      [
        "'◳◠",
        -9.447983111399841
      ],
      [
        "▁◀▩▫◭▦",
        -9.448172050090466
      ],
      [
        "▁◀▩▫▩▦",
        -9.448446289182138
      ],
      [
        "▵◅",
        -9.449333992068482
      ],
      [
        "▫▪▨",
        -9.44975414038625
      ],
      [
        "▁□",
        -9.449844392888677
      ],
      [
        "▁6",
        -9.449971050582917
      ],
      [
        "▁▾▢▾▦",
        -9.449978858972738
      ],
      [
        "▁◂▱◠◀◗▱◗◓",
        -9.450003276194526
      ],
      [
        "▁▷◠▱◈▴",
        -9.450270989704503
      ],
      [
        "▁◕◣▦◈▴◓",
        -9.451202450344208
      ],
      [
        "▁◪◎◗▦",
        -9.451691012727878
      ],
      [
        "a",
        -9.451875020676447
      ],
      [
        "◝◨◓◠◈◠",
        -9.452226163401303
      ],
      [
        "▁◠◈◬",
        -9.452870498502904
      ],
      [
        "▁▽◪▦◗",
        -9.453200100307594
      ],
      [
        "◠▼◠◐▪▢",
        -9.453691901734038
      ],
      [
        "▁◈◗▽◪",
        -9.456534573259665
      ],
      [
        "▮◠◈◪▼◪",
        -9.45701196232894
      ],
      [
        "▁◀◠◒▱◠◈▪",
        -9.457745284756761
      ],
      [
        "'▽◠",
        -9.457989466078317
      ],
      [
        "▁◎▴◓◠▨",
        -9.459155586296118
      ],
      [
        "◠'▦▪▦",
        -9.459613930655538
      ],
      [
        "▁◀▩▽▩▨",
        -9.460542806284849
      ],
      [
        "▁◳◠◒◠",
        -9.460987771341745
      ],
      [
        "◝◨▦◠",
        -9.461669348150787
      ],
      [
        "◪◀◫▱◗◓",
        -9.461693016437739
      ],
      [
        "▁◕◗▫▫◫",
        -9.461848391076977
      ],
      [
        "▾▦◨",
        -9.462378817973265
      ],
      [
        "▁▷◪◓▨▴◞",
        -9.46342234239999
      ],
      [
        "▁◞◬▨",
        -9.464604509656734
      ],
      [
        "◎◫▦",
        -9.465193221710468
      ],
      [
        "▵◝◠◀◠◎",
        -9.465850199688198
      ],
      [
        "◞◗▦◫▢",
        -9.465932733140082
      ],
      [
        "◎▴◞◗",
        -9.46656186975425
      ],
      [
        "▁◨▢◨▦",
        -9.467158261758186
      ],
      [
        "◨▦▾",
        -9.46720367008679
      ],
      [
        "▁◕◣◓◎◪▨",
        -9.467902131540795
      ],
      [
        "▱◂",
        -9.46823872909356
      ],
      [
        "▁▨◠▱▨",
        -9.468858556071979
      ],
      [
        "▁◀▾▦◈◠▦",
        -9.469554428524255
      ],
      [
        "◎◠▽◬",
        -9.470813610527589
      ],
      [
        "▁◞▩◓◪",
        -9.471137964449989
      ],
      [
        "▁◌",
        -9.471202098824731
      ],
      [
        "▵◊◳◫",
        -9.471264888520295
      ],
      [
        "◠▼◠◐◬▢",
        -9.471364133897264
      ],
      [
        "▁◈◗◐◪◓",
        -9.471450818871759
      ],
      [
        "▁◂▦◈◠▦",
        -9.472608357017062
      ],
      [
        "▁◠◈▪",
        -9.474273441457175
      ],
      [
        "▵◝◪▱▨◗",
        -9.475399136933472
      ],
      [
        "▁▢◠◎◠▦▱◠◓",
        -9.475772919602132
      ],
      [
        "▵▮▴▦◫▦",
        -9.475968350405346
      ],
      [
        "▁◳▴▦◗",
        -9.476947570028663
      ],
      [
        "▁◢◠",
        -9.477773003080541
      ],
      [
        "▢◫",
        -9.479130216513642
      ],
      [
        "▢◗",
        -9.479603505833278
      ],
      [
        "▁◀◂◒",
        -9.479893414416928
      ],
      [
        "▁◙◠",
        -9.48006315133114
      ],
      [
        "◞▪▦▪▢",
        -9.48022650883269
      ],
      [
        "▱▴▫",
        -9.480377818846804
      ],
      [
        "◘◐◪◓",
        -9.480682461463273
      ],
      [
        "▁◳◧▨◞◠",
        -9.480737817344984
      ],
      [
        "▁◀◨▦▾▦",
        -9.481310645487678
      ],
      [
        "▁▶◠",
        -9.481789943070655
      ],
      [
        "▁◎▩?",
        -9.481927364434316
      ],
      [
        "▁▨◂▦▫◓◂▱",
        -9.482398063682552
      ],
      [
        "▁◕◭◉",
        -9.482838203001716
      ],
      [
        "▁▨◧◳",
        -9.482880586705708
      ],
      [
        "▁◕▩◉",
        -9.48306755726706
      ],
      [
        "◎▴▽▴",
        -9.48317759364651
      ],
      [
        "▁◳◭▢◈◪▦",
        -9.483203324836646
      ],
      [
        "▦▾",
        -9.483894501356314
      ],
      [
        "▾◎▵►",
        -9.485041375504135
      ],
      [
        "▁▨◧▱",
        -9.486023338477892
      ],
      [
        "▯",
        -9.486719449663351
      ],
      [
        "◎◪◞◗",
        -9.486721811267287
      ],
      [
        "▁◠◈▪◎",
        -9.486801314019445
      ],
      [
        "▁▦▾◎◠◓◠",
        -9.48709208406185
      ],
      [
        "▵▶◭◎",
        -9.487609298006294
      ],
      [
        "▁◞◫▢▴",
        -9.48975084318081
      ],
      [
        "▼◠▨",
        -9.490136536695879
      ],
      [
        "◈◗◐◗",
        -9.490175263479491
      ],
      [
        "▁▭▴◓",
        -9.490314263282922
      ],
      [
        "◗◎◫",
        -9.49061248094645
      ],
      [
        "▁◈▾▽",
        -9.491467426098513
      ],
      [
        "▁◚◨◓",
        -9.491948075888459
      ],
      [
        "◉▪",
        -9.491985305971234
      ],
      [
        "◪▼▴◐◫◎",
        -9.492032848360724
      ],
      [
        "▁◡◠▼▨",
        -9.492726776698397
      ],
      [
        "a▱a",
        -9.493047056867699
      ],
      [
        "▵◄◠",
        -9.494203253791918
      ],
      [
        "◈◫◐◗▦",
        -9.494866982167888
      ],
      [
        "▁◧▱◠◀◗▱◗◓",
        -9.494923964351726
      ],
      [
        "▫◧",
        -9.495000135567485
      ],
      [
        "◞◨▦▾▢",
        -9.495211606086269
      ],
      [
        "▁▼◠▦",
        -9.495485921177835
      ],
      [
        "◞◗▦◈◪",
        -9.495620640112143
      ],
      [
        "◕◠▦",
        -9.495825678367192
      ],
      [
        "◡",
        -9.495835271967895
      ],
      [
        "▁▭◠",
        -9.49596489558133
      ],
      [
        "◓▾",
        -9.49604366003351
      ],
      [
        "◠◐◬",
        -9.496348316680294
      ],
      [
        "▁◕◭◚▴▦",
        -9.497235809551501
      ],
      [
        "◎◠◳▪",
        -9.497729909442729
      ],
      [
        "▢▴",
        -9.497814175362954
      ],
      [
        "▁◇▱",
        -9.497961151441269
      ],
      [
        "!◝▾",
        -9.498132078536855
      ],
      [
        "▁◎◠◞◠",
        -9.498302104766427
      ],
      [
        "▫▪▦",
        -9.49898747620006
      ],
      [
        "◕◪▱",
        -9.499147926728508
      ],
      [
        "◤◠",
        -9.499197449508483
      ],
      [
        "▁◠◞▱▪▦◈◠",
        -9.499901926864219
      ],
      [
        "◞◠▦◠",
        -9.500681514965438
      ],
      [
        "▁◗◒◪",
        -9.501150772875897
      ],
      [
        "◞◫▦◈◪",
        -9.501584831637242
      ],
      [
        "▁◞◗▢▴",
        -9.501916024279797
      ],
      [
        "▁▻◠◓▫◫",
        -9.502310700448135
      ],
      [
        "▁◀◗▢◫",
        -9.502712094341813
      ],
      [
        "▁▷◠▨▱◬",
        -9.502951366558793
      ],
      [
        "▩▻",
        -9.50345302747997
      ],
      [
        "◰◐◪◓",
        -9.503902025310484
      ],
      [
        "▁!",
        -9.50448385862435
      ],
      [
        "▁◟◠",
        -9.50523760065671
      ],
      [
        "▁▨◧▦▫◓◧▱",
        -9.505385645814933
      ],
      [
        "◍◍",
        -9.505551554344109
      ],
      [
        "▁◀◪◓◫",
        -9.505680019695124
      ],
      [
        "▁◠◈◠◎▱◠◓",
        -9.507360079129523
      ],
      [
        "▵▶▴▨",
        -9.507571589998816
      ],
      [
        "▵▶◠◎◠◎",
        -9.50816218597187
      ],
      [
        "▁◪◒",
        -9.50831308235772
      ],
      [
        "◪◞",
        -9.510096471397471
      ],
      [
        "▵◤",
        -9.510255700709706
      ],
      [
        "▁◕◇◓◎▴▨",
        -9.510430962724016
      ],
      [
        "'◈◪▦",
        -9.511407973138468
      ],
      [
        "▁◞▪▨",
        -9.511630137156917
      ],
      [
        "▁◀▴◒",
        -9.511666923608267
      ],
      [
        "▁◚◠◓◈◬▵",
        -9.51210581452441
      ],
      [
        "▴▱◗◎",
        -9.512172987100941
      ],
      [
        "▁▽▩▢",
        -9.512542532011551
      ],
      [
        "▁◕◪◓◉◪▨▫◪▦",
        -9.512591424649184
      ],
      [
        "◞▩▦",
        -9.513120521374976
      ],
      [
        "▵○▱",
        -9.51415427231435
      ],
      [
        "▶◠▦◓▪◎■",
        -9.514419327221319
      ],
      [
        "▵◘▱",
        -9.514824055105297
      ],
      [
        "▁◞◪◉",
        -9.515067038102895
      ],
      [
        "▁▷◧◒▱◠▦",
        -9.516177784302517
      ],
      [
        "▁◝◠◒▨◠",
        -9.5161782027524
      ],
      [
        "▁◉▪▨◎◠",
        -9.517079457302408
      ],
      [
        ")",
        -9.51739386695688
      ],
      [
        "▴◳",
        -9.517619602538854
      ],
      [
        "▁▲◠",
        -9.517631295942797
      ],
      [
        "▁◍◗▱◎",
        -9.518242278279562
      ],
      [
        "◓◪▫",
        -9.518854633663342
      ],
      [
        "▱▪◐▪",
        -9.51984346931217
      ],
      [
        "◞◭▦",
        -9.520200587907365
      ],
      [
        "▁◳◠▦",
        -9.520379586481182
      ],
      [
        "▵◰",
        -9.520818168051441
      ],
      [
        "▁◠◈◠◎▪▦",
        -9.520907370285673
      ],
      [
        "▴▼▴◐◫◎",
        -9.520919506803871
      ],
      [
        "▁◎▪◞◬▦?",
        -9.521028822127098
      ],
      [
        "◎▴◞◫",
        -9.52107591300538
      ],
      [
        "▁◠◗▱▴",
        -9.52150453815338
      ],
      [
        "▁▭◠▽▪◓■",
        -9.522004097758913
      ],
      [
        "▁◀◨▦▱◠◓",
        -9.522234562504993
      ],
      [
        "▁◚◪◓◎◪",
        -9.52338474871747
      ],
      [
        "▶◠▫▱▪◎!▶◠▫▱▪◎!",
        -9.523454475405972
      ],
      [
        "▁▨◂▦▫◓◧▱",
        -9.523457785378836
      ],
      [
        "▁◞◠◉",
        -9.523842927562399
      ],
      [
        "▫◂▦",
        -9.523969250775153
      ],
      [
        "▁▷◪◎▴▦",
        -9.524265747407881
      ],
      [
        "▁◈◫◐◪◓",
        -9.52449113076003
      ],
      [
        "▁▼▴◚◠▻",
        -9.524870889953949
      ],
      [
        "▁◳▩▢◈▴▦",
        -9.525085425432255
      ],
      [
        "▱◎◠",
        -9.525236173812017
      ],
      [
        "▱▴◒",
        -9.52539497829223
      ],
      [
        "▁◞◭◓",
        -9.525726753603177
      ],
      [
        "▁▾▢◨▦",
        -9.525747897386433
      ],
      [
        "◪◀◗▱◫◓",
        -9.52593563475224
      ],
      [
        "▵◝▴▱▨◗",
        -9.526209307912108
      ],
      [
        "▁▽◠▫",
        -9.526977256803752
      ],
      [
        "◎◠▽◠▼◠▨",
        -9.527355940075331
      ],
      [
        "▱◗◐◗",
        -9.52824028351423
      ],
      [
        "▁◕◇▦◈▴◓",
        -9.528867772413555
      ],
      [
        "▱▪◐◬",
        -9.52918822284635
      ],
      [
        "▭◠◓◫▨◠▽◈▪▵",
        -9.529557540214611
      ],
      [
        "▁◞◫▢◫▦",
        -9.52976503223314
      ],
      [
        "▁▷◪◎◪▦",
        -9.530396677031401
      ],
      [
        "▁◧▦◈◠▦",
        -9.53190671110102
      ],
      [
        "▁◞◂◓▾",
        -9.532155262095909
      ],
      [
        "▁◧▱◠◀◗▱◫◓",
        -9.532201485681673
      ],
      [
        "◠◈",
        -9.532263097117637
      ],
      [
        "◞◞",
        -9.533146533014559
      ],
      [
        "▁◂▱◎◠▱▪",
        -9.533170729712051
      ],
      [
        "▱◧",
        -9.534097023805316
      ],
      [
        "◈◗◓▵",
        -9.534243882543223
      ],
      [
        "▁◳◪▦◫",
        -9.534934522372376
      ],
      [
        "▁▨◠▱◈◬◓",
        -9.535550891318948
      ],
      [
        "◢◨◞◨◓◠",
        -9.535687055323184
      ],
      [
        "▴◀◫▱",
        -9.535817641170542
      ],
      [
        "▁▷◠▽▪◓",
        -9.535978961941726
      ],
      [
        "▁▨◠▱▻",
        -9.536336580023239
      ],
      [
        "◗▦◗▦",
        -9.536538523335757
      ],
      [
        "▁?",
        -9.536812921931903
      ],
      [
        "▁◠▦▱◠◎◬",
        -9.536818166281734
      ],
      [
        "▽▪◎",
        -9.537288195020302
      ],
      [
        "▁◈◫",
        -9.537541301082008
      ],
      [
        "◫▦◫▦",
        -9.538004056918238
      ],
      [
        "▁◞◪◞",
        -9.539378331802043
      ],
      [
        "◎◠◎▪▢",
        -9.539393161084973
      ],
      [
        "▁▨◧▦▾◒◎◠",
        -9.540076542993221
      ],
      [
        "◰◚▴▫■",
        -9.540411277655888
      ],
      [
        "◈◂",
        -9.540600386399216
      ],
      [
        "▁◙◓▵",
        -9.541482526109895
      ],
      [
        "▁◠▱▫",
        -9.541841505806222
      ],
      [
        "▁▨◧▦▫◓◂▱",
        -9.54221395363963
      ],
      [
        "▁▫◠◒",
        -9.542350977969832
      ],
      [
        "▁◕◣◓◎▴▨",
        -9.542365608853327
      ],
      [
        "▁◕▴◓◉▴▨▫▴▦",
        -9.542576610430402
      ],
      [
        "◪▼◪◐◗◎",
        -9.54287994199926
      ],
      [
        "▾▦◈◠",
        -9.54318973955062
      ],
      [
        "▁▫◠◓◠◍▫◠▦",
        -9.543194043307672
      ],
      [
        "◳◂◓",
        -9.543766213292997
      ],
      [
        "▵◝◠▽",
        -9.544831400347618
      ],
      [
        "◈◫◐◫",
        -9.546492475308842
      ],
      [
        "▁◞",
        -9.54950388793318
      ],
      [
        "▁▽◭▢◈◪▦",
        -9.550503864932466
      ],
      [
        "▱▴◓◈▴",
        -9.55127966899676
      ],
      [
        "▦◨▦",
        -9.552896501000959
      ],
      [
        "◎◠◳◠▼◠▨",
        -9.55344537622404
      ],
      [
        "▵◆▴▱",
        -9.553609707575756
      ],
      [
        "▫◬◎",
        -9.553703099741675
      ],
      [
        "▁◳▴▦◫",
        -9.554251451061905
      ],
      [
        "▁◎▾▫▱◨",
        -9.554283687448113
      ],
      [
        "▽◗▦",
        -9.554491207697243
      ],
      [
        "◈◨▨",
        -9.555025520206447
      ],
      [
        "▱◫◐◗",
        -9.555034246882592
      ],
      [
        "▁◀◧◒",
        -9.555728347309728
      ],
      [
        "◫◎◫",
        -9.555869053514712
      ],
      [
        "▵◱▦◨▦",
        -9.555890579648343
      ],
      [
        "◗◎◗",
        -9.556777654963179
      ],
      [
        "▁◚▴◓◎◪",
        -9.556807805313879
      ],
      [
        "◅◭▦▨▩",
        -9.556909551348749
      ],
      [
        "◗▦◫▦",
        -9.556944096201995
      ],
      [
        "▽▪▦",
        -9.5576603178678
      ],
      [
        "▁▷◠◳▪◓",
        -9.557786135477322
      ],
      [
        "▁▱◭▫◍▴▦",
        -9.558044299402592
      ],
      [
        "▁▽◭▢",
        -9.559782152457347
      ],
      [
        "▁◚◠◓▵◝◫◓",
        -9.56002369290503
      ],
      [
        "▁◗◞▫◪",
        -9.560563425229496
      ],
      [
        "◅",
        -9.560770105885219
      ],
      [
        "▁◀◪◓◗",
        -9.560930153058038
      ],
      [
        "◉◧▨",
        -9.561163616825084
      ],
      [
        "▵◠◎◠",
        -9.562016619334639
      ],
      [
        "◎◗◒▫◗",
        -9.562810020156011
      ],
      [
        "▁◞◠▨▱◠▦",
        -9.56321148053231
      ],
      [
        "▁◈◪◐◗▱▵◝▾",
        -9.563482050235452
      ],
      [
        "▁◪◐◪◓",
        -9.564062983472649
      ],
      [
        "▁◙◪",
        -9.564999319979895
      ],
      [
        "▁▷◠◳◬◓",
        -9.565051354558712
      ],
      [
        "▁▤◧",
        -9.565405166078556
      ],
      [
        "▁◉◬▨◎◠",
        -9.565842664614573
      ],
      [
        "▵▭◠▱◠",
        -9.566220066693223
      ],
      [
        "▁◧▱◎▾◒",
        -9.566954020739109
      ],
      [
        "▁◕◠◓◗▻",
        -9.566993187108569
      ],
      [
        "▁◘◚◪▫",
        -9.567092948443523
      ],
      [
        "▁◕◭◚◪▦",
        -9.567259492171573
      ],
      [
        "▁◞◨◉",
        -9.567313931758875
      ],
      [
        "▁▯◠",
        -9.567401791717076
      ],
      [
        "◭▫▩▦",
        -9.567636275334685
      ],
      [
        "▁◈◗▦▱◪",
        -9.56838148980529
      ],
      [
        "▱▴◓◈◪",
        -9.568670764374167
      ],
      [
        "▁◂▦▱◠◓◠",
        -9.56869096526345
      ],
      [
        "▁◳◠▦◗",
        -9.568752348403377
      ],
      [
        "▵◝◠◳",
        -9.568813921305392
      ],
      [
        "▪◎◬",
        -9.569142934136995
      ],
      [
        "▁▷▴◎",
        -9.569863717071094
      ],
      [
        "▁▴◐▴◓",
        -9.570045930836415
      ],
      [
        "▁◞◗▢◪",
        -9.570097643756625
      ],
      [
        "▵◦▱",
        -9.570356158698118
      ],
      [
        "▽◗◎",
        -9.57146921942695
      ],
      [
        "◎◫▽◧◓",
        -9.572642799733709
      ],
      [
        "▁◕◣◓▩◒▩◓◭▢",
        -9.573308889506539
      ],
      [
        "▁◍◗▨◗◓",
        -9.573311720100207
      ],
      [
        "▁◧▦▱◠◓▪",
        -9.573353963836336
      ],
      [
        "▁◝◠",
        -9.573552950006892
      ],
      [
        "▁◞◗▢◫▦",
        -9.573631298146113
      ],
      [
        "▁◀◨▦◈◠▦",
        -9.573734683173509
      ],
      [
        "▁▫◠▨◗▻",
        -9.573903388325311
      ],
      [
        "▁▨◂▱◠◳",
        -9.573973591991443
      ],
      [
        "▱▴◓◫◎",
        -9.574474962392756
      ],
      [
        "▁▽▩▢◈▴▦",
        -9.574778103595026
      ],
      [
        "▁◠◈◠◎◬▦",
        -9.575769738414973
      ],
      [
        "▁▨◠▱◎◠▨",
        -9.576627536237105
      ],
      [
        "▵◟◠▦◗",
        -9.577262438820782
      ],
      [
        "▽◞◪",
        -9.577748974857426
      ],
      [
        "◎◗◒▫◫◎",
        -9.578281131746635
      ],
      [
        "▵◢◫◎",
        -9.57879298906986
      ],
      [
        "▩▦▩",
        -9.579344374903581
      ],
      [
        "◳▪◎",
        -9.580024977494716
      ],
      [
        "◎◪▽◪",
        -9.580455432193203
      ],
      [
        "▁▨◠▫▪▱",
        -9.58050312000607
      ],
      [
        "▁◳◠▫",
        -9.581897028726207
      ],
      [
        "▯◪◈◪▦",
        -9.583110005359774
      ],
      [
        "▁◧▱◎◠◞▪",
        -9.584686992478986
      ],
      [
        "▁◕◗▫◎▴",
        -9.584798367836184
      ],
      [
        "▵◰▱",
        -9.584980005752623
      ],
      [
        "▁▫◠◎◠◎◪▦",
        -9.5857928742303
      ],
      [
        "◞◗▦◈▴",
        -9.585872968097123
      ],
      [
        "▁◀▴◓◗",
        -9.586435768779527
      ],
      [
        "▁◪◞▨◗",
        -9.58651497132841
      ],
      [
        "▁▷◪◎",
        -9.586889383513025
      ],
      [
        "▵◲◒▫◪",
        -9.586907372345216
      ],
      [
        "▵▭◠◈◫",
        -9.58713895226079
      ],
      [
        "▁▷▴◓▨▴◞",
        -9.588423653071999
      ],
      [
        "▵▮◠▦▪◓◬◎",
        -9.588578319222574
      ],
      [
        "?◦◎◠",
        -9.589457948099591
      ],
      [
        "▁▽◠▻◠◓",
        -9.5904978464627
      ],
      [
        "◈▴◓",
        -9.590914735240364
      ],
      [
        "▵◝▴▱▨◫",
        -9.591232057629032
      ],
      [
        "▁◗▦",
        -9.591668950391739
      ],
      [
        "◠◎◠◎",
        -9.59265537880138
      ],
      [
        "▁◞◠◉◎◠",
        -9.592816810081127
      ],
      [
        "▁◞◠▦◬◓◬◎",
        -9.592884802966278
      ],
      [
        "◎◭◒",
        -9.592917845547802
      ],
      [
        "▁◂▱◠◳",
        -9.592945248302758
      ],
      [
        "▁▫▴◓▨",
        -9.592972214032667
      ],
      [
        "▁▫◪",
        -9.593737402351092
      ],
      [
        "◎◪◞◫",
        -9.594220565069161
      ],
      [
        "▁▷◠▱◈◪",
        -9.595343722922703
      ],
      [
        "▁◂▱◎◠◈◠▦",
        -9.595601671506923
      ],
      [
        "◈▾▨",
        -9.595660042252355
      ],
      [
        "'▱▴",
        -9.596147789177861
      ],
      [
        "▵◚▴",
        -9.596170912230034
      ],
      [
        "▵◊◳◗",
        -9.596500529178755
      ],
      [
        "◞▾▦◨▢?",
        -9.59658688846978
      ],
      [
        "▵◙▴",
        -9.596698232521202
      ],
      [
        "▱◠◎◠▨",
        -9.59688365598975
      ],
      [
        "◘◚▴▫■",
        -9.597857551131021
      ],
      [
        "◓◠◳◠",
        -9.597978826010372
      ],
      [
        "◬▼▪",
        -9.598203319125634
      ],
      [
        "▁▨◧",
        -9.598278736227158
      ],
      [
        "▁◕◗▫◎◪",
        -9.598846428309322
      ],
      [
        "◞◬▦▪▢",
        -9.599075245231795
      ],
      [
        "◊",
        -9.599363052663728
      ],
      [
        "▁◕◫◳",
        -9.59995164447464
      ],
      [
        "#",
        -9.600040588343393
      ],
      [
        "▁◳◭▢◈▴▦",
        -9.600912851616947
      ],
      [
        "▱◗◐◫",
        -9.601314340523771
      ],
      [
        "▁◀◫▢◫",
        -9.601502318889581
      ],
      [
        "◪▼◪◐◫◎",
        -9.601694062014293
      ],
      [
        "▁▽◭▢◈▴▦",
        -9.601749411360423
      ],
      [
        "◳◧◓",
        -9.602789746870206
      ],
      [
        "▵◲",
        -9.603680692079749
      ],
      [
        "◎◠◞▪▦◠",
        -9.603897170847924
      ],
      [
        "▁◕◇▫▩◓",
        -9.604388932673928
      ],
      [
        "▁◕◣▦◈◪◓",
        -9.605179497595628
      ],
      [
        "▱▱",
        -9.605326693191898
      ],
      [
        "◬◎◬",
        -9.60562731123413
      ],
      [
        "▁▨◠▫◬▱",
        -9.605800834769576
      ],
      [
        "◅◂▼▾▨▱◠◓?",
        -9.606295676319267
      ],
      [
        "▁◚◠◓◈▪◓",
        -9.606742802535962
      ],
      [
        "▫▪◎",
        -9.608084822977933
      ],
      [
        "▁◕◫◈",
        -9.608183539114492
      ],
      [
        "▁◞◫▢◪",
        -9.60864863946216
      ],
      [
        "▁▾▢◠▨",
        -9.60882252874843
      ],
      [
        "◐◠",
        -9.609277603364035
      ],
      [
        "▁◙▴",
        -9.60958566913941
      ],
      [
        "▱▴◓◈▴▦",
        -9.610110161863116
      ],
      [
        "▁◇▦",
        -9.610410099648604
      ],
      [
        "◗◞▫",
        -9.611032905339796
      ],
      [
        "▁◣▢▴▱",
        -9.611052553029594
      ],
      [
        "◨◎▵►",
        -9.611266101118416
      ],
      [
        "▁◠◗▱◪",
        -9.611457234422733
      ],
      [
        "▁▶◠◎◠◎■",
        -9.611863822975764
      ],
      [
        "▵▶▩◎",
        -9.61220839542465
      ],
      [
        "▁◕◣◓◎▴",
        -9.612460577309157
      ],
      [
        "▁▨◬◞◠",
        -9.612769395236146
      ],
      [
        "◈◳",
        -9.61277450777894
      ],
      [
        "▁▱◠▦◪▫",
        -9.612805753726533
      ],
      [
        "▁▫◠▨◫▻",
        -9.612835303447504
      ],
      [
        "▵◊◒▫▴",
        -9.613227589281214
      ],
      [
        "◭▦◭",
        -9.613302597405806
      ],
      [
        "▁◧▱◎◠◞◬",
        -9.613404527262176
      ],
      [
        "▱▴◓◗◎",
        -9.61402910638858
      ],
      [
        "◞◬▦◬▢",
        -9.614062229453692
      ],
      [
        "▁◉◠▦▫◠",
        -9.61418821877358
      ],
      [
        "▱◠▦◎◠",
        -9.614482456646446
      ],
      [
        "▁◚▾◓",
        -9.614496233799379
      ],
      [
        "'▱◪",
        -9.61462089245413
      ],
      [
        "◞▾▦◨▢",
        -9.615057404493035
      ],
      [
        "?▯◠◞◬▱",
        -9.615088296276063
      ],
      [
        "◠▽▪◎",
        -9.615225725784471
      ],
      [
        "▁▨◂▱",
        -9.615406647241155
      ],
      [
        "◳◞◪",
        -9.616582172181179
      ],
      [
        "▁▴◈◪◓",
        -9.61720503054589
      ],
      [
        "▱◬◐▪",
        -9.61724275977634
      ],
      [
        "▵◙◪",
        -9.617659002016854
      ],
      [
        "◬▼◬",
        -9.618537841952374
      ],
      [
        "▁▷◠▽◠▫▫◠",
        -9.61864244974897
      ],
      [
        "▁▫◧▻▱◠",
        -9.618790876757439
      ],
      [
        "◎◠◳◬",
        -9.618882823476472
      ],
      [
        "▁◄◠◓",
        -9.618919272396774
      ],
      [
        "▁◠◗▫",
        -9.619242154215474
      ],
      [
        "◎◈◠▦",
        -9.62036016486583
      ],
      [
        "◚◠◓",
        -9.621047208656181
      ],
      [
        "▁◕▴▱▴▦",
        -9.621983316725903
      ],
      [
        "◪▱◗◎",
        -9.622343467217664
      ],
      [
        "'◨",
        -9.623838204044862
      ],
      [
        "▁◫▢▱◪",
        -9.624553073124797
      ],
      [
        "◭▫◭▦",
        -9.625023588767725
      ],
      [
        "▁◉◬▨▫▪",
        -9.625430602528528
      ],
      [
        "▁*",
        -9.625559000660935
      ],
      [
        "▁◕▴◓◉◪▨▫▴▦",
        -9.626141581655483
      ],
      [
        "▵▿◓◠◈◠",
        -9.62644673160947
      ],
      [
        "▁▷▴◎◪▦",
        -9.626714332253723
      ],
      [
        "2",
        -9.626855387898178
      ],
      [
        "◳◬◎",
        -9.626995296039489
      ],
      [
        "▁▽▩▢◈◪▦",
        -9.627225879046287
      ],
      [
        "◠▽◬◎",
        -9.627379259524321
      ],
      [
        "▁◧▱◠◳",
        -9.62782475737383
      ],
      [
        "◞▪▦◬▢",
        -9.628184022462293
      ],
      [
        "▁◀◗",
        -9.628845825838173
      ],
      [
        "▁▨◬◓",
        -9.630457158464962
      ],
      [
        "▁▫◠▨▪▱",
        -9.630713997838066
      ],
      [
        "▁◧▦◨▦▱◠",
        -9.631241968395535
      ],
      [
        "▁▨◠◉▪◓",
        -9.631340630080494
      ],
      [
        "▴◀◗▱◗◓",
        -9.63240171804927
      ],
      [
        "▁◕◇▦◈◪◓",
        -9.632820617568619
      ],
      [
        "▁◪◞▨◫",
        -9.632881272324672
      ],
      [
        "▁▷▴◎▴▦",
        -9.63343986675017
      ],
      [
        "◠◞",
        -9.63344269985139
      ],
      [
        "▁◳▩▢◈◪▦",
        -9.634235689442637
      ],
      [
        "◪▽",
        -9.635825476667673
      ],
      [
        "?▮◠▦◠",
        -9.636964880380336
      ],
      [
        "▩▦◭",
        -9.637025087809521
      ],
      [
        "▁▷▴◓▨◪◞",
        -9.638229108481692
      ],
      [
        "◎▪▽◧◓",
        -9.638422986097044
      ],
      [
        "▁▫◠◎◠◎▴▦",
        -9.638702881019956
      ],
      [
        "▨▫◪▦",
        -9.639192966629889
      ],
      [
        "◀◪◓",
        -9.640085571570136
      ],
      [
        "▪◎▪",
        -9.64115674441814
      ],
      [
        "▁▴▫▫◫",
        -9.641653359437221
      ],
      [
        "▁▽◠◒▪▦◈◠",
        -9.64166445207228
      ],
      [
        "▁▽◠▻◠▼◠▨",
        -9.642270220872923
      ],
      [
        "◈◬◓▵",
        -9.642415449333523
      ],
      [
        "▁◧▱◎◠◈◠▦",
        -9.642649875466102
      ],
      [
        "▴◀◫▱◫◓",
        -9.64376600578109
      ],
      [
        "▁▷◠◳◠▫▫◠",
        -9.64420170673553
      ],
      [
        "▁◕◇◓◎◪▨",
        -9.644204953916795
      ],
      [
        "▁▻◠◓◎◠▨",
        -9.644611148533926
      ],
      [
        "▁◳◠▨◬▦",
        -9.644967810251703
      ],
      [
        "▁▽◠▨◬▦",
        -9.645039960965565
      ],
      [
        "◈◗◐◫▦",
        -9.645160108016375
      ],
      [
        "▁◀◗▱◫◳◧◓",
        -9.645264417904635
      ],
      [
        "▁▨◠◞◠◀◠",
        -9.645362597677918
      ],
      [
        "▁◞◗▢◗",
        -9.646049149103312
      ],
      [
        "▁▨▪◞◠",
        -9.646328596829736
      ],
      [
        "▁◒◪▨◫▱◈◪",
        -9.646343030297459
      ],
      [
        "▪▦◈◠▦",
        -9.646792292665245
      ],
      [
        "◎◫◳◂◓",
        -9.646941956013038
      ],
      [
        "▁▷◠▫◬◓▱◠",
        -9.647001418576178
      ],
      [
        "▁◠▱▫◬",
        -9.647152480046712
      ],
      [
        "▁▨◠",
        -9.647214970857236
      ],
      [
        "◝▾▦◨",
        -9.647504023691695
      ],
      [
        "▁30",
        -9.647926707039364
      ],
      [
        "▽◠▼◠▨",
        -9.64810855110284
      ],
      [
        "▁◓◠▷◠▫◞◬▢",
        -9.649136415993596
      ],
      [
        "◈◭◓",
        -9.649740012510067
      ],
      [
        "▁◠▱◈▪◎",
        -9.649813494449562
      ],
      [
        "▴◞",
        -9.649940917527843
      ],
      [
        "▁◂▦▾▦▱◠",
        -9.651035272613772
      ],
      [
        "▁▷◠?",
        -9.651127386371222
      ],
      [
        "▁▽◧▨◞◠",
        -9.65169077920704
      ],
      [
        "▁▫◠",
        -9.651995323984284
      ],
      [
        "▱◪▽",
        -9.652081753416153
      ],
      [
        "▁◞▩◓◭",
        -9.65224439162425
      ],
      [
        "◎◫◒▫◫◎",
        -9.65259981217864
      ],
      [
        "▁◠▦▦◪◎",
        -9.65260895478216
      ],
      [
        "▁▨◠▱◈▪",
        -9.65301897519475
      ],
      [
        "▁◀▴▱▨◫",
        -9.65323246179491
      ],
      [
        "▁◡◠",
        -9.653286780655513
      ],
      [
        "◞▾▢",
        -9.653430112738933
      ],
      [
        "▁◕◪◓◉▴▨▫▴▦",
        -9.65346683317673
      ],
      [
        "◈◗◐◗▦◫",
        -9.655095626741698
      ],
      [
        "▵▮◠▦◬◓▪◎",
        -9.655119043782474
      ],
      [
        "▁◎▪◞▪▦?",
        -9.655328615301533
      ],
      [
        "▁◫▦",
        -9.656041492860336
      ],
      [
        "▁◞◂◓◨",
        -9.656725853685444
      ],
      [
        "▁◞◧◓◨",
        -9.657176814305299
      ],
      [
        "▁◉◂▼▾▨▱◠◓",
        -9.657893484179073
      ],
      [
        "◖▾",
        -9.658134831418403
      ],
      [
        "▫◂",
        -9.658482128707575
      ],
      [
        "▁▨◠▱◠▼◠▨",
        -9.658613873357442
      ],
      [
        "▁◟",
        -9.658920019326601
      ],
      [
        "▁◉◗◍▫",
        -9.658937394292288
      ],
      [
        "▁◞◧◓▾",
        -9.659864296603008
      ],
      [
        "▱◠◓◈◬",
        -9.659925686486776
      ],
      [
        "▁◀◠▨◎◠◳▪▦▵",
        -9.660036055482205
      ],
      [
        "►▶◪◒◪▨▨◭◓▱◪◓▵",
        -9.660050746638285
      ],
      [
        "▁◣▢▩◓",
        -9.660087972986695
      ],
      [
        "▁◠◫▫",
        -9.660170093463442
      ],
      [
        "▁◕▩▦▱◪◓",
        -9.660291939660908
      ],
      [
        "▁◞◗▢◫",
        -9.660362129331709
      ],
      [
        "▱◪◓◈▴",
        -9.661346572206408
      ],
      [
        "▁◀▴▱▨◗",
        -9.661812408115068
      ],
      [
        "◈◗◐◗▦",
        -9.662569269012355
      ],
      [
        "▁◎◭?",
        -9.66307818234537
      ],
      [
        "▁▫▴",
        -9.663592841617817
      ],
      [
        "▁◀◠◀◠▦",
        -9.663610298552552
      ],
      [
        "▁▨◧▦◨",
        -9.663654602284776
      ],
      [
        "▦◨",
        -9.66411140026928
      ],
      [
        "▱◪◓◈◪▦",
        -9.664361527765575
      ],
      [
        "▁◂▱◎▾◒",
        -9.664500485259474
      ],
      [
        "◎◗◳◂◓",
        -9.665512483379864
      ],
      [
        "▁◠▱◈◬◎",
        -9.666042147094487
      ],
      [
        "▵◢◗◎",
        -9.666328869061417
      ],
      [
        "▨◧",
        -9.666663156319057
      ],
      [
        "▁◈◧◞▫▾◎",
        -9.666689243424736
      ],
      [
        "▁◎◨▫▱▾",
        -9.667025143610761
      ],
      [
        "▽◞▴",
        -9.667080088818818
      ],
      [
        "◪◀◫▱◫◓",
        -9.667206464183398
      ],
      [
        "▁▴◞▨◫",
        -9.667295068793319
      ],
      [
        "▁◚◠◓◎◬◒",
        -9.667344802409277
      ],
      [
        "▁◀◠◐▱▪",
        -9.667743488668865
      ],
      [
        "▵▶◪▨",
        -9.668383462345243
      ],
      [
        "◫▦◗▦",
        -9.668821487665099
      ],
      [
        "▽◧◓",
        -9.669680937301743
      ],
      [
        "▁◠▱◬◓",
        -9.670242703808372
      ],
      [
        "▁◈▩▦▽◠",
        -9.671523607634033
      ],
      [
        "▁▷◠▫▪◓▱◠",
        -9.671778461873771
      ],
      [
        "▁◳◠▦◫",
        -9.672107185642915
      ],
      [
        "◎◫▽◂◓",
        -9.672183085461334
      ],
      [
        "▁◂▱◠◎◠▢",
        -9.672285913703975
      ],
      [
        "◨▻",
        -9.67335111135431
      ],
      [
        "◰◐▴◓",
        -9.673434583613052
      ],
      [
        "?◝▴▦",
        -9.673698870308629
      ],
      [
        "▁▷◠◓▴▨◪▫",
        -9.674064964199541
      ],
      [
        "▁◞◠▦◬◓▪◎",
        -9.674212055357971
      ],
      [
        "▁▴◞▨◗",
        -9.6743132418657
      ],
      [
        "▁◕▴◓◉▴▨▫◪▦",
        -9.675538620246734
      ],
      [
        "▁12",
        -9.676686159799466
      ],
      [
        "◨▦◈◠",
        -9.676898464296642
      ],
      [
        "◎◫◳◧◓",
        -9.677259747473872
      ],
      [
        "▁◀▴",
        -9.677408308531714
      ],
      [
        "▁◕",
        -9.678572887380938
      ],
      [
        "▁◈◧◞▫◨◎",
        -9.678825675519366
      ],
      [
        "◇",
        -9.678902884591931
      ],
      [
        "▁▤◂",
        -9.680068357826478
      ],
      [
        "▁◗◉◗▦◈▴",
        -9.68023642095477
      ],
      [
        "▁◫◉◗▦◈▴",
        -9.680364533452899
      ],
      [
        "▁◞◭◓▩",
        -9.680389277068027
      ],
      [
        "▁▱◠▦▴▫",
        -9.681293493104743
      ],
      [
        "▁▷◠▫▫◠",
        -9.682089735094863
      ],
      [
        "◭▱",
        -9.686911764139271
      ],
      [
        "◝◨▦▾",
        -9.687273083754937
      ],
      [
        "▁◠▱▪◓",
        -9.687652067410742
      ],
      [
        "▁◛",
        -9.68775296829044
      ],
      [
        "▪▼▪",
        -9.688202496265905
      ],
      [
        "▁◉◧▼▾▨▱◠◓",
        -9.688231971799153
      ],
      [
        "▁◀◗▱◗◳◂◓",
        -9.6882797415382
      ],
      [
        "◳◪▦",
        -9.688323966068609
      ],
      [
        "▁▻▱◠▦◬◎",
        -9.688411905490824
      ],
      [
        "▁◀◪▱▨◫",
        -9.68847036532224
      ],
      [
        "▱◠◓◬▦▪▦",
        -9.689214291338255
      ],
      [
        "▁◓◠▷◠▫◞▪▢",
        -9.68946190997265
      ],
      [
        "▁◈◂◞▫◨◎",
        -9.690004093971236
      ],
      [
        "▁◳◠▻▫▪",
        -9.690556286206817
      ],
      [
        "▁▽◠▦◗",
        -9.691546727426045
      ],
      [
        "◞◠▦◬▢",
        -9.69235220988255
      ],
      [
        "▵▮◠▦▪◓▪◎",
        -9.692453657139037
      ],
      [
        "▵◊◒▫◪",
        -9.692545728882603
      ],
      [
        "◝▾▦▾",
        -9.692563554668205
      ],
      [
        "▵◆◪▱",
        -9.692991245250905
      ],
      [
        "▁▨◧▦◨◒◎◠",
        -9.693596830152867
      ],
      [
        "◭▦▩",
        -9.693967489630928
      ],
      [
        "▁◈◨▽",
        -9.694007131746453
      ],
      [
        "▁▽◂▨◞◠",
        -9.69460669218343
      ],
      [
        "▁7",
        -9.694943482130622
      ],
      [
        "▁◀◗▫",
        -9.695206153845536
      ],
      [
        "▁◠◫▱◪",
        -9.695445367111326
      ],
      [
        "▱◬◐◬",
        -9.695819874445755
      ],
      [
        "◳◞▴",
        -9.696249308605354
      ],
      [
        "◪◈",
        -9.69634308286508
      ],
      [
        "▁▲▴",
        -9.696487872356727
      ],
      [
        "▁◫◉◗▦◈◪",
        -9.696803984890101
      ],
      [
        "◈◬◐◬◎",
        -9.697083207616965
      ],
      [
        "▁◕◗◳",
        -9.698269388783698
      ],
      [
        "◟◠",
        -9.698478375472678
      ],
      [
        "▵▭◠",
        -9.698800133560148
      ],
      [
        "▁◡",
        -9.699043789195263
      ],
      [
        "▁▽◠▦◬▦◈◠",
        -9.69924928817022
      ],
      [
        "▁▻◂▱◫◞",
        -9.69987323539164
      ],
      [
        "▁▾▱◠◒",
        -9.699886668249633
      ],
      [
        "◎◨▢",
        -9.70016818745439
      ],
      [
        "▁▦◪◓▴◈▴",
        -9.700687262468016
      ],
      [
        "▱▴◓▱◪",
        -9.700878325015658
      ],
      [
        "▴▱◫◎",
        -9.70173333934888
      ],
      [
        "▁◗◉◫▦◈◪",
        -9.701908295572117
      ],
      [
        "▁◧▱◈▾◐▾",
        -9.702022539710812
      ],
      [
        "▁◉◬▨▫◬",
        -9.702113315072221
      ],
      [
        "▁◤◠",
        -9.702642516237928
      ],
      [
        "▁◒▴▨◗▱◈▴",
        -9.70292263811048
      ],
      [
        "▁◞◬◓◠",
        -9.703493731506587
      ],
      [
        "▁◝◧",
        -9.704016861588764
      ],
      [
        "▵▿▦▱◠◓",
        -9.704782656970021
      ],
      [
        "◈◬◐◬",
        -9.70511799991198
      ],
      [
        "▁◪◐▴◓",
        -9.705425997597583
      ],
      [
        "▁◳◠▻◠◓",
        -9.705681964892735
      ],
      [
        "◫◎◗▢",
        -9.706025553787374
      ],
      [
        "▁▨◂◳",
        -9.706029110319575
      ],
      [
        "▁▴◐◪◓",
        -9.706155488778798
      ],
      [
        "▁◳◠▨▪▦",
        -9.706432467896677
      ],
      [
        "▁▫◠▦◬◒",
        -9.706607389251966
      ],
      [
        "▵▮◠▦◬◓◬◎",
        -9.706669323236245
      ],
      [
        "▵◱▦▱◠◓",
        -9.706784383185717
      ],
      [
        "◈◧",
        -9.706805598371476
      ],
      [
        "▁◠◈◠◎◠",
        -9.707307999120182
      ],
      [
        "▁◳◧▱",
        -9.70798619521588
      ],
      [
        "▁◠◒",
        -9.708261866138646
      ],
      [
        "▁◫◉◫▦◈▴",
        -9.709171820549773
      ],
      [
        "▁▴◚◪",
        -9.709283506769637
      ],
      [
        "▁▽◠▨▱◠◒",
        -9.709556777370654
      ],
      [
        "▁◕◪▱◎▴",
        -9.709904039665606
      ],
      [
        "▁◞◫▢◗",
        -9.71001682021052
      ],
      [
        "▁◞◠▦▪◓◬◎",
        -9.710108841159414
      ],
      [
        "▁◕▴◓◉◪▨▫◪▦",
        -9.710514868556043
      ],
      [
        "▱▴◓▱▴",
        -9.711598734989451
      ],
      [
        "◳◧▦",
        -9.711830854446234
      ],
      [
        "◠◀",
        -9.712116439744955
      ],
      [
        "▁◈▴◐◫▱▵►",
        -9.712182336895221
      ],
      [
        "▁◉▪▨▫◬",
        -9.712336741594072
      ],
      [
        "◰◚◪▫■",
        -9.712597844034853
      ],
      [
        "◝◫◓▨◠◉",
        -9.713549587565307
      ],
      [
        "▁◂▱◎◠◞▪",
        -9.713591006434434
      ],
      [
        "◞▴■",
        -9.713617034822068
      ],
      [
        "▫▪◐▪",
        -9.714607324970578
      ],
      [
        "▾◳◧◓",
        -9.71474721771004
      ],
      [
        "▱◪◓▱▴",
        -9.71523359467784
      ],
      [
        "▵◅▩▦▨◭",
        -9.71528358532013
      ],
      [
        "◈▪◐◬",
        -9.715553899043165
      ],
      [
        "▽◂◓",
        -9.715884006459973
      ],
      [
        "▁▲",
        -9.716537622449803
      ],
      [
        "▵◝◨▦▾▦",
        -9.716936739010098
      ],
      [
        "▁◈◫▦▱◪",
        -9.717123690696646
      ],
      [
        "▴◈",
        -9.717294881702372
      ],
      [
        "▁◎▾▫▱▾",
        -9.717367112060197
      ],
      [
        "▁◀◪▱▨◗",
        -9.717565529545617
      ],
      [
        "▁▨◧▱◠▽",
        -9.717647884011939
      ],
      [
        "▁◌◓◠▦▨",
        -9.71772722553103
      ],
      [
        "▁◂▨◨",
        -9.717867177059853
      ],
      [
        "◈◫◐◫▦",
        -9.7182645239291
      ],
      [
        "▱◪◓◈▴▦",
        -9.71827892477905
      ],
      [
        "▵◲▽◗",
        -9.71852979686533
      ],
      [
        "▁▨◂▦▾",
        -9.718549055285537
      ],
      [
        "▁▻◧▱◗◞",
        -9.718575202260613
      ],
      [
        "◬▦◈◠▦",
        -9.71940667155097
      ],
      [
        "◞◗▦■",
        -9.719826454999971
      ],
      [
        "▁◪◓▨◪▨",
        -9.720223406877128
      ],
      [
        "▁◞◠▱",
        -9.720305687402394
      ],
      [
        "?◝◪▦",
        -9.721244831423473
      ],
      [
        "▁◞▩◓",
        -9.72144945732893
      ],
      [
        "▁◈◫▦▱▴",
        -9.721861762746588
      ],
      [
        "▴▼◪◐◫◎",
        -9.722017422975775
      ],
      [
        "▁◪◚◪",
        -9.72219570012679
      ],
      [
        "▁▨◠▱◈◬",
        -9.722784391107083
      ],
      [
        "▁◞◠▨▱◠",
        -9.723286344234335
      ],
      [
        "▁▽◠▦◫",
        -9.723512001309437
      ],
      [
        "◈◫◐◗▦◗",
        -9.724258913142709
      ],
      [
        "◕◧",
        -9.724449609138333
      ],
      [
        "▁▨◧▦▾",
        -9.724793561469802
      ],
      [
        "▁◝◠◒▨◠▦",
        -9.725594538579639
      ],
      [
        "▁◝▾◓◠◈◠",
        -9.726231335739715
      ],
      [
        "◎◗▽◧◓",
        -9.726576604818145
      ],
      [
        "▁◃",
        -9.72709068295628
      ],
      [
        "◈◬◐▪▦◬",
        -9.727234344487268
      ],
      [
        "▁▶◠▦◓▪",
        -9.728262423012008
      ],
      [
        "▁◪◎◫▦",
        -9.728631912271645
      ],
      [
        "◈▽",
        -9.728875471365672
      ],
      [
        "▁◕◪▱◪▦",
        -9.729225187913125
      ],
      [
        "▁◕◣◓◭▦",
        -9.729450673808604
      ],
      [
        "▵◲◒",
        -9.72946193450306
      ],
      [
        "▁◂▱◈▾◐▾",
        -9.729581833660138
      ],
      [
        "◫▦◫▢",
        -9.730063157976968
      ],
      [
        "▁◰◚◪▫■",
        -9.730891472197483
      ],
      [
        "▁◧▱◨◓◞◠",
        -9.730992667165186
      ],
      [
        "▁◞◭◓◭",
        -9.73123542591593
      ],
      [
        "▁◕◗◈",
        -9.732132294642527
      ],
      [
        "▁◣▦▴◎▱◗",
        -9.732262830380776
      ],
      [
        "▁▫◠▦▪",
        -9.732923754212125
      ],
      [
        "◠◳▪◎",
        -9.733048450515582
      ],
      [
        "▁◈◇◓▫",
        -9.733063188290117
      ],
      [
        "▁▽◠▨▪▦",
        -9.73326065515023
      ],
      [
        "▁▻◧▱◫◞",
        -9.733509852952444
      ],
      [
        "▵◢◠▦",
        -9.734958870016742
      ],
      [
        "◉◂▨",
        -9.735835036011615
      ],
      [
        "▱◪◳",
        -9.735954904619613
      ],
      [
        "◛",
        -9.736251922983584
      ],
      [
        "▁▽◠◓◠▫",
        -9.736325706875643
      ],
      [
        "◱▦▾",
        -9.737077223262677
      ],
      [
        "▁◍◫▱◎",
        -9.738235412822469
      ],
      [
        "▁◠▱▫▪",
        -9.738556196045856
      ],
      [
        "▁◚◠◓◈◬◓",
        -9.738810932361641
      ],
      [
        "▯◪◈▴▦",
        -9.739062771096783
      ],
      [
        "▁◠◈◠◎▱◠",
        -9.739295752899684
      ],
      [
        "▁◞◬▼◠▨",
        -9.739800187437597
      ],
      [
        "▁◨▢◠▨",
        -9.74078848943148
      ],
      [
        "◈◗◐◫▦◫",
        -9.740883401483186
      ],
      [
        "▁◎◬◞▪▦?",
        -9.741689486248976
      ],
      [
        "▁◂▱◠▼◠▨▵",
        -9.742560426652314
      ],
      [
        "▵◅◭▦▨◭",
        -9.742708695209899
      ],
      [
        "▵◤◠▦◫",
        -9.742916860786472
      ],
      [
        "▁◎◬◞◬▦?",
        -9.743695064741356
      ],
      [
        "◠◳",
        -9.743982945737443
      ],
      [
        "▁◗▢▱◪",
        -9.74444409423424
      ],
      [
        "◝◗▱◫▽◧◓",
        -9.744493546413466
      ],
      [
        "*",
        -9.7449953441774
      ],
      [
        "▱◠◓◬▦◬▦",
        -9.7453375508479
      ],
      [
        "▵▢◠◎◠▦",
        -9.745796106286226
      ],
      [
        "◎◫◒▫◗◎",
        -9.745873413522379
      ],
      [
        "▁◯",
        -9.746548589820192
      ],
      [
        "▵◲◳◗",
        -9.747170183002424
      ],
      [
        "◠◎",
        -9.747198638814318
      ],
      [
        "▁◒◪▨◫▱◈▴",
        -9.747530153696417
      ],
      [
        "▁◞◫▢◫",
        -9.74808365257586
      ],
      [
        "▁▶◠▦◓◬",
        -9.748208606402883
      ],
      [
        "▁▦◧◓◎◠▱",
        -9.749084113968454
      ],
      [
        "▱◪◓▱◪",
        -9.749201590095069
      ],
      [
        "▼◭",
        -9.74980345487075
      ],
      [
        "▵▮◧▦",
        -9.750189132906845
      ],
      [
        "◝◨▦◨",
        -9.75057471655171
      ],
      [
        "▁◞▩◓▩",
        -9.751249875276145
      ],
      [
        "▁◈◫▽◂◓◞◨▦?",
        -9.751622841931074
      ],
      [
        "◗◎◫▢",
        -9.751808613751844
      ],
      [
        "▵□◪▨◗",
        -9.752108614119411
      ],
      [
        "◖◨",
        -9.75231115697352
      ],
      [
        "▁◖▾",
        -9.752784764858351
      ],
      [
        "▁◕◫▽",
        -9.752804349877023
      ],
      [
        "▁◎◨▫▱◨",
        -9.754797417340148
      ],
      [
        "◨◒",
        -9.754949392238613
      ],
      [
        "▁▽◠▦▱▪◒",
        -9.754991858618862
      ],
      [
        "▁◲▽◫",
        -9.755030827234457
      ],
      [
        "▁◠◒◠◐▪",
        -9.755079790958039
      ],
      [
        "▁◕◫◈◗▻",
        -9.755369047023299
      ],
      [
        "◀▴◓",
        -9.755885912795673
      ],
      [
        "▁◕◠◓◫▻",
        -9.756092104593286
      ],
      [
        "▁◈◪◐◗▱◗◎",
        -9.756136681622447
      ],
      [
        "▁▫◠◒◬",
        -9.756769030201692
      ],
      [
        "▁◕▴▱◪▦",
        -9.756773312577295
      ],
      [
        "▦◈◪",
        -9.756850133691877
      ],
      [
        "▨◠▫",
        -9.757405627475421
      ],
      [
        "◎◠▱▪",
        -9.757876832755908
      ],
      [
        "▱◠▽",
        -9.758309993981072
      ],
      [
        "◈◬◐▪◎",
        -9.759222302667403
      ],
      [
        "▁◰▱",
        -9.759878643325825
      ],
      [
        "▁▴◓▨◪▨",
        -9.760049383381553
      ],
      [
        "◳◫▦",
        -9.760925197265685
      ],
      [
        "▁◪◚▴",
        -9.761881549069875
      ],
      [
        "▁◢◂",
        -9.761947669210086
      ],
      [
        "▁◠▦◠▷▫◠◓",
        -9.762066761636365
      ],
      [
        "◎◗◒▫◗◎▵",
        -9.762413796931009
      ],
      [
        "▁▫◠▨◬▱",
        -9.762450324412304
      ],
      [
        "?◢",
        -9.762666465502292
      ],
      [
        "▁◠◒◠◐◬",
        -9.763043695102768
      ],
      [
        "▁◕◣◓▩▦",
        -9.76305656913579
      ],
      [
        "◈◫◳◂◓◞◨▦?▯▴",
        -9.763157580124705
      ],
      [
        "▁◉◠◀◨▨",
        -9.76324867863234
      ],
      [
        "▁◈◣◓▫",
        -9.763624793939442
      ],
      [
        "▁◀◫▱◕◗",
        -9.763713369104225
      ],
      [
        "◖",
        -9.763926510748284
      ],
      [
        "▁◕◪▱◫◓",
        -9.7639761610732
      ],
      [
        "▁▨◠▫◗▱",
        -9.764199700625493
      ],
      [
        "◬◎▪",
        -9.76453312626921
      ],
      [
        "▭◠◳◬◓■",
        -9.7648289544118
      ],
      [
        "▁◝▾▦◨",
        -9.764889640984322
      ],
      [
        "▦◧",
        -9.765408605814326
      ],
      [
        "◎▵►",
        -9.765541915666772
      ],
      [
        "▁◠▱▪▻",
        -9.765713458116206
      ],
      [
        "▁▷◠▨▱▪",
        -9.766475408529537
      ],
      [
        "▁◕◇◓◭▦",
        -9.76654331155019
      ],
      [
        "▁◠◓▨◠◈◠◒◬",
        -9.766544539558982
      ],
      [
        "▁◗◉◫▦◈▴",
        -9.767181041561134
      ],
      [
        "▁◧▦▾▦▱◠",
        -9.76820265515871
      ],
      [
        "▁◳◠▦◬▦◈◠",
        -9.768400836550306
      ],
      [
        "▻◪",
        -9.768845545578449
      ],
      [
        "▵◱◓◠◈◠",
        -9.768928435253954
      ],
      [
        "▁▯",
        -9.769102767576003
      ],
      [
        "▁◫▢▱▴",
        -9.76955738226194
      ],
      [
        "▁◠◓▨◠◈◠◒▪",
        -9.769682639336903
      ],
      [
        "▁◝◂",
        -9.769819067361887
      ],
      [
        "◝◠▨■",
        -9.769881765674462
      ],
      [
        "▁◳◠▻◠▦",
        -9.770276709553555
      ],
      [
        "◎◬◳◧◓",
        -9.770378005612159
      ],
      [
        "▁▽",
        -9.770402589090114
      ],
      [
        "▁◕◪◓◉◪▨▫▴▦",
        -9.770857438238426
      ],
      [
        "▁◀◫▱◕◫",
        -9.771037452502103
      ],
      [
        "▁▴▫▫◗",
        -9.771280021444824
      ],
      [
        "▁8",
        -9.7713686827372
      ],
      [
        "◕▾",
        -9.771838224019106
      ],
      [
        "▁◕◫▫▫◫",
        -9.771865736638954
      ],
      [
        "◞▾▦▾▢?",
        -9.771942513753737
      ],
      [
        "▵◝◪▱▨◫",
        -9.773287837505773
      ],
      [
        "◞◪■",
        -9.773352372544291
      ],
      [
        "◳▴▦",
        -9.77359018546971
      ],
      [
        "◈▪◓▵",
        -9.773874076757888
      ],
      [
        "◎▪◳◂◓",
        -9.774334640858793
      ],
      [
        "▁▤◠",
        -9.774337721204775
      ],
      [
        "◈◫◐◗▦◫",
        -9.77461202150799
      ],
      [
        "◞◨▦▾▢?",
        -9.775809825603172
      ],
      [
        "▁◈◪◓◞",
        -9.775921958693104
      ],
      [
        "▁15",
        -9.776040719099157
      ],
      [
        "◞▫◠",
        -9.776293377150239
      ],
      [
        "▱◠◓◈▪",
        -9.776652443074434
      ],
      [
        "◚◠▦",
        -9.776755370109036
      ],
      [
        "▱▴▽",
        -9.777287218544526
      ],
      [
        "▁◀◗▱◫▽◧◓",
        -9.778446139288505
      ],
      [
        "◠◳◬◎",
        -9.778536937955106
      ],
      [
        "◭◒",
        -9.778649912631113
      ],
      [
        "▴◀◫▱◗◓",
        -9.778696333153302
      ],
      [
        "◫◎◫▢",
        -9.78025651591732
      ],
      [
        "▁▨◠◓◠",
        -9.780951230393235
      ],
      [
        "▁▤◪",
        -9.781022930002283
      ],
      [
        "▁◠▦▱◠◎▪",
        -9.78117833727223
      ],
      [
        "▁◀◫",
        -9.78125124962795
      ],
      [
        "▢▾",
        -9.781672064569293
      ],
      [
        "▁◀▾▱▾▦",
        -9.782796528660782
      ],
      [
        "▁▷◠◓▼◠",
        -9.782805637204234
      ],
      [
        "◭▻",
        -9.783103252581785
      ],
      [
        "◧▫",
        -9.783182718862683
      ],
      [
        "▁◒◨▦▾",
        -9.78321409634216
      ],
      [
        "▁◕▴▱◗◓",
        -9.783626247508268
      ],
      [
        "▁◕▴▱◎◪",
        -9.783668384570156
      ],
      [
        "'◈◠▨◫",
        -9.784152805839213
      ],
      [
        "▁◝◠▨",
        -9.78432939195978
      ],
      [
        "◝◠◒▨◠",
        -9.784465899702198
      ],
      [
        "▁◳◠▨",
        -9.784527689606087
      ],
      [
        "▁◳◠▦▱▪◒",
        -9.786122860772668
      ],
      [
        "▁▽◠▦▱◬◒",
        -9.786143409813118
      ],
      [
        "▁◇▢◭◓",
        -9.786209192495
      ],
      [
        "▁◀◗▱◫▽◂◓",
        -9.786274565745497
      ],
      [
        "▁◗▱◕◫▱◫",
        -9.786559112577198
      ],
      [
        "◎◠▦◬",
        -9.78656544119065
      ],
      [
        "▁◕◇◓◎▴",
        -9.786956591117551
      ],
      [
        "▁◉◧▼◨▨▱◠◓",
        -9.787353257429876
      ],
      [
        "◗◎◗▢",
        -9.788435591285873
      ],
      [
        "▁◈◠◗◓",
        -9.790422199299314
      ],
      [
        "◈◗◐◗▦◗",
        -9.79054866242032
      ],
      [
        "▁◝◨▦◨",
        -9.790954283958683
      ],
      [
        "◁",
        -9.791102561249708
      ],
      [
        "▁◨◐◓◠◒",
        -9.791590624253601
      ],
      [
        "◪◓▴▨",
        -9.791700938924812
      ],
      [
        "▁◀◠◳◠▦",
        -9.791796835514212
      ],
      [
        "◈◫◐◫▦◗",
        -9.792426097605713
      ],
      [
        "◫▦◗▢",
        -9.79245668199004
      ],
      [
        "▁◂▱◨◓◞◠",
        -9.79254946861905
      ],
      [
        "◈▪◐▪◎",
        -9.79329746009449
      ],
      [
        "▵○◈◠◎",
        -9.79387214901348
      ],
      [
        "▁▨◠◉◬◓",
        -9.79388696877242
      ],
      [
        "▁◍◫▨◗◓",
        -9.794060600933275
      ],
      [
        "?○◎◠",
        -9.794164455614233
      ],
      [
        "◎▪◳◧◓",
        -9.794179650562487
      ],
      [
        "▁◠◐▪◓",
        -9.794319948979144
      ],
      [
        "▁◕◗▫▫◗",
        -9.794772438018704
      ],
      [
        "▁◤",
        -9.795253050576196
      ],
      [
        "▁◕◫▫▫◗",
        -9.795259862962915
      ],
      [
        "▱◠◒◎◠",
        -9.795766447894085
      ],
      [
        "▁◠▦▦▴◎",
        -9.79593711120517
      ],
      [
        "▵□▴▨◗",
        -9.795995235484565
      ],
      [
        "▁◌◠",
        -9.79613343161001
      ],
      [
        "◠▼◠▨◞▪▦",
        -9.796223105481456
      ],
      [
        "▁◨◉",
        -9.79655654930026
      ],
      [
        "▁▷◠◈◗",
        -9.796575693432361
      ],
      [
        "▱◪◓◗◎",
        -9.797142025512048
      ],
      [
        "◗▢◗",
        -9.797906941395002
      ],
      [
        "▁◂▫◨◓",
        -9.798014118652533
      ],
      [
        "▁◈▾◓◨◎",
        -9.798273131407582
      ],
      [
        "◞▫▴",
        -9.798745113723957
      ],
      [
        "▁◧▨◨",
        -9.799920718998699
      ],
      [
        "3",
        -9.800171712085767
      ],
      [
        "▁◈◠◫◓",
        -9.800235719162153
      ],
      [
        "▁◠▸◠▦",
        -9.800321188867088
      ],
      [
        "▁◪◓▨▴▨",
        -9.800425852836355
      ],
      [
        "◠▽",
        -9.800490790218415
      ],
      [
        "▁◗◉◗▦◈◪",
        -9.8011996642456
      ],
      [
        "▽▨▴▦",
        -9.801261036697866
      ],
      [
        "◀◠▦",
        -9.801316571978205
      ],
      [
        "▁◎◪◞◠▸",
        -9.801697765376856
      ],
      [
        "▁◀◫▱◫▽◧◓",
        -9.80180792364935
      ],
      [
        "▁▫◠◓◠◍▪",
        -9.802191866951391
      ],
      [
        "▁◚◠◓◈▪▵",
        -9.80233453483394
      ],
      [
        "◕▴◓",
        -9.80237830680651
      ],
      [
        "▁◣▱",
        -9.802544265791159
      ],
      [
        "▁50",
        -9.80273901871583
      ],
      [
        "▁◖",
        -9.802858784343892
      ],
      [
        "◎◬◒▫▪",
        -9.802894191886491
      ],
      [
        "▁▮◠◎",
        -9.803189099008602
      ],
      [
        "▁▻◠◓◉◠◞▪",
        -9.803616376964229
      ],
      [
        "▁▢◠◎◠▦▱◠◓◈◠",
        -9.804417496499957
      ],
      [
        "▵▨◠◈◠◓",
        -9.80444461151848
      ],
      [
        "▁◇▢◪▱",
        -9.804799482965905
      ],
      [
        "▁▫◠◓◠◍▫◠",
        -9.804868597580965
      ],
      [
        "◎▾▢",
        -9.806013294073264
      ],
      [
        "◞▾▦▾▢",
        -9.806357478578155
      ],
      [
        "▁◘▱",
        -9.806752961043319
      ],
      [
        "▁▮◠▦",
        -9.80678552092698
      ],
      [
        "▁◪▫▫◫",
        -9.807250493916778
      ],
      [
        "◎◠◎◬▢",
        -9.807503444757685
      ],
      [
        "◂▨",
        -9.807590261031075
      ],
      [
        "▁◈▴◐◗▱▵►",
        -9.808037737283147
      ],
      [
        "▁◕▴▱◫◓",
        -9.808470785820795
      ],
      [
        "▁◄◂",
        -9.80878140036421
      ],
      [
        "▵◅◭▦▨▩",
        -9.809180944840541
      ],
      [
        "▁◒▴▨◫▱◈◪",
        -9.810331778322862
      ],
      [
        "▁◒▴▨◫▱◈▴",
        -9.810332085857343
      ],
      [
        "▁◒▴▨◗▱◈◪",
        -9.810334197032685
      ],
      [
        "▽◂▦",
        -9.810397989197
      ],
      [
        "▁9",
        -9.812137505733501
      ],
      [
        "▁◞▾◉",
        -9.81234411922299
      ],
      [
        "▁◕◇◓▴◚",
        -9.81266840959501
      ],
      [
        "▁▴◈◗▱",
        -9.813288525494672
      ],
      [
        "▁◕◪▱▴▦",
        -9.8135977555838
      ],
      [
        "▁◀◠◐▱◬",
        -9.8141890996455
      ],
      [
        "▁◉◇▢",
        -9.814440957077007
      ],
      [
        "▵◟◠▦◫",
        -9.815096239776718
      ],
      [
        "▁◂▱▾◓◞◠",
        -9.815141528882313
      ],
      [
        "◈▩◓",
        -9.81544946471346
      ],
      [
        "◈◗◐◫▦◗",
        -9.815493294758776
      ],
      [
        "▁◗◞▫▴",
        -9.816034351743065
      ],
      [
        "▦◈▴▦",
        -9.816097256281303
      ],
      [
        "▁▾◉",
        -9.816110145263345
      ],
      [
        "▁◰◚▴▫■",
        -9.816613857913019
      ],
      [
        "◞◫▦◫▦",
        -9.816701186187402
      ],
      [
        "▁◳◠◒▪▦◈◠",
        -9.816736970195588
      ],
      [
        "◐◫",
        -9.816789411544844
      ],
      [
        "▁▦◂▨▫◠",
        -9.816857452807104
      ],
      [
        "◄◠",
        -9.81715171030737
      ],
      [
        "◱▦◨",
        -9.817867076505841
      ],
      [
        "▦◂",
        -9.819035062631169
      ],
      [
        "◎▪▽◂◓",
        -9.819230472818493
      ],
      [
        "▁▦◪◓◪◈◪",
        -9.819415404849279
      ],
      [
        "◞◨▦◨▢?",
        -9.819478224430107
      ],
      [
        "▁◧▱▾◓◞◠",
        -9.820068702369776
      ],
      [
        "▁◈◭▦▽◠",
        -9.820189937265168
      ],
      [
        "◓◪▦",
        -9.820975329680248
      ],
      [
        "▁◧◳▦◠",
        -9.82162530862758
      ],
      [
        "▁▱◠▢▪◎▵",
        -9.821971784093718
      ],
      [
        "◈▪◐◬◎",
        -9.822144748376921
      ],
      [
        "▁◇▢▴▱",
        -9.822416105128214
      ],
      [
        "▁◗◒◗▦",
        -9.822710757825496
      ],
      [
        "▁◀◫▱◗▽◂◓",
        -9.822749438198088
      ],
      [
        "▵▵▵\"",
        -9.822878091599506
      ],
      [
        "▁◧▨▾",
        -9.823248524525106
      ],
      [
        "◎◠◞▪▦◬",
        -9.823252319595973
      ],
      [
        "▁▨◠◓▫",
        -9.824060586321494
      ],
      [
        "▁□◠",
        -9.824320700096596
      ],
      [
        "▁◂▦◨▦▱◠",
        -9.824430005852044
      ],
      [
        "▱▴◓◈◪▦",
        -9.825063924525008
      ],
      [
        "◗▼◗",
        -9.825178559745964
      ],
      [
        "◈◫◐◫▦◫",
        -9.825555145729528
      ],
      [
        "◎◗◳◧◓",
        -9.826662197644007
      ],
      [
        "▁◳◠▱▦▪▢",
        -9.826823536103653
      ],
      [
        "▁▫▾▷◠◍",
        -9.827453153411156
      ],
      [
        "▁▦▴◓▴◈◪",
        -9.827499927197362
      ],
      [
        "▁◈▾◓▾◎",
        -9.827935327698007
      ],
      [
        "▁◠◚",
        -9.827984093351407
      ],
      [
        "▁▨◠▫◫▱",
        -9.829037076485573
      ],
      [
        "▁◀◠◒◠",
        -9.829171604876208
      ],
      [
        "◳◠▼◠▨",
        -9.831006814985441
      ],
      [
        "▾▫",
        -9.831105160810377
      ],
      [
        "◐◫◎",
        -9.831460389265073
      ],
      [
        "▁◧▱◎◨◒",
        -9.831477410458065
      ],
      [
        "▪◎▪▢",
        -9.83292102013738
      ],
      [
        "▾▽◧◓",
        -9.833494876763535
      ],
      [
        "▵◝◨▦◨▦",
        -9.83399423326447
      ],
      [
        "▽◗▢",
        -9.83423209597781
      ],
      [
        "▁▼◠▦▪◎",
        -9.834552129579848
      ],
      [
        "▯◠◞▪▱◈◬?▯◠◞▪▱◈◬?",
        -9.834713960536302
      ],
      [
        "▁▽◠▻▪◳◂◓◞▾▦?►",
        -9.834741230651744
      ],
      [
        "▁◒◪▨◗▱◈◪",
        -9.83492829903324
      ],
      [
        "▁◂▱◠▽",
        -9.835118226815183
      ],
      [
        "▁◗▱◕◗▱◫",
        -9.835296310716751
      ],
      [
        "▁▫◠▦▪◒",
        -9.835321228515777
      ],
      [
        "▁'",
        -9.835455613436123
      ],
      [
        "▁▼◠▦◠◚◠◓",
        -9.835487717169073
      ],
      [
        "◈▩◎",
        -9.835562921288242
      ],
      [
        "▢◨",
        -9.835906452835005
      ],
      [
        "◈◬◐▪▦▪",
        -9.836381312652758
      ],
      [
        "▵▿▦▾▦",
        -9.837253638223746
      ],
      [
        "▫▪◐◬",
        -9.837359586858195
      ],
      [
        "▽◞◠",
        -9.837394973106363
      ],
      [
        "▁◀◗▱◫◳◂◓",
        -9.837427986844395
      ],
      [
        "▁▫◠▫▱◬",
        -9.837568372201247
      ],
      [
        "▁▽◠◓◠◎◠▢",
        -9.837793014447865
      ],
      [
        "▁▯◠◞▪▱",
        -9.838001165589624
      ],
      [
        "▁◉▪▨▫▪",
        -9.838215837762412
      ],
      [
        "▁◈◗▦▱▴",
        -9.838452700891107
      ],
      [
        "▁◠◫▱▴",
        -9.838984790482446
      ],
      [
        "◎◗▽◂◓",
        -9.841249122846715
      ],
      [
        "◎◠◞◬▦◠",
        -9.841428293522693
      ],
      [
        "▁◈▴◐◗▱■",
        -9.84178052017794
      ],
      [
        "▁◗◞▫◗◳◧◓",
        -9.84361208402624
      ],
      [
        "◞◫▦■",
        -9.843788297287345
      ],
      [
        "▁◚◪◓◎▴",
        -9.844359102833202
      ],
      [
        "▨▫▴▦",
        -9.844394360447264
      ],
      [
        "▁▫▴◒▴▨▨◭◓▱▴◓",
        -9.844529538703584
      ],
      [
        "▵▮◂▦",
        -9.844928574877716
      ],
      [
        "▯◠◞◬▱",
        -9.84549981278527
      ],
      [
        "▁◕◫▫◎▴▨",
        -9.845562685708586
      ],
      [
        "▱◠◓▪▦▪▦",
        -9.845925570789772
      ],
      [
        "▦◬▢◬",
        -9.845951836345986
      ],
      [
        "▁◀◠▽◠▦",
        -9.846646575710029
      ],
      [
        "▁◣▢◪▱",
        -9.846721790887422
      ],
      [
        "▁◠▱◬▻",
        -9.84717362253047
      ],
      [
        "▵◢◠◉",
        -9.847626421726027
      ],
      [
        "▁▨◂▦◨",
        -9.847672977544889
      ],
      [
        "▁◀◫▱◫▽◂◓",
        -9.849240141894683
      ],
      [
        "▁◈◭▦",
        -9.850069897341154
      ],
      [
        "▁◳◠▱▦◬▢",
        -9.850822091145407
      ],
      [
        "▁◀◫▱◗◳◧◓",
        -9.851415438021025
      ],
      [
        "▁▷◠◓◪▨◪▫",
        -9.85145100496697
      ],
      [
        "▁◒◪▨◗▱◈▴",
        -9.85166894702499
      ],
      [
        "▁◀◫◓▱◗▨▫▴",
        -9.851880397360215
      ],
      [
        "▁▦▴▱▴◓",
        -9.8522910662563
      ],
      [
        "▁◈◪◐◗▱■",
        -9.852801947718
      ],
      [
        "◘▱",
        -9.852833197806424
      ],
      [
        "▸◠",
        -9.852837844033878
      ],
      [
        "▁◉◫◍▫",
        -9.853086971326348
      ],
      [
        "▫◬▨",
        -9.853178139884012
      ],
      [
        "▫◬▦",
        -9.853903730287676
      ],
      [
        "▁◀◫▱◗◳◂◓",
        -9.854811644933804
      ],
      [
        "▁◈◪◐◫▱■",
        -9.854868703545979
      ],
      [
        "◗▼◫",
        -9.856156266501543
      ],
      [
        "▱◠▦◎◬◒",
        -9.85617950185829
      ],
      [
        "▁◈▪◒◠◓◬",
        -9.857899348136836
      ],
      [
        "◕◂",
        -9.857955114308012
      ],
      [
        "◎◠◈▪◎",
        -9.857996481508623
      ],
      [
        "◞◗▦◗▦",
        -9.858137248587528
      ],
      [
        "▁▻◠◓◉◠◞◬",
        -9.85820818798835
      ],
      [
        "▁▴◚▴",
        -9.859053617050662
      ],
      [
        "▁◪◓",
        -9.859150883418497
      ],
      [
        "▁▽◠▱▦◬▢",
        -9.859299406974216
      ],
      [
        "▁◗◒◫▦",
        -9.859315679201803
      ],
      [
        "▁▫◠▫▱▪",
        -9.859843868898185
      ],
      [
        "▁◞◪◚◗▽◧◓▾◎",
        -9.860205393581914
      ],
      [
        "▵▶◠",
        -9.861274285416528
      ],
      [
        "▁▻◂▱◗◞",
        -9.861329248164267
      ],
      [
        "▵▿▦◨▦",
        -9.86173788509466
      ],
      [
        "▦?",
        -9.863935646938021
      ],
      [
        "▁◞▪◓◠",
        -9.864078473003278
      ],
      [
        "▭◠▽◬◓■",
        -9.864124398113027
      ],
      [
        "▁◀◫▱◫◳◧◓",
        -9.86419993814432
      ],
      [
        "▁▨◧▦◨◒◎◠▨",
        -9.86423601676864
      ],
      [
        "▁◳◠▦▪▦◈◠",
        -9.864348339500985
      ],
      [
        "◫◞▫",
        -9.864407204354173
      ],
      [
        "▱◠◓◈▪◓",
        -9.864466056370322
      ],
      [
        "◈◬◐▪",
        -9.864687542633714
      ],
      [
        "▁◅",
        -9.864821332920972
      ],
      [
        "▁◕◪▱◗◓",
        -9.865561383113782
      ],
      [
        "▁◕◗◈◪◓",
        -9.866698945160863
      ],
      [
        "00",
        -9.86710925971978
      ],
      [
        "▁◗◞▴",
        -9.868671387963811
      ],
      [
        "▁◫▱◕◫▱◫",
        -9.868933615052168
      ],
      [
        "▷◠◎",
        -9.8692900032604
      ],
      [
        "▁◳◠◒◬▦◈◠",
        -9.869317675926741
      ],
      [
        "◒◠",
        -9.869364481529649
      ],
      [
        "◓◠▱",
        -9.869405759662484
      ],
      [
        "▁◀◪▦◈◪▦",
        -9.869850834634061
      ],
      [
        "◖◗◎◈◗",
        -9.86996237115231
      ],
      [
        "▷◠▦▴",
        -9.870508788095204
      ],
      [
        "◞◫▦◗▦",
        -9.87056128422536
      ],
      [
        "▁◧▱◠▼◠▨▵",
        -9.872628223577458
      ],
      [
        "▁◈◭◒",
        -9.872974992708507
      ],
      [
        "▽◫▢",
        -9.873299944273285
      ],
      [
        "◳◗▢",
        -9.873313133410305
      ],
      [
        "◫▼◗",
        -9.873523534158096
      ],
      [
        "▁◠▱◈▪",
        -9.87388419309993
      ],
      [
        "▁◠▱◈◬",
        -9.873903025945514
      ],
      [
        "▵◊",
        -9.873990087843417
      ],
      [
        "▁▽◠▨◠▱◠",
        -9.874031368391893
      ],
      [
        "▁◈◨◓◨◎◈◠",
        -9.874054441681826
      ],
      [
        "▁▴◓▨▴▨",
        -9.87407241024292
      ],
      [
        "▁▨◂▦◨◒◎◠",
        -9.874145619013582
      ],
      [
        "▁▮▫",
        -9.87438615715649
      ],
      [
        "▁◫◞▫◗◳◧◓",
        -9.875468208034508
      ],
      [
        "▁◝◨◓◠◈◠",
        -9.875675505481642
      ],
      [
        "?◑▴",
        -9.875704672831136
      ],
      [
        "◈▪◐▪",
        -9.876465873069217
      ],
      [
        "▁◚◠▨◗▫",
        -9.877117717862372
      ],
      [
        "◠▼◠◐▪▦◬",
        -9.877259020237858
      ],
      [
        "▫◧◓",
        -9.87733912982388
      ],
      [
        "▁◀◗▱◕◗",
        -9.877843709890142
      ],
      [
        "◎◠◞▪▦▪",
        -9.878220717052937
      ],
      [
        "▁◧▱◈▾◐◨",
        -9.878595591617572
      ],
      [
        "▁◡◂▷▦",
        -9.878662619808718
      ],
      [
        "▁◀◗▫◫◓",
        -9.878792040732556
      ],
      [
        "◞◗▦?",
        -9.879017092635651
      ],
      [
        "▁▽◠▨",
        -9.879721565329067
      ],
      [
        "▁◕◗▽",
        -9.880274862238535
      ],
      [
        "▁◕◣◓▴◚",
        -9.880280446173419
      ],
      [
        "▱▴◒▫◗◓",
        -9.880648934254648
      ],
      [
        "▁◝◨▦▾",
        -9.880993081795797
      ],
      [
        "▁◂▽▦◠",
        -9.8810203061237
      ],
      [
        "▁◧▱◈◨◐◨",
        -9.88117340860893
      ],
      [
        "▾▼◨",
        -9.881579643028175
      ],
      [
        "▵◝◠◀◠▦",
        -9.881734927588926
      ],
      [
        "▁◈▴▦▴",
        -9.882123630512943
      ],
      [
        "▁▽◠▻▫▪",
        -9.882532438192975
      ],
      [
        "▁◠◈◠◎▪◎",
        -9.883430384770666
      ],
      [
        "◀◂",
        -9.883939735202892
      ],
      [
        "?◝◠▦◠",
        -9.884336537475725
      ],
      [
        "▱◠◓▪▦◬▦",
        -9.884366011164289
      ],
      [
        "▁▾◐◓◠◒",
        -9.884405436003032
      ],
      [
        "◮",
        -9.884694584548221
      ],
      [
        "▁◠▫◎◠",
        -9.884989582210876
      ],
      [
        "▾◒",
        -9.885584494277953
      ],
      [
        "▽▪▢",
        -9.885627755464576
      ],
      [
        "▁◞◂▨",
        -9.885652049311233
      ],
      [
        "▁◣▢◭◓",
        -9.885879697576687
      ],
      [
        "▁◗▱◕◫▱◗",
        -9.886234385059897
      ],
      [
        "▁◀▾◕▩▦",
        -9.886811270365143
      ],
      [
        "▁▷◗◞◞▴◈",
        -9.88724804023385
      ],
      [
        "▁▨◠▦▪▫",
        -9.887566428261215
      ],
      [
        "▁◧▱◠▼◠◐▪◎",
        -9.887584595420712
      ],
      [
        "▁◠▱◎◠▽◠",
        -9.888003692586596
      ],
      [
        "▁◧▱◈◨◐▾",
        -9.888227505638298
      ],
      [
        "▮▴▦◗▦",
        -9.88859612618997
      ],
      [
        "◠◓◠",
        -9.888731922977442
      ],
      [
        "▮◠◈▴▼◪",
        -9.889079605951036
      ],
      [
        "▁◠▦▱◠◒",
        -9.889345465635994
      ],
      [
        "▁◗◞▫◗◳◂◓",
        -9.889729426363965
      ],
      [
        "▁◈◫◒",
        -9.890289366517003
      ],
      [
        "▁▨◂▦▾◒◎◠▨",
        -9.890582495644399
      ],
      [
        "▁▫◠▨▪◎",
        -9.891182569622678
      ],
      [
        "▰",
        -9.891319730677642
      ],
      [
        "▵◲▨◗",
        -9.891461052136453
      ],
      [
        "▁▯◠◞◬▱",
        -9.89214755614594
      ],
      [
        "◕◨",
        -9.892757221434584
      ],
      [
        "▁▽◠▻▫◬",
        -9.89341978251439
      ],
      [
        "▁◞▪▼◠▨",
        -9.893525255141066
      ],
      [
        "▁▷◠▢▪◓▱◠",
        -9.893905008186973
      ],
      [
        "▁◨◍◠▨",
        -9.894560722679955
      ],
      [
        "▁▷◠◓▴▨▴▫",
        -9.894560744999339
      ],
      [
        "▁◀▾▱◨▦",
        -9.894654992867043
      ],
      [
        "▁◗▱◕◗▱◗",
        -9.894879475284517
      ],
      [
        "▱◪◒▫◗◓",
        -9.895163378876266
      ],
      [
        "▁◀◗▱◕◫",
        -9.895288532280905
      ],
      [
        "▁◀◠◒▱◠◓",
        -9.895323337493293
      ],
      [
        "▻◂",
        -9.895602858852929
      ],
      [
        "▽▴▦",
        -9.895810097370854
      ],
      [
        "▁◞◠▦▨◗",
        -9.895946169588594
      ],
      [
        "▁◞◠▦▨◫",
        -9.895970071774968
      ],
      [
        "▨◨",
        -9.896142414015145
      ],
      [
        "▁▢◠◎◠▦◈▪◓",
        -9.896174023559478
      ],
      [
        "▶◠◎",
        -9.896353201841226
      ],
      [
        "▶▩◎",
        -9.896822708174184
      ],
      [
        "▁▷◠◈◫",
        -9.897352165513269
      ],
      [
        "◳◞◠",
        -9.89793570712314
      ],
      [
        "◞▩",
        -9.897962382138392
      ],
      [
        "▾▢■",
        -9.898052210201534
      ],
      [
        "▁◀◬◓◠▨◎◠",
        -9.899104367089222
      ],
      [
        "◎◬▽◂◓",
        -9.899280266699753
      ],
      [
        "▁◀◗◓▱◗▨▫◪",
        -9.899331985636454
      ],
      [
        "▵◝▾▦◨▦",
        -9.89958569053071
      ],
      [
        "▽◪▦",
        -9.899739609877754
      ],
      [
        "◗▦◗▢",
        -9.899806917534299
      ],
      [
        "▁◉◠◓▻",
        -9.899839150104468
      ],
      [
        "◓▴▦",
        -9.900099353733777
      ],
      [
        "▁◠▼◠◀◠?",
        -9.900527533595048
      ],
      [
        "◫▼◫",
        -9.90059435773173
      ],
      [
        "▁◈▾◓◨◎◈◠",
        -9.900829620167286
      ],
      [
        "◖◫◎◈◗",
        -9.901843835254146
      ],
      [
        "◈◗▦◗▢",
        -9.902945823382126
      ],
      [
        "○▦▱◠◒◬▱◈▪",
        -9.903410087647547
      ],
      [
        "▁◝◪",
        -9.904051964174997
      ],
      [
        "◨▽◧◓",
        -9.904874562298776
      ],
      [
        "▁◓◨▷",
        -9.907168344082317
      ],
      [
        "▁◉◂▼◨▨▱◠◓",
        -9.907270563086453
      ],
      [
        "▵◅▩▦▨▩",
        -9.907456768526913
      ],
      [
        "◈◬◐◬▦◬",
        -9.908095036981415
      ],
      [
        "◘▦",
        -9.90827547382095
      ],
      [
        "▨▾",
        -9.908410427434369
      ],
      [
        "◞◨▦◨▢",
        -9.90855013765368
      ],
      [
        "▁◗◞▫◫◳◂◓",
        -9.908561432768877
      ],
      [
        "▁◍◠◓▨◬▦◈◠",
        -9.908984894116571
      ],
      [
        "▷◫",
        -9.909320953540682
      ],
      [
        "▁19",
        -9.909370948751913
      ],
      [
        "▁◀◫▱◗▽◧◓",
        -9.909415253630378
      ],
      [
        "▁◂▱◎◠◞◬",
        -9.909730875378816
      ],
      [
        "▁◀◠▨▪▦",
        -9.909877514434122
      ],
      [
        "▁▴◈◫▦",
        -9.910394357621144
      ],
      [
        "▁◒▾▦▾",
        -9.910502413952862
      ],
      [
        "▁◎◠▦",
        -9.911084142141753
      ],
      [
        "▱▴◒▫◫◓",
        -9.911106385288507
      ],
      [
        "▁◀◠◒◠◓",
        -9.911571571329391
      ],
      [
        "'◈◠▨◗",
        -9.911807081042248
      ],
      [
        "◈◫▦?",
        -9.9119395988175
      ],
      [
        "▁◈▴◐◗▱◗◎",
        -9.912364716664381
      ],
      [
        "▁▫◂▻▱◠",
        -9.912396716743203
      ],
      [
        "▁◈◪▦◪",
        -9.913128568097274
      ],
      [
        "◠▦▱◠◓",
        -9.913144111364815
      ],
      [
        "◝▴▦◗",
        -9.913225582283332
      ],
      [
        "◝◫◓◠▢",
        -9.913273790998527
      ],
      [
        "▁◫◒◗▦",
        -9.913485778937982
      ],
      [
        "◱▷■",
        -9.914052733810038
      ],
      [
        "▁◉◣▢",
        -9.914109999496315
      ],
      [
        "!◆◪◓◗",
        -9.914196232033309
      ],
      [
        "▁◠◉◎◠",
        -9.914439775663329
      ],
      [
        "◞▪▦■",
        -9.914638503427874
      ],
      [
        "▵◦◓▫◬▨",
        -9.915168910672188
      ],
      [
        "▻▴◓",
        -9.915696208555818
      ],
      [
        "◐▴",
        -9.915853513494692
      ],
      [
        "◗▢◫",
        -9.916510978905738
      ],
      [
        "▁▽▴◓◈▴",
        -9.91730442483507
      ],
      [
        "▁▨◠▷◓◠◎◠▦",
        -9.91734063326798
      ],
      [
        "▁◈◧◞▫",
        -9.917567696246142
      ],
      [
        "▁▷◠▱",
        -9.917944068682079
      ],
      [
        "▵◙◠",
        -9.918102778622764
      ],
      [
        "▁◚◪◓◫◓",
        -9.918429844942288
      ],
      [
        "▁◈◨◓◨◎",
        -9.919283240603637
      ],
      [
        "▵◖",
        -9.919367109697312
      ],
      [
        "▁◒◨▦◨",
        -9.919445755312173
      ],
      [
        "▁◈◂◞▫▾◎",
        -9.91981554862926
      ],
      [
        "◠▼◠▨◞◬▦",
        -9.920035236570062
      ],
      [
        "◎◬▽◧◓",
        -9.92029950829393
      ],
      [
        "▁◀◫▱◫◳◂◓",
        -9.920746473794829
      ],
      [
        "▁◳◠▦▱◬◒",
        -9.92137085683644
      ],
      [
        "▁◞▴◉",
        -9.921509874334035
      ],
      [
        "▁◀▴◓◫",
        -9.921707772769675
      ],
      [
        "▁▨◂▼◠",
        -9.921912116393127
      ],
      [
        "▁◕◪◓◉▴▨▫◪▦",
        -9.921950806377655
      ],
      [
        "◒▴◳",
        -9.922029157998441
      ],
      [
        "▁▦◪▱▴◓",
        -9.92207140084301
      ],
      [
        "▁◠▱◎◠◳◠",
        -9.922300599152035
      ],
      [
        "▁◳◂▱◨▦◈◠",
        -9.922578454933038
      ],
      [
        "!◝◗◓",
        -9.922876097281772
      ],
      [
        "◓◪▽◪",
        -9.923060454872807
      ],
      [
        "◎◠◞◬▦▪",
        -9.923142026660688
      ],
      [
        "▁◂▱◎◨◒",
        -9.92323482687088
      ],
      [
        "▁◈◠◚◪▫",
        -9.923321716074986
      ],
      [
        "'◳▴",
        -9.923653666391466
      ],
      [
        "▁◫◉◫▦◈◪",
        -9.923718197637394
      ],
      [
        "▁◕▴▱◎▴",
        -9.924160087467936
      ],
      [
        "▁◀◫◓▱◫▨▫◪",
        -9.924679907638783
      ],
      [
        "◆◪◓◫",
        -9.924784965532897
      ],
      [
        "◫▢◫",
        -9.925769012748436
      ],
      [
        "◠▼◠◐◬▦▪",
        -9.926160415590253
      ],
      [
        "◎▻",
        -9.926237178452531
      ],
      [
        "◫▢◗",
        -9.92774184378398
      ],
      [
        "▁◫◞▫◫▽◂◓",
        -9.928087725410247
      ],
      [
        "▁◙◂",
        -9.928259311811512
      ],
      [
        "▵◟",
        -9.928361056915785
      ],
      [
        "◫▦◕",
        -9.928529517737989
      ],
      [
        "▁◈▩▦",
        -9.929000957214674
      ],
      [
        "◒◪",
        -9.929408296032088
      ],
      [
        "▽▨◪▦",
        -9.929804387469071
      ],
      [
        "▁◢◗◎",
        -9.930300147677412
      ],
      [
        "◙◪",
        -9.93042545037725
      ],
      [
        "▁◞◠▦▪◓▪◎",
        -9.930515595572098
      ],
      [
        "◎◠▱▪◞◬▦",
        -9.930957604642426
      ],
      [
        "▁◝▾▦▾",
        -9.931135794450629
      ],
      [
        "▁◓◠◐◎▴▦",
        -9.931258502885983
      ],
      [
        "▁▻◠◓▨",
        -9.931560198396822
      ],
      [
        "◐▾",
        -9.931580129644583
      ],
      [
        "◐◪",
        -9.931659144894837
      ],
      [
        "◨▼▾",
        -9.931911972076744
      ],
      [
        "▁▽◠▻◠▼◠◐◬◎",
        -9.932211595683071
      ],
      [
        "▁◀◗◓▱◗▨▫▴",
        -9.933028130251099
      ],
      [
        "▁◎▴◞◠▸",
        -9.933271811340102
      ],
      [
        "▁◀◠◀◠◞◬",
        -9.93328942086438
      ],
      [
        "▁▷◠▦◕◫",
        -9.933714397767236
      ],
      [
        "▁◪◈◗▦",
        -9.934098165428962
      ],
      [
        "▁◞◠◐▱◠",
        -9.934284587320835
      ],
      [
        "▁▫◠▫▱▪◎",
        -9.934497135604559
      ],
      [
        "▵◲▽◫",
        -9.93456785938982
      ],
      [
        "◎◗◒▫◫",
        -9.934627485495739
      ],
      [
        "▁◀◠▨▵",
        -9.934811618368599
      ],
      [
        "◝▾▦◠",
        -9.934922232653431
      ],
      [
        "▱◪◒▫◫◓",
        -9.936666828491116
      ],
      [
        "▁◲",
        -9.936862508243227
      ],
      [
        "▁◄◧",
        -9.93695221064998
      ],
      [
        "◳◬▢",
        -9.937217623028053
      ],
      [
        "▵◝◠◳◠▦",
        -9.937822256616615
      ],
      [
        "▁◚▴◓◫◓",
        -9.938074051924708
      ],
      [
        "▁◀▪◓◠▨◎◠",
        -9.938201723712876
      ],
      [
        "▁◞◠▨◗▦",
        -9.938454774190681
      ],
      [
        "▵○◓▫▪▨",
        -9.938722586878082
      ],
      [
        "▴◓◪▨",
        -9.938737839095221
      ],
      [
        "▁◪▫▫◫◎",
        -9.939595909138255
      ],
      [
        "▁◫▱◕◗▱◗",
        -9.94014342934475
      ],
      [
        "▱◈",
        -9.940172047360477
      ],
      [
        "◎◧",
        -9.940320327554637
      ],
      [
        "▁◕◇◓◎◪",
        -9.941394004823891
      ],
      [
        "▁◪◈◪◓◗◎",
        -9.942148058624287
      ],
      [
        "▁▦◪◓◪◈▴",
        -9.942296187995527
      ],
      [
        "▁◢◫◎",
        -9.94249672107086
      ],
      [
        "▁◠◈◠",
        -9.942688908752274
      ],
      [
        "▁◚◪▽◠",
        -9.942767005790362
      ],
      [
        "▁▨◧◓◨",
        -9.943172510201961
      ],
      [
        "▯◠◞▪▱",
        -9.944272881794321
      ],
      [
        "'▽◫",
        -9.944466245191009
      ],
      [
        "▁◝◫▱",
        -9.944879463490906
      ],
      [
        "!▿",
        -9.945110724546838
      ],
      [
        "◎◠◈◬",
        -9.94528357239297
      ],
      [
        "▱◪◓◫◎",
        -9.945321148734255
      ],
      [
        "◈◬◐◬▦▪",
        -9.94572029630067
      ],
      [
        "▁◕◣◓◎◪",
        -9.945918609437177
      ],
      [
        "▱◠◓◞◠",
        -9.945938058588407
      ],
      [
        "◈◗▦?",
        -9.946366304189468
      ],
      [
        "▽◂",
        -9.946649446340043
      ],
      [
        "▁◫◞◪",
        -9.946963908755801
      ],
      [
        "▁◉◠▱◬◒◠▦",
        -9.9485660515329
      ],
      [
        "▁▷◠◓◪▨▴▫",
        -9.948872457481173
      ],
      [
        "▁◳◠▻▫◬◎",
        -9.948886309333854
      ],
      [
        "▁◀◨◕▩▦",
        -9.94902920500925
      ],
      [
        "◎▴◈◗",
        -9.94914669713599
      ],
      [
        "▁◈▴◐◪◓",
        -9.949266015182582
      ],
      [
        "▁◕◗◈◗▻",
        -9.94927402234492
      ],
      [
        "▁▨◧▼◠",
        -9.949321778631996
      ],
      [
        "▁◈◪◐◫▱◫◎",
        -9.949371287292877
      ],
      [
        "▁▶◠◎",
        -9.949607963747038
      ],
      [
        "▁▽◠◒◠◎",
        -9.9496144034023
      ],
      [
        "◠▻",
        -9.950004764734107
      ],
      [
        "▁▨◧▱◠◳",
        -9.95003329965072
      ],
      [
        "▁◞▴▨◞",
        -9.950123030720071
      ],
      [
        "◝◪▦◫◎",
        -9.950268933486026
      ],
      [
        "!◝◫◓",
        -9.951530171677195
      ],
      [
        "▻◪◓",
        -9.951596937315195
      ],
      [
        "▁◈◧▱◠◒",
        -9.951606299764162
      ],
      [
        "▻◫",
        -9.951699874813436
      ],
      [
        "▯▴◈◪▦",
        -9.952076134631639
      ],
      [
        "▁◚▴◓◎▴",
        -9.952510483878477
      ],
      [
        "▁◞▴◍▴◓",
        -9.953113393647651
      ],
      [
        "◞▫▴◓",
        -9.953539163500515
      ],
      [
        "◞◭",
        -9.953855758715207
      ],
      [
        "◞■",
        -9.954673680803745
      ],
      [
        "▁▫◠◓◠◍◠",
        -9.95480893282317
      ],
      [
        "◎◬◳◂◓",
        -9.954972550662326
      ],
      [
        "▁◣▱◈▩",
        -9.955101483524835
      ],
      [
        "▵◲◒▫▴",
        -9.95536643505304
      ],
      [
        "▵◝◠",
        -9.955763825833554
      ],
      [
        "▁◂▱◈◨◐▾",
        -9.956218854691233
      ],
      [
        "▁◘◚",
        -9.956381397992985
      ],
      [
        "▱◠▦◈",
        -9.956510497871976
      ],
      [
        "▁◳◠▻▫◬",
        -9.957000137822035
      ],
      [
        "◳▨◪▦",
        -9.95702512291625
      ],
      [
        "▵◊▱▨",
        -9.957166116901961
      ],
      [
        "▁▦◂◓◎◠▱",
        -9.958217954209855
      ],
      [
        "▁▫◠▷◎◫▦",
        -9.958218417362485
      ],
      [
        "▁▴◚▱◠▫",
        -9.95833639145824
      ],
      [
        "▁◠▫▱◠",
        -9.958454856175605
      ],
      [
        "▁◍◠◓▨▪▦◈◠",
        -9.95854265736679
      ],
      [
        "▁◉◠◀▾▨",
        -9.95856501691479
      ],
      [
        "◈▪◐◬▦▪",
        -9.959701962855764
      ],
      [
        "▁◕◫◈◫▻",
        -9.959945019443133
      ],
      [
        "▴▼▴◐◫▢",
        -9.960812972641055
      ],
      [
        "▁◙◧",
        -9.960871870382483
      ],
      [
        "▁▨◠▫▱◠▦",
        -9.960965258167976
      ],
      [
        "▵◧",
        -9.960977304203318
      ],
      [
        "▁◠◉▪▱",
        -9.961054148586353
      ],
      [
        "▁◳◠◒◠◎",
        -9.96123940774109
      ],
      [
        "◗▦◕",
        -9.961518262758252
      ],
      [
        "▁◀◨▱◨▦",
        -9.961938620814024
      ],
      [
        "▮▴▦◗",
        -9.96216874247858
      ],
      [
        "▫◫◐◗",
        -9.962394986148304
      ],
      [
        "▁◕◣◓◈◭◎",
        -9.963048535789927
      ],
      [
        "▁◇▱◈▩",
        -9.963267925401952
      ],
      [
        "▁▭◠◳◬◓",
        -9.963371571905643
      ],
      [
        "▁◉◬▨◠◓▫",
        -9.96463081524763
      ],
      [
        "▱◫▦",
        -9.965080076130322
      ],
      [
        "▁▦◪▱◪◓",
        -9.965085174419162
      ],
      [
        "▱◪▫",
        -9.965820704580619
      ],
      [
        "▁◕◫▫◎▴",
        -9.965998936977584
      ],
      [
        "▁◈▴◓◞",
        -9.966766188606604
      ],
      [
        "▁◠◓◠◒▫▪◓◎◠",
        -9.966911884690507
      ],
      [
        "▁▷◠▻",
        -9.967175142503223
      ],
      [
        "▫◠▱",
        -9.967365750422422
      ],
      [
        "▵◢◠◓",
        -9.967437023086761
      ],
      [
        "◧▨",
        -9.967756775126329
      ],
      [
        "▁◀▴▦◈◪▦",
        -9.968332905716679
      ],
      [
        "▁▨◂◓▨▾▦◉",
        -9.96835066374529
      ],
      [
        "▁▯◪◈▴▦",
        -9.968890114848914
      ],
      [
        "◎◠◈▪",
        -9.969217095891379
      ],
      [
        "▁◈▩◒",
        -9.969298917765865
      ],
      [
        "▫◗◐◫",
        -9.969383923718086
      ],
      [
        "▽◧◓◨◎",
        -9.97003343902146
      ],
      [
        "◳◧◓◨◎",
        -9.970075877266776
      ],
      [
        "▁◪◚▴▫",
        -9.970252225236123
      ],
      [
        "▁▨◓◠▱",
        -9.971116105243585
      ],
      [
        "◠▼◠◐▪◎▵",
        -9.971147448376456
      ],
      [
        "▁◀◫▫",
        -9.971469121163786
      ],
      [
        "▁◠▽◓▪▱",
        -9.971733507305592
      ],
      [
        "▁▨◂▦▾◈◠",
        -9.971813453070808
      ],
      [
        "▦▾▦",
        -9.971864159550876
      ],
      [
        "▁▩◞▫",
        -9.972018889135384
      ],
      [
        "▮◪▦◫",
        -9.972230028987322
      ],
      [
        "▁◗◞▫◫▽◂◓",
        -9.972332075598345
      ],
      [
        "▁◞◪◍▴◓",
        -9.972437294184498
      ],
      [
        "▁▽◠▻▫◬◎",
        -9.973026735589475
      ],
      [
        "▁▽◠◒◬▦◈◠",
        -9.973282303435617
      ],
      [
        "▁▫◠▨◬◎",
        -9.973308912087871
      ],
      [
        "◞◬▦◈◠▦",
        -9.973577843302257
      ],
      [
        "▽◫▦",
        -9.973702558842756
      ],
      [
        "◂◞",
        -9.973934339320893
      ],
      [
        "◊◒▫▴",
        -9.97409645010385
      ],
      [
        "▁▷◠▢◬◓▱◠",
        -9.974648010054642
      ],
      [
        "▮◠▦▪◓▪◎",
        -9.974971737969618
      ],
      [
        "▁◪◈◫▦",
        -9.975033767402955
      ],
      [
        "◞▻",
        -9.975128131479211
      ],
      [
        "▁◈◪◍◠",
        -9.975336653977077
      ],
      [
        "▁◂▫▾◓",
        -9.975725160374264
      ],
      [
        "◪◓◪▨",
        -9.97576786326887
      ],
      [
        "▵◤◠▦◗",
        -9.976005223070072
      ],
      [
        "▵□◪▨◠▱◠■",
        -9.976397830113982
      ],
      [
        "▵◦◈◠◎",
        -9.977105350836212
      ],
      [
        "▁◀◠▦▨◠",
        -9.977186737429045
      ],
      [
        "▁◀▴◓◠◀▴◓",
        -9.977192482757115
      ],
      [
        "▁◕◠▢",
        -9.977592983582142
      ],
      [
        "▵◱▷■",
        -9.977899556658851
      ],
      [
        "▁◭◞▫",
        -9.978255246318941
      ],
      [
        "▁▢◠◎◠▦◈◬◓",
        -9.979097344418626
      ],
      [
        "▁◠▻▫◠▱▼◠",
        -9.979114885656617
      ],
      [
        "▁▷▴▻◞◗",
        -9.979233148523484
      ],
      [
        "▁◈◬◒◠◓◬",
        -9.980117008874565
      ],
      [
        "◰▦",
        -9.98033405262296
      ],
      [
        "◈◭◎",
        -9.980371783658008
      ],
      [
        "▁◧▱◠▼◠◐◬◎",
        -9.98054560291148
      ],
      [
        "▁▴◈◫▱",
        -9.98116789119327
      ],
      [
        "▵▶◠▦◓◬",
        -9.98132974525766
      ],
      [
        "▁◈◨◓▾◎",
        -9.98155882259224
      ],
      [
        "▁◚◪◓◈◗",
        -9.981642118429749
      ],
      [
        "▁◞◪◍◪◓",
        -9.98206850881074
      ],
      [
        "▁◈▪◒◠◓▪",
        -9.982328437006899
      ],
      [
        "◎◫◒▵",
        -9.98278705321235
      ],
      [
        "▁▲◗",
        -9.982854290029945
      ],
      [
        "▱◠▫",
        -9.983171653492413
      ],
      [
        "▁◈◂▱◠◒",
        -9.983283386786194
      ],
      [
        "▁▯◪▥",
        -9.983545434935927
      ],
      [
        "◈▪◐▪▦▪",
        -9.983615600801548
      ],
      [
        "◞◗▦◈▴▦",
        -9.983621519799565
      ],
      [
        "▁◎◨◞◨▦",
        -9.98400972811407
      ],
      [
        "▁▨◠◓◈▴◒",
        -9.984768377489896
      ],
      [
        "▦◈▴",
        -9.984977665125125
      ],
      [
        "▁◕◪▱◎◪",
        -9.985235481396911
      ],
      [
        "▁▮◨",
        -9.985367011043977
      ],
      [
        "◬▦◬▢",
        -9.985540179068929
      ],
      [
        "▼▩",
        -9.985566120481215
      ],
      [
        "▮◪▦◗",
        -9.985593058905192
      ],
      [
        "◝◗▢",
        -9.985847860719845
      ],
      [
        "▭◪▽■",
        -9.985948402458682
      ],
      [
        "▁◠▱◠▼◠◐◬◎",
        -9.986006658142147
      ],
      [
        "▁◈◂▨▫◧◓",
        -9.986791194360542
      ],
      [
        "▁◀◪◓◠◀▴◓",
        -9.986805119969553
      ],
      [
        "▁▨◂▱◠▽",
        -9.987021160161774
      ],
      [
        "◞◠▦▪▢",
        -9.987189507324576
      ],
      [
        "◎◠◞◬▦◬",
        -9.987198744237691
      ],
      [
        "▵◝▾▦▾▦",
        -9.98731999772679
      ],
      [
        "◨▫",
        -9.98745270543418
      ],
      [
        "▁▫◨▷◠◍",
        -9.987813196230128
      ],
      [
        "▵▶◠▦◓▪",
        -9.988078951048163
      ],
      [
        "◂▫",
        -9.988581698784078
      ],
      [
        "▁◳▴",
        -9.988717807412264
      ],
      [
        "▦◫▢◗",
        -9.98928171377609
      ],
      [
        "▁◄◪",
        -9.989441093858426
      ],
      [
        "▵◢▴▦◈◗",
        -9.989471538390074
      ],
      [
        "▁◕◗◈▴◓",
        -9.99003333330376
      ],
      [
        "▁◕◪◓◪▨◪▦",
        -9.990304174305688
      ],
      [
        "▿▦◠",
        -9.990689592418015
      ],
      [
        "▁◒▾▦◨",
        -9.991535579450062
      ],
      [
        "◎◠▱◬",
        -9.991881792925325
      ],
      [
        "▁◕◇◓▩▦",
        -9.991894207698934
      ],
      [
        "◀◠◀◠",
        -9.991993411863806
      ],
      [
        "▵◱▦▾▦",
        -9.992313471487709
      ],
      [
        "◧◞",
        -9.992531980184147
      ],
      [
        "◆▴◓◗",
        -9.993679677934253
      ],
      [
        "▁◣▻",
        -9.993703646290466
      ],
      [
        "◎▩",
        -9.994118340223995
      ],
      [
        "▁◧▱◨▦",
        -9.994153150528861
      ],
      [
        "◎◫◒▫◗",
        -9.994253853839691
      ],
      [
        "▁◞◠◐▱◠◎",
        -9.994573926043993
      ],
      [
        "▁▷◫◞",
        -9.99508441620118
      ],
      [
        "▨▴▫",
        -9.995193591675159
      ],
      [
        "▁◈◪◐◗▱◫◎",
        -9.995736267128965
      ],
      [
        "▁◫▢",
        -9.996062147690651
      ],
      [
        "▩◳◂◓",
        -9.996223491792723
      ],
      [
        "▵◝◠◒",
        -9.996319684769276
      ],
      [
        "▁◪◈◗▱",
        -9.99650291701507
      ],
      [
        "▁◒◠◓◠▻",
        -9.996516584594717
      ],
      [
        "◎▪▢◠",
        -9.996581103087117
      ],
      [
        "▁◀◠◞◗▫",
        -9.996745482247837
      ],
      [
        "▁▷◠▦◕◗",
        -9.996815098438505
      ],
      [
        "◕▴▦",
        -9.996909596455247
      ],
      [
        "◐▩",
        -9.997335275328613
      ],
      [
        "▁◈◧▨▫◂◓",
        -9.99737350818875
      ],
      [
        "▁◀◗▫◗◓",
        -9.997936088192988
      ],
      [
        "▁◈◪◐◪◓",
        -9.998101967111499
      ],
      [
        "▁◀◗▱◗▽◂◓",
        -9.999147920660185
      ],
      [
        "▁◠▽◠▨",
        -9.99938436209315
      ],
      [
        "◊▱▨",
        -9.999494541244797
      ],
      [
        "▁◡◧▷▦",
        -9.999732284779054
      ],
      [
        "▁◗◞▫◗▽◧◓",
        -10.000271607077769
      ],
      [
        "▁◀◫◓▱◫▨▫▴",
        -10.000716677016898
      ],
      [
        "▁◀◠▷◞◪▫",
        -10.000748046503102
      ],
      [
        "▁◞◂▦◓◠■",
        -10.001122154838377
      ],
      [
        "'◞",
        -10.001528569464542
      ],
      [
        "▱▫",
        -10.001714176345853
      ],
      [
        "▱◫◐◫▦",
        -10.001751879116334
      ],
      [
        "▁▦▴◓▴◈▴",
        -10.002085786943749
      ],
      [
        "▭◫◉",
        -10.002196080931238
      ],
      [
        "◎▴◳◗",
        -10.00237454519878
      ],
      [
        "◞◗▦◈◪▦",
        -10.002542577892502
      ],
      [
        "▨◫▦",
        -10.002610652528602
      ],
      [
        "?◙",
[...]
